{
  "</s>": 0,
  "<unk>": 1,
  ".": 2,
  ",": 3,
  ">>zh_cn<<": 4,
  "\u2581": 5,
  "?": 6,
  ">>zh_tw<<": 7,
  "\u2581-": 8,
  "!": 9,
  "\u7684": 10,
  "\u2581die": 11,
  "\u2581Ich": 12,
  "\u2581ist": 13,
  "\u2581und": 14,
  "\u2581der": 15,
  "\u2581nicht": 16,
  "\u2581Sie": 17,
  "\u2581ich": 18,
  "...": 19,
  "s": 20,
  "\u2581das": 21,
  "\u2581du": 22,
  "\u2581zu": 23,
  "\u2581in": 24,
  "\u4e86": 25,
  "\u2581es": 26,
  "en": 27,
  "n": 28,
  "\u2581den": 29,
  "\u2581sie": 30,
  "\u2581ein": 31,
  "\u2581\u6211": 32,
  "\u2581auf": 33,
  "\u2581mit": 34,
  "e": 35,
  "\u2581Das": 36,
  ">>zh<<": 37,
  "\u2581\u4f60": 38,
  "-": 39,
  "\u2581von": 40,
  "'": 41,
  "\u2581wir": 42,
  "\"": 43,
  "\u2581f\u00fcr": 44,
  "\u2581mir": 45,
  "\u2581dass": 46,
  "\u548c": 47,
  "\u6211": 48,
  "\u2581was": 49,
  ">>ze_zh<<": 50,
  "\u2581Du": 51,
  "\u2581mich": 52,
  "\u2581(": 53,
  "\u2581eine": 54,
  "\u2581Was": 55,
  "\u4f60": 56,
  "\u2581er": 57,
  "\u2581Und": 58,
  ")": 59,
  "\u2581an": 60,
  ":": 61,
  "\u2581\"": 62,
  "\u2581sind": 63,
  "\u2581hat": 64,
  "\u2581so": 65,
  "t": 66,
  "\u2581Wir": 67,
  "\u2581haben": 68,
  "\u2581dich": 69,
  "\u2581Es": 70,
  "\u2581war": 71,
  "\u5728": 72,
  "\u2581dem": 73,
  "\u2581Ja": 74,
  "\u2581Er": 75,
  "\u2581wie": 76,
  ">>zh_CN<<": 77,
  "\u2581sich": 78,
  "\u2581Die": 79,
  "\u2581hier": 80,
  "\u662f": 81,
  "\u2581des": 82,
  "er": 83,
  "\u2581\u4ed6": 84,
  ";": 85,
  "\u5417": 86,
  "\u2581habe": 87,
  "\u2581einen": 88,
  "\u2581bin": 89,
  "\u2581noch": 90,
  "\u2581dir": 91,
  "\u2581aus": 92,
  "\u2581im": 93,
  ">>zh_TW<<": 94,
  "\u2581uns": 95,
  "\u2581um": 96,
  "\u2581nur": 97,
  "\u2581Nein": 98,
  "\u2581wird": 99,
  "\u2581ihr": 100,
  "\u2581auch": 101,
  "\u4ed6": 102,
  "\u2581als": 103,
  "\u2581sein": 104,
  "\u2581da": 105,
  "\u2581werden": 106,
  "\u2581ihn": 107,
  "\u2581kann": 108,
  "\u2581wenn": 109,
  "\u2581aber": 110,
  "\u2581Aber": 111,
  "\u4e0d": 112,
  "\u5427": 113,
  "\u2581hast": 114,
  "\u2581schon": 115,
  "\u2581nach": 116,
  "\u2581oder": 117,
  "\u2581Wie": 118,
  "\u6709": 119,
  "\u2581\u00fcber": 120,
  "\u2581\u4e0d": 121,
  "\u4eba": 122,
  "\u2581Der": 123,
  "\u2581mal": 124,
  "\u55ce": 125,
  "\u2581gut": 126,
  "\u2581bist": 127,
  "cH": 128,
  "\u2581wei\u00df": 129,
  "\u4e0a": 130,
  "\u2581bei": 131,
  "\u2581meine": 132,
  "\u2581jetzt": 133,
  "\u2581{\\": 134,
  "r": 135,
  "\u2581doch": 136,
  "\u2581will": 137,
  "\u2581\u6211\u4eec": 138,
  "\u2581I": 139,
  "\u2581vor": 140,
  "\u2581Wenn": 141,
  "\u5462": 142,
  "\u554a": 143,
  "3": 144,
  "/": 145,
  "2": 146,
  "\u53bb": 147,
  "\u4e2d": 148,
  "m": 149,
  "\u2581the": 150,
  "\u2581mehr": 151,
  "\u2581mein": 152,
  "\u5230": 153,
  "\u2581ja": 154,
  "\u2581dann": 155,
  "\u5979": 156,
  "\u2581muss": 157,
  "d": 158,
  "\\": 159,
  "\u2581keine": 160,
  "\u5e74": 161,
  "\u8981": 162,
  "\u6211\u4eec": 163,
  "\u2581einer": 164,
  "\u2581alles": 165,
  "\u2581\u5728": 166,
  "\u2581man": 167,
  "\u2581\u5979": 168,
  "\u2581geht": 169,
  "\u2581zum": 170,
  "\u2581Ihr": 171,
  "\u2581hab": 172,
  "\u2581Oh": 173,
  "\u2581nichts": 174,
  "\u2581alle": 175,
  "\u2581\u662f": 176,
  "\u2581einem": 177,
  "\u2581immer": 178,
  "\u2581etwas": 179,
  "\u2581Ein": 180,
  "\u2581k\u00f6nnen": 181,
  "st": 182,
  "\u2581you": 183,
  "\u2581\u0438": 184,
  "\u2581wieder": 185,
  "\u2581zur": 186,
  "\u5c31": 187,
  "\u2581a": 188,
  "\u4f1a": 189,
  "\u2581ihm": 190,
  "1": 191,
  "\u2581to": 192,
  "\u4e00": 193,
  "\u2581euch": 194,
  "\u2581Mann": 195,
  "\u90fd": 196,
  "\u2581tun": 197,
  "\u5927": 198,
  "\u6765": 199,
  "%": 200,
  "F": 201,
  "\u5730": 202,
  "es": 203,
  "\u2581Ist": 204,
  "\u2581Ihnen": 205,
  "\u2581sagen": 206,
  "\u597d": 207,
  "\u2581m\u00fcssen": 208,
  "\u2581So": 209,
  "y": 210,
  "\u2581machen": 211,
  "\u2581diese": 212,
  "4": 213,
  "\u2581denn": 214,
  "\u65e5": 215,
  "\u8bf4": 216,
  "\u7684\u4eba": 217,
  ".\"": 218,
  "\u88ab": 219,
  "\u2581gibt": 220,
  "\u2581am": 221,
  "a": 222,
  "\u2581In": 223,
  "\u91cc": 224,
  "\u2581\u90a3": 225,
  "\u2581durch": 226,
  "\u2581sehen": 227,
  "\u4e3a": 228,
  "\u2581\u6211\u5011": 229,
  "\u4ed6\u4eec": 230,
  "\u2581\u4f46": 231,
  "\u90a3": 232,
  "\u6708": 233,
  "\u5bf9": 234,
  "\u2581Zeit": 235,
  "\u2581soll": 236,
  "\u2581nie": 237,
  "\u2581Da": 238,
  "\u2581sehr": 239,
  "\u2581ab": 240,
  "\u2581gehen": 241,
  "\u2581los": 242,
  "\u80fd": 243,
  "\u2581Warum": 244,
  "\u2581vom": 245,
  "\u2581Wo": 246,
  "\u2581ihre": 247,
  "\u2581wurde": 248,
  "\u2581Gott": 249,
  "\u2581unter": 250,
  "\u2581w\u00fcrde": 251,
  "\u7b2c": 252,
  "\u4e0b": 253,
  "\u2581werde": 254,
  "\u2581'": 255,
  "\u2581Danke": 256,
  "\u2581deine": 257,
  "\u4ec0\u4e48": 258,
  "\u5f97": 259,
  "\u2581wissen": 260,
  "\u8fd9": 261,
  "\u2581A": 262,
  "\u2581\u8fd9": 263,
  "\u6211\u5011": 264,
  "re": 265,
  "\u2581hatte": 266,
  "\u00b7": 267,
  "\u2581Hey": 268,
  "\u4e5f": 269,
  "\u2581viel": 270,
  "\u2581Also": 271,
  "\u2581einfach": 272,
  "\u2581zur\u00fcck": 273,
  "\u505a": 274,
  "\u2581\u662f\u7684": 275,
  "\u65af": 276,
  "\u2581bitte": 277,
  "\u51fa": 278,
  "\u2581kein": 279,
  "\u2581damit": 280,
  "\u7528": 281,
  "\u5b50": 282,
  "\u60f3": 283,
  "\u5148\u751f": 284,
  "ung": 285,
  "\u2581Dann": 286,
  "\u2581Leben": 287,
  "\u2581\u597d": 288,
  "\u2581\u4ed6\u4eec": 289,
  "in": 290,
  "\u2581dieser": 291,
  "\u2581Komm": 292,
  "\u5b83": 293,
  "\u5f88": 294,
  "\u4f60\u7684": 295,
  "\u2581K": 296,
  "o": 297,
  "\u2581gesagt": 298,
  "\u53ef\u4ee5": 299,
  "\u2581seine": 300,
  "\u2581Nicht": 301,
  "\u6703": 302,
  "\u2581bis": 303,
  "\u628a": 304,
  "\u2581Na": 305,
  "\u4e00\u4e2a": 306,
  "\u2581Wer": 307,
  "\u8005": 308,
  "\u591a": 309,
  "A": 310,
  "\u4e0e": 311,
  "\u65f6": 312,
  "\u2581w\u00e4re": 313,
  "\u800c": 314,
  "\u2581Hier": 315,
  "\u2581\u6709": 316,
  "\u2581wirklich": 317,
  "\u2581of": 318,
  "S": 319,
  "\u2581\u9019": 320,
  "\u4f86": 321,
  "\u5c0f": 322,
  "\u2581dein": 323,
  "\u81ea\u5df1": 324,
  "\u5e76": 325,
  "\u2581Mr": 326,
  "\u2581wo": 327,
  "\u2581wollte": 328,
  "_": 329,
  "\u2581\u5c31": 330,
  "\u8aaa": 331,
  "P": 332,
  "\u2581be": 333,
  "\u8fc7": 334,
  "\u6240": 335,
  "\u5011": 336,
  "\u2581Frau": 337,
  "ing": 338,
  "\u2581\u597d\u5427": 339,
  "\u2581Nationen": 340,
  "\u2581weg": 341,
  "\u2581her": 342,
  "\u2581heute": 343,
  "\u2581wollen": 344,
  "\u2581Vereinte": 345,
  "b": 346,
  "\u8d70": 347,
  "\u25811": 348,
  "\u4ee5": 349,
  "\u2581waren": 350,
  "\u2581Ihre": 351,
  "\u5de5\u4f5c": 352,
  "\u2581meinen": 353,
  "c": 354,
  "\u770b": 355,
  "\u7279": 356,
  "\u6211\u7684": 357,
  "\u8054\u5408\u56fd": 358,
  "\u6ca1\u6709": 359,
  "\u2581kommen": 360,
  "\u2581zwei": 361,
  "\u2581kommt": 362,
  "\u2581Okay": 363,
  "\u2581Tag": 364,
  "\u2581ihnen": 365,
  "\u70b9": 366,
  "\u6216": 367,
  "\u53f7": 368,
  "\u4f60\u4eec": 369,
  "\u2581Mein": 370,
  "i": 371,
  "\u2581sicher": 372,
  "}{\\": 373,
  "\u2581also": 374,
  "\u5c06": 375,
  "fs": 376,
  "\u8fd9\u4e2a": 377,
  "\u2581anderen": 378,
  "\u2581it": 379,
  "\u6027": 380,
  "\u2581Welt": 381,
  "\u2581S": 382,
  "\u62c9": 383,
  "\u2581ganz": 384,
  "\u2581\u6211\u60f3": 385,
  "\u2581h\u00e4tte": 386,
  "\u6bd4": 387,
  "ne": 388,
  "\u5bb6": 389,
  "\u2581Eine": 390,
  "\u4ed6\u5011": 391,
  "\u2581Bitte": 392,
  "\u2581Leute": 393,
  "cHFFFFFF": 394,
  "\u2581lassen": 395,
  "\u2581Vater": 396,
  "\u5fb7": 397,
  "\u2581\u54e6": 398,
  "\u2581Jetzt": 399,
  "\u2581willst": 400,
  "\u2581Menschen": 401,
  "\u2581\u6211\u8981": 402,
  "\u2581leid": 403,
  "\u540e": 404,
  "\u0438": 405,
  "\u2581\u6211\u662f": 406,
  "\u2581Alles": 407,
  "\u2581\u8981": 408,
  "\u2581tut": 409,
  "\u2581hin": 410,
  "\u2581k\u00f6nnte": 411,
  "\u53ef": 412,
  "\u9700\u8981": 413,
  "\u4e0d\u662f": 414,
  "\u2581\u4f46\u662f": 415,
  "\u6253": 416,
  "g": 417,
  "\u2581Geld": 418,
  "ed": 419,
  "\u2581kannst": 420,
  "\u2581B": 421,
  "\u5176": 422,
  "\u2581Sir": 423,
  "\u524d": 424,
  "\u2581weil": 425,
  "\u9019": 426,
  "\u2581Hast": 427,
  "\u2581\u4f60\u4eec": 428,
  "\u2581Auf": 429,
  "\u2581\u8fd9\u662f": 430,
  "\u2581Gut": 431,
  "\u2581...": 432,
  "\u2581raus": 433,
  "1\\": 434,
  "\u514b": 435,
  "\u95ee\u9898": 436,
  "\u2581macht": 437,
  "\u6b7b": 438,
  "\u2581Hallo": 439,
  "\u2581\u4ec0\u4e48": 440,
  "l": 441,
  "\u904e": 442,
  "\u51b3\u8bae": 443,
  "\u25812": 444,
  "\u2581Vielleicht": 445,
  "\u2581diesem": 446,
  "\u2581gesehen": 447,
  "\u2581sagte": 448,
  "\u2581ob": 449,
  "\u2581keinen": 450,
  "\u2581sollte": 451,
  "\u518d": 452,
  "\u2581gerade": 453,
  "\u2581nein": 454,
  "\u2581ver": 455,
  "\u2581gemacht": 456,
  "\u2581Nach": 457,
  "\u4e2a": 458,
  "\u2581eines": 459,
  "&": 460,
  "\u2581glaube": 461,
  "\u2581diesen": 462,
  "\u2581\u563f": 463,
  "\u2581that": 464,
  "\u2581and": 465,
  "\u2581is": 466,
  "\u2581selbst": 467,
  "\u2581wohl": 468,
  "\u5411": 469,
  "\u2581Ge": 470,
  "C": 471,
  "\u2581weiter": 472,
  "B": 473,
  "\u56fd\u5bb6": 474,
  "k": 475,
  "\u2581gegen": 476,
  "\u2581ihrer": 477,
  "\u2581Mutter": 478,
  "\u7740": 479,
  "\u2581\u5982\u679c": 480,
  "\u2581klar": 481,
  "\u4ece": 482,
  "\u624b": 483,
  "\u2581Keine": 484,
  "aH": 485,
  "\u77e5\u9053": 486,
  "\u2581geh\u00f6rt": 487,
  "\u2581C": 488,
  "\u5c31\u662f": 489,
  "\u4f60\u5011": 490,
  "\u2581Meine": 491,
  "\u2581vielleicht": 492,
  "T": 493,
  "\u8ddf": 494,
  "de": 495,
  "\u4e00\u4e0b": 496,
  "\u53c8": 497,
  "E": 498,
  "\u2581Ok": 499,
  "\u2581\u4ed6\u5011": 500,
  "\u751f": 501,
  "p": 502,
  "\u5229": 503,
  "\u2581passiert": 504,
  "\u8fd9\u4e9b": 505,
  "12": 506,
  "\u2581Kinder": 507,
  "\u66f4": 508,
  "\u56fd\u9645": 509,
  "\u2581\u5feb": 510,
  "I": 511,
  "\u2581Nacht": 512,
  "\u56fd": 513,
  "shad": 514,
  "\u6ca1": 515,
  "\u592a": 516,
  "h": 517,
  "\u4e8b": 518,
  "\u2581\u4e00": 519,
  "\u5206": 520,
  "\u4e4b": 521,
  "\u2581musst": 522,
  "\u2581reden": 523,
  "\u2581ohne": 524,
  "N": 525,
  "\u2581dieses": 526,
  "\u5b89\u5168": 527,
  "\u2581Mal": 528,
  "\u2581besser": 529,
  "\u53d1\u5c55": 530,
  "\u4e00\u500b": 531,
  "\u2581\u522b": 532,
  "\u540d": 533,
  "\u2581\u5bf9": 534,
  "\u4f1a\u8bae": 535,
  "111111}": 536,
  "\u2581wei\u00dft": 537,
  "\u2581Weg": 538,
  "\u2581\u6211\u77e5\u9053": 539,
  "\u2581\u73b0\u5728": 540,
  "\u2581paar": 541,
  "\u2581Nur": 542,
  "\u5feb": 543,
  "\u2581dachte": 544,
  "\u7684\u4e8b": 545,
  "\u2581meinem": 546,
  "\u2581meiner": 547,
  "\u5fc3": 548,
  "\u2581unsere": 549,
  "@": 550,
  "\u2581da\u00df": 551,
  "\u2581finden": 552,
  "\u56de": 553,
  "\u2581ins": 554,
  "\u2581Los": 555,
  "\u2581Mit": 556,
  "\u9ad8": 557,
  "\u2581Resolution": 558,
  "\u9ede": 559,
  "\u5934": 560,
  "\u683c": 561,
  "\u2581lange": 562,
  "\u2581wer": 563,
  "\u65b0": 564,
  "\u2581zusammen": 565,
  "\u2581rein": 566,
  "\u2581m\u00f6chte": 567,
  "\u2581andere": 568,
  "\u2581\u4e0d\u8981": 569,
  "\u2581me": 570,
  "\u2581Nun": 571,
  "\u2581\u4eba": 572,
  "\u2581davon": 573,
  "\u2581Lass": 574,
  "\u2581Man": 575,
  "bord": 576,
  "\u5403": 577,
  "\u2581Schei\u00dfe": 578,
  "\u2581Haus": 579,
  "\u2581k": 580,
  "\u6700": 581,
  "\u2581gleich": 582,
  "\u6c34": 583,
  "\u5165": 584,
  "\u5f00": 585,
  "\u2581\u597d\u7684": 586,
  "\u8fd8": 587,
  "\u9019\u500b": 588,
  "\u5929": 589,
  "\u2581helfen": 590,
  "\u2581\u6240\u4ee5": 591,
  "\u8be5": 592,
  "\u2581wirst": 593,
  "\u5df2": 594,
  "\u2581sollten": 595,
  "\u2581sollen": 596,
  "te": 597,
  "\u2581jemand": 598,
  "\u884c": 599,
  "\u2581Als": 600,
  "K": 601,
  "\u4e8e": 602,
  "\u2581E": 603,
  "\u2581viele": 604,
  "\u7ec4\u7ec7": 605,
  "D": 606,
  "\u5df2\u7ecf": 607,
  "\u653f\u5e9c": 608,
  "\u2581for": 609,
  "\u2581M\u00e4dchen": 610,
  "\u2581sowie": 611,
  "202020}": 612,
  "\u2581Hause": 613,
  "\u2581genau": 614,
  "\u2581T": 615,
  "\u2581\u6ca1\u6709": 616,
  "\u2581deinen": 617,
  "\u90a3\u4e9b": 618,
  "\u2581sagt": 619,
  "\u897f": 620,
  "\u7ed9": 621,
  "al": 622,
  "\u2581gar": 623,
  "\u2581Ordnung": 624,
  "\u6642": 625,
  "\u2581\u662f\u554a": 626,
  "\u2581\u6211\u7684": 627,
  "\u7ecf\u6d4e": 628,
  "\u2581all": 629,
  "\u4e16\u754c": 630,
  "\u2581\u6211\u4e0d\u77e5\u9053": 631,
  "\u4e4b\u524d": 632,
  "\u2581drei": 633,
  "\u7684\u65f6\u5019": 634,
  "\u2581Diese": 635,
  "\u2581Freund": 636,
  "\u4e00\u6837": 637,
  "\u5c3c": 638,
  "\u4f46": 639,
  "\u2581zwischen": 640,
  "\u2581He": 641,
  "\u2581geben": 642,
  "\u2581ihren": 643,
  "\u4e0d\u80fd": 644,
  "\u2581Arbeit": 645,
  "\u2581\u8bf7": 646,
  "\u2581\u4e0d\u662f": 647,
  "\u65e0": 648,
  "\u529b": 649,
  "\u672c": 650,
  "L": 651,
  "\u50cf": 652,
  "\u2581sch\u00f6n": 653,
  "\u8d77": 654,
  "\u4ed6\u7684": 655,
  "\u2581Hilfe": 656,
  "\u5668": 657,
  "\u8bf7": 658,
  "\u2581Jahre": 659,
  "\u2581seiner": 660,
  "\u6240\u6709": 661,
  "\u2581getan": 662,
  "\u6210": 663,
  "\u5361": 664,
  "ll": 665,
  "\u53ca": 666,
  "\u2581\u55ef": 667,
  "\u2581daf\u00fcr": 668,
  "\u6c92\u6709": 669,
  "le": 670,
  "\u2581\u4f60\u5011": 671,
  "\u2581Wieso": 672,
  "be": 673,
  "\u2581F\u00fcr": 674,
  "\u2581tot": 675,
  "\u2581Tut": 676,
  "an": 677,
  "\u8457": 678,
  "\u2581\u8c22\u8c22": 679,
  "\u2581seinen": 680,
  "\u6c92": 681,
  "\u59d4\u5458\u4f1a": 682,
  "\u2581\u597d\u4e86": 683,
  "\u4f4f": 684,
  "or": 685,
  "\u624d": 686,
  "\u73b0\u5728": 687,
  "\u2581Ach": 688,
  "\u2581\u740c": 689,
  "\u81ea": 690,
  "\u2581P": 691,
  "\u2581You": 692,
  "z": 693,
  "\u2581Angst": 694,
  "fn": 695,
  "\u6cd5": 696,
  "\u60a8": 697,
  "\u706b": 698,
  "\u2581H\u00f6r": 699,
  "\u53ef\u80fd": 700,
  "\u2581D": 701,
  "\u7b49": 702,
  "\u2581sei": 703,
  "Name": 704,
  "\u771f": 705,
  "\u982d": 706,
  "\u2581dort": 707,
  "\u2581okay": 708,
  "\u2581not": 709,
  "\u2581bleiben": 710,
  "\u53eb": 711,
  "\u2581warum": 712,
  "\u2581Entwicklung": 713,
  "\u2581Jahren": 714,
  "ge": 715,
  "\u500b": 716,
  "\u2581steht": 717,
  "\u2581Abend": 718,
  "\u70ba": 719,
  "\u2581on": 720,
  "\u5173\u4e8e": 721,
  "\u4ec0\u9ebc": 722,
  "\u2581\u628a": 723,
  "\u4ee5\u53ca": 724,
  "\u2581\u53bb": 725,
  "\u2581Sohn": 726,
  "\u2581\u5b83": 727,
  "\u2581seit": 728,
  "\u62ff": 729,
  "\u2581dabei": 730,
  "\u2581\u4f46\u6211": 731,
  "\u2581Be": 732,
  "\u8fd9\u6837": 733,
  "\u4e00\u4e9b": 734,
  "u": 735,
  "\u2581G": 736,
  "\u2581Haben": 737,
  "\u5566": 738,
  "\u2581Im": 739,
  "\u2581\u4f60\u77e5\u9053": 740,
  "\u2581An": 741,
  "\u7684\u8bdd": 742,
  "\u5148": 743,
  "\u653e": 744,
  "\u884c\u52a8": 745,
  "\u2581wurden": 746,
  "6": 747,
  "\u8fea": 748,
  "den": 749,
  "\u2581Sag": 750,
  "\u8001": 751,
  "\u63d0\u4f9b": 752,
  "\u2581nehmen": 753,
  "\u5916": 754,
  "\u82b1": 755,
  "\u5f53": 756,
  "\u90fd\u662f": 757,
  "\u2581O": 758,
  "\u2581\u6211\u4f1a": 759,
  "\u2581b": 760,
  "\u2581machst": 761,
  "\u91d1": 762,
  "\u2581Doch": 763,
  "\u53d1": 764,
  "\u2581we": 765,
  "\u52a0": 766,
  "\u2581denke": 767,
  "/2": 768,
  "\u90a3\u4e2a": 769,
  "\u2581Moment": 770,
  "\u2581M": 771,
  "\u2581Problem": 772,
  "\u2581Hi": 773,
  "\u2581\u4f60\u7684": 774,
  "\u2581\u53c8": 775,
  "w": 776,
  "\u2581\u4f60\u662f": 777,
  "\u2581bringen": 778,
  "\u2581brauchen": 779,
  "\u5b89": 780,
  "\u2581Namen": 781,
  "f": 782,
  "\u5185": 783,
  "\u2581Weil": 784,
  "\u2581ganze": 785,
  "5": 786,
  "\u2581\u90fd": 787,
  "\u5305\u62ec": 788,
  "\u2581Oder": 789,
  "\u2581hei\u00dft": 790,
  "\u522b": 791,
  "\u2581richtig": 792,
  "\u2581\u800c": 793,
  "\u6587": 794,
  "\u2581beim": 795,
  "\u2581wegen": 796,
  "\u2581Familie": 797,
  "\u5b9a": 798,
  "\u2581dazu": 799,
  "\u2581\u5225": 800,
  "\u8eab": 801,
  "\u9762": 802,
  "\u94b1": 803,
  "\u2581Bist": 804,
  "\u53d7": 805,
  "\u2581sieht": 806,
  "\u2581nun": 807,
  "\u2581\u5c0d": 808,
  "on": 809,
  "\u5982\u4f55": 810,
  "\u5440": 811,
  "\u5c0d": 812,
  "\u7ee7\u7eed": 813,
  "\u8f66": 814,
  "\u7ed9\u6211": 815,
  "\u5316": 816,
  "00\\": 817,
  "\u793e\u4f1a": 818,
  "\u2581Wei\u00dft": 819,
  "fscx": 820,
  "\u6b63": 821,
  "\u2581c": 822,
  "fscy": 823,
  "\u81f3": 824,
  "\u5c14": 825,
  "\u627e": 826,
  "\u79d8\u4e66\u957f": 827,
  "\u2581\u9019\u662f": 828,
  "\u2581Land": 829,
  "\u2581Ende": 830,
  "\u60c5": 831,
  "\u2581unser": 832,
  "\u723e": 833,
  "\u5f00\u59cb": 834,
  "ie": 835,
  "\u2581Stadt": 836,
  "\u2581\u4f60\u8981": 837,
  "\u2581genug": 838,
  "\u8def": 839,
  "\u2581Jahr": 840,
  "\u03a4": 841,
  "\u4e0d\u8981": 842,
  "\u2581Um": 843,
  "\u2581gefunden": 844,
  "\u2581habt": 845,
  "\u2581liebe": 846,
  "\u5e72": 847,
  "\u2581Mach": 848,
  "\u2581\u90a3\u662f": 849,
  "\u2581Bruder": 850,
  "x": 851,
  "\u5408\u4f5c": 852,
  "G": 853,
  "\u65f6\u95f4": 854,
  "\u2581Grund": 855,
  "\u2581h\u00f6ren": 856,
  "\u2581Name": 857,
  "\u95e8": 858,
  "\u9a6c": 859,
  "\u4e86\u5417": 860,
  "\u2581Generalsekret\u00e4r": 861,
  "\u4e00\u8d77": 862,
  "\u2581this": 863,
  "\u4e09": 864,
  "\u2581Morgen": 865,
  "\u2581ge": 866,
  "\u25811.": 867,
  "ly": 868,
  "\u91cd": 869,
  "\u957f": 870,
  "\u2581\u00dcber": 871,
  "\u4e0d\u4f1a": 872,
  "\u2581schnell": 873,
  "\u2581seid": 874,
  "}": 875,
  "\u2581oben": 876,
  "sten": 877,
  "\u2581denen": 878,
  "\u2581dar\u00fcber": 879,
  "\u51fa\u53bb": 880,
  "et": 881,
  "\u2581kam": 882,
  "\u2581Aus": 883,
  "\u2581\u62b1\u6b49": 884,
  "ste": 885,
  "\u2581\u8fd8\u6709": 886,
  "ve": 887,
  "\u2581allein": 888,
  "\u2581un": 889,
  "ten": 890,
  "\u2581komm": 891,
  "\u2581hatten": 892,
  "\u5149": 893,
  "M": 894,
  "\u2581Ver": 895,
  "\u2581Herr": 896,
  "\u5f9e": 897,
  "\u2581Frauen": 898,
  "\u2581Sind": 899,
  "\u2581\u5982\u679c\u4f60": 900,
  "\u2581erst": 901,
  "\u2581brauche": 902,
  "\u2581\u4e3a\u4ec0\u4e48": 903,
  "\u2581\u6211\u5728": 904,
  "us": 905,
  "\u2581M\u00e4nner": 906,
  "\u2581f": 907,
  "\u2581Hat": 908,
  "\u2581\u7136\u540e": 909,
  "\u2581allen": 910,
  "\u6b64": 911,
  "\u2581glauben": 912,
  "\u2581konnte": 913,
  "\u2581Dad": 914,
  "R": 915,
  "\u8fd8\u662f": 916,
  "\u89c1": 917,
  "\u8ba9": 918,
  "\u5f04": 919,
  "\u2581\u4f60\u597d": 920,
  "\u2581Sache": 921,
  "\u2581Kopf": 922,
  "\u2581deinem": 923,
  "\u2581\u4ee5": 924,
  "\u2581\u55e8": 925,
  "\u53ea": 926,
  "\u88e1": 927,
  "\u2581\u5c31\u662f": 928,
  "\u2581Junge": 929,
  "\u2581Fall": 930,
  "\u2581wahr": 931,
  "\u5e26": 932,
  "\u2581\u8aaa": 933,
  "\u2581Alle": 934,
  "\u2581\u60a8": 935,
  "ur": 936,
  "\u6267\u884c": 937,
  "\u5b69\u5b50": 938,
  "\u2581do": 939,
  "\u540c": 940,
  "\u2581\u4e5f": 941,
  "\u2581deiner": 942,
  "\u4f5c": 943,
  "\u2581\u770b": 944,
  "\u62a5\u544a": 945,
  "\u958b": 946,
  "]": 947,
  "\u2581p": 948,
  "\u627e\u5230": 949,
  "\u6709\u5173": 950,
  "\u2581\u4e0a": 951,
  "\u2581einmal": 952,
  "\u2581daran": 953,
  "\u56de\u6765": 954,
  "\u2581bevor": 955,
  "\u975e\u5e38": 956,
  "\u2581beide": 957,
  "ar": 958,
  "\u2581\u5662": 959,
  "\u2581Augen": 960,
  "\u2581\u3043": 961,
  "ig": 962,
  "\u2581W": 963,
  "\u7c73": 964,
  "\u6b7b\u4e86": 965,
  "\u2581morgen": 966,
  "10": 967,
  "\u2581Wasser": 968,
  "\u4e00\u6b21": 969,
  "\u7f8e": 970,
  "\u5df4": 971,
  "\u9053": 972,
  "\u5e94\u8be5": 973,
  "\u2581Recht": 974,
  "el": 975,
  "\u5225": 976,
  "\u2581darauf": 977,
  "\u6d41": 978,
  "\u2581halten": 979,
  "\u4e00\u5207": 980,
  "\u2581\u5927": 981,
  "\u2581\u7b49\u7b49": 982,
  "\u2581gab": 983,
  "\u2581seinem": 984,
  "\u53e3": 985,
  "em": 986,
  "\u2581Vor": 987,
  "\u2581Willst": 988,
  "\u2581your": 989,
  "\u6d3e": 990,
  "\u533a\u57df": 991,
  "\u5fc5\u987b": 992,
  "\u652f\u6301": 993,
  "\u2581have": 994,
  "\u2581Zur\u00fcck": 995,
  "7": 996,
  "\u2581Kann": 997,
  "\u7121": 998,
  "\u771f\u7684": 999,
  "\u2581\u4f60\u60f3": 1000,
  "\u2581Frage": 1001,
  "\u2581Staaten": 1002,
  "\u2581Kind": 1003,
  "\u2581Hand": 1004,
  "\u2581Dr": 1005,
  "\u2581warst": 1006,
  "\u2581Bei": 1007,
  "\u2581Mir": 1008,
  "\u963f": 1009,
  "\u2581weit": 1010,
  "\u2581mag": 1011,
  "\u6d77": 1012,
  "20": 1013,
  "\u5404": 1014,
  "\u5e94": 1015,
  "\u2581sofort": 1016,
  "\u2581Ab": 1017,
  "\u2581Ma": 1018,
  "\u2581HERR": 1019,
  "\u7403": 1020,
  "\u901a\u8fc7": 1021,
  "\u2581Baby": 1022,
  "\u2581wusste": 1023,
  "\u53ea\u662f": 1024,
  "\u51b3\u5b9a": 1025,
  "\u5f97\u5230": 1026,
  "\u2581/": 1027,
  "\u673a\u6784": 1028,
  "\u2581H": 1029,
  "\u5012": 1030,
  "\u2581\u73fe\u5728": 1031,
  "\u2581sehe": 1032,
  "H": 1033,
  "\u79bb\u5f00": 1034,
  "\u2581sprechen": 1035,
  "\u2581Auto": 1036,
  "\u2581Zu": 1037,
  "\u2581Nat\u00fcrlich": 1038,
  "\u2581w\u00fcrden": 1039,
  "\u8fb9": 1040,
  "\u8ba1\u5212": 1041,
  "8": 1042,
  "\u2581know": 1043,
  "\u4f7f": 1044,
  "\u5168": 1045,
  "\u59b3": 1046,
  "\u2581fertig": 1047,
  "\u2581de": 1048,
  "\u8fdb\u884c": 1049,
  "\u2581k\u00f6nnten": 1050,
  "\u6559": 1051,
  "\u2581jeden": 1052,
  "{\\": 1053,
  "\u2581\u7842": 1054,
  "\u2581t\u00f6ten": 1055,
  "\u5947": 1056,
  "\u2581L": 1057,
  "\u7231": 1058,
  "\u2581Den": 1059,
  "\u9152": 1060,
  "\u5f8c": 1061,
  "\u2581Minuten": 1062,
  "\u2581hoch": 1063,
  "\u6b21": 1064,
  "9": 1065,
  "\u2581neue": 1066,
  "\u2581Geh": 1067,
  "\u2581\u5f53\u7136": 1068,
  "\u6069": 1069,
  "\u4efb\u4f55": 1070,
  "W": 1071,
  "\u5927\u4f1a": 1072,
  "\u771f\u4e3b": 1073,
  "\u2581\u800c\u4e14": 1074,
  "\u2581Dank": 1075,
  "\u2581\u5230": 1076,
  "\u3043": 1077,
  "\u2581Sicherheit": 1078,
  "\u65b9": 1079,
  "\u73a9": 1080,
  "\u2581gern": 1081,
  "\u2581stehen": 1082,
  "\u8fd9\u4e48": 1083,
  "\u2581sage": 1084,
  "\u7f8e\u56fd": 1085,
  "\u7a7a": 1086,
  "\u52aa\u529b": 1087,
  "\u542c": 1088,
  "\u2581Macht": 1089,
  "\u2581\u5c0f": 1090,
  "\u4fe1": 1091,
  "\u2581my": 1092,
  "\u52a8": 1093,
  "\u2581name": 1094,
  "\u6389": 1095,
  "ter": 1096,
  "\u2581sterben": 1097,
  "\u51fa\u6765": 1098,
  "\u2581recht": 1099,
  "\u2581sonst": 1100,
  "\u2581R": 1101,
  "\u2581he": 1102,
  "\u673a": 1103,
  "\u2581with": 1104,
  "\u592b": 1105,
  "\u2581Art": 1106,
  "neralversammlung": 1107,
  "\u4eec": 1108,
  "\u2581Polizei": 1109,
  "\u2581\u5f88\u597d": 1110,
  "\u2581can": 1111,
  "\u4e00\u6a23": 1112,
  "\u7576": 1113,
  "\u5e38": 1114,
  "\u2581Uhr": 1115,
  "ch": 1116,
  "\u6709\u4eba": 1117,
  "\u5904": 1118,
  "\u5728\u8fd9\u91cc": 1119,
  "\u2581Dinge": 1120,
  "\u2581Freunde": 1121,
  "\u548c\u5e73": 1122,
  "\u2581\u4f60\u5728": 1123,
  "\u2581\u5bf9\u4e0d\u8d77": 1124,
  "\u2581\u6c92\u6709": 1125,
  "\u2581Von": 1126,
  "\u5854": 1127,
  "\u2581Genau": 1128,
  "\u610f": 1129,
  "\u68ee": 1130,
  "\u2581m": 1131,
  "\u63d0": 1132,
  "\u2581Nichts": 1133,
  "\u7684\u5730\u65b9": 1134,
  "\u7cfb\u7edf": 1135,
  "\u8ba9\u6211": 1136,
  "\u2581Dollar": 1137,
  "\u7269": 1138,
  "der": 1139,
  "\u2581bereit": 1140,
  "0\\3": 1141,
  "il": 1142,
  "\u2581are": 1143,
  "\u670b\u53cb": 1144,
  "\u2581\u771f": 1145,
  "\u2581Dezember": 1146,
  "\u4fdd\u62a4": 1147,
  "\u2581runter": 1148,
  "\u53d6": 1149,
  "\u2581gute": 1150,
  "\u4e3b": 1151,
  "am": 1152,
  "\u2581\u8fd9\u4e2a": 1153,
  "\u2581komme": 1154,
  "\u2581je": 1155,
  "\u2581Halt": 1156,
  "\u2581\u56e0\u4e3a": 1157,
  "ion": 1158,
  "\u2581No": 1159,
  "\u6765\u4e86": 1160,
  "\u2581[": 1161,
  "\u600e\u4e48": 1162,
  "\u795e": 1163,
  "\u770b\u5230": 1164,
  "19": 1165,
  "\u60c5\u51b5": 1166,
  "staaten": 1167,
  "\u2581Warte": 1168,
  "\u2581letzten": 1169,
  "\u2581\u771f\u7684": 1170,
  "\u8fdb": 1171,
  "\u767c": 1172,
  "\u76f8": 1173,
  "\u9ed1": 1174,
  "\u8eca": 1175,
  "\u2581\u53ef\u4ee5": 1176,
  "\u740c": 1177,
  "ver": 1178,
  "\u2581mach": 1179,
  "\u2581Ahnung": 1180,
  "\u2581gehe": 1181,
  "\u6570": 1182,
  "\u5728\u4e00\u8d77": 1183,
  "\u2581Gl\u00fcck": 1184,
  "\u2581\u4f86": 1185,
  "\u4f7f\u7528": 1186,
  "\u2581vorne": 1187,
  "\u2581hinter": 1188,
  "\u2581\u518d": 1189,
  "\u8981\u6c42": 1190,
  "67": 1191,
  "\u2581mache": 1192,
  "\u7406\u4e8b\u4f1a": 1193,
  "\u6761": 1194,
  "\u2581vorbei": 1195,
  "\u2581\u53ea\u662f": 1196,
  "66": 1197,
  "\\3": 1198,
  "\u6b63\u5728": 1199,
  "\u90a3\u4e48": 1200,
  "\u2581fest": 1201,
  "\u56de\u5bb6": 1202,
  "\u2581dran": 1203,
  "\u2581\u53ef": 1204,
  "\u65b9\u9762": 1205,
  "\u561b": 1206,
  "\u6c14": 1207,
  "\u7ed9\u4f60": 1208,
  "\u2581Jungs": 1209,
  "\u5e0c\u671b": 1210,
  "\u5176\u4ed6": 1211,
  "\u4e66": 1212,
  "\\4": 1213,
  "\u7eb3": 1214,
  "\u4e00\u70b9": 1215,
  "\u8fbe": 1216,
  "\u2581l": 1217,
  "\u2581Gib": 1218,
  "\u2581etwa": 1219,
  "\u9801": 1220,
  "\u25813": 1221,
  "\u516c\u53f8": 1222,
  "quot": 1223,
  "\u2581stimmt": 1224,
  "\u2581Teufel": 1225,
  "\u2581verloren": 1226,
  "\u2581vergessen": 1227,
  "\u5c07": 1228,
  "\u2581what": 1229,
  "\u2581OK": 1230,
  "\u2581ok": 1231,
  "\u4e9b": 1232,
  "\u597d\u4e86": 1233,
  "\u5c71": 1234,
  "\u95ee": 1235,
  "\u5ea6": 1236,
  "\u2581echt": 1237,
  "\u8c01": 1238,
  "it": 1239,
  "\u8dd1": 1240,
  "\u2581Seite": 1241,
  "se": 1242,
  "\u2581N": 1243,
  "\u2581\u80fd": 1244,
  "\u6bb5": 1245,
  "\u8fd9\u662f": 1246,
  "\u25815": 1247,
  "\u7684\u6642\u5019": 1248,
  "City": 1249,
  "ieren": 1250,
  "\u5750": 1251,
  "\u7684\u662f": 1252,
  "\u2581Fehler": 1253,
  "22\\": 1254,
  "00": 1255,
  "\u2581bekommen": 1256,
  "\u30fb": 1257,
  "\u2581\u4f60\u53ef\u4ee5": 1258,
  "\u4eca\u5929": 1259,
  "\u2581T\u00fcr": 1260,
  "\u2581The": 1261,
  "\u9577": 1262,
  "\u2581sp\u00e4ter": 1263,
  "\u8fd9\u79cd": 1264,
  "ng": 1265,
  "\u5982\u6b64": 1266,
  "\u5c0f\u59d0": 1267,
  "000000}": 1268,
  "\u6797": 1269,
  "\u2581Kein": 1270,
  "\u2581drin": 1271,
  "O": 1272,
  "\u73fe\u5728": 1273,
  "\u2581Liebe": 1274,
  "\u2581kennen": 1275,
  "\u2581Teil": 1276,
  "\u2581lang": 1277,
  "\u2581\u8b1d\u8b1d": 1278,
  "\u2581jeder": 1279,
  "\u7a7f": 1280,
  "\u2581Bericht": 1281,
  "\u8d77\u6765": 1282,
  "\u2581warten": 1283,
  "\u25812.": 1284,
  "sch": 1285,
  "\u2581wichtig": 1286,
  "\u6587\u4ef6": 1287,
  "\u2581Zum": 1288,
  "\u4eba\u6743": 1289,
  "\u544a\u8bc9\u6211": 1290,
  "\u2581Spiel": 1291,
  "\u2581Mom": 1292,
  "\u2581\u00ea": 1293,
  "\u7f57": 1294,
  "\u2581liegt": 1295,
  "\u2581John": 1296,
  "\u5f88\u597d": 1297,
  "\u2581leben": 1298,
  "\u56de\u53bb": 1299,
  "\u56e2": 1300,
  "\u2581w\u00e4hrend": 1301,
  "\u8b66\u5bdf": 1302,
  "\u2581h\u00e4tten": 1303,
  "\u5e03": 1304,
  "\u533a": 1305,
  "\u258120": 1306,
  "\u63a5\u53d7": 1307,
  "\u9001": 1308,
  "\u519b": 1309,
  "ic": 1310,
  "\u9084": 1311,
  "\u5973\u4eba": 1312,
  "\u2581danke": 1313,
  "15": 1314,
  "\u2581Wirklich": 1315,
  "\u2581darf": 1316,
  "\u60f3\u8981": 1317,
  "\u2581\u963f": 1318,
  "BE": 1319,
  "\u2581Ganz": 1320,
  "\u2581ganzen": 1321,
  "\u4f53": 1322,
  "\u2581Soll": 1323,
  "\u63a7\u5236": 1324,
  "\u2581ging": 1325,
  "\u2581Euch": 1326,
  "\u2581denken": 1327,
  "\u4e00\u76f4": 1328,
  "\u2581Bis": 1329,
  "\u7d66": 1330,
  "\u2581drau\u00dfen": 1331,
  "\u2581Blut": 1332,
  "\u2581bisschen": 1333,
  "\u4e0d\u4e86": 1334,
  "\u2581verstehe": 1335,
  "\u00fc": 1336,
  "\u2581Noch": 1337,
  "\u4e5f\u662f": 1338,
  "\u8fc7\u6765": 1339,
  "\u2581Ort": 1340,
  "\u2581sondern": 1341,
  "man": 1342,
  "\u258110": 1343,
  "\u7d66\u6211": 1344,
  "\u4f4d": 1345,
  "\u7ba1": 1346,
  "\u9322": 1347,
  "\u8ba4\u4e3a": 1348,
  "\u66fc": 1349,
  "\u2581\u6211\u53ef\u4ee5": 1350,
  "\u6536": 1351,
  "\u2581New": 1352,
  "\u2581Schon": 1353,
  "\u2581Job": 1354,
  "\u2581\u4ed6\u662f": 1355,
  "\u559c\u6b22": 1356,
  "\u2581\u8c01": 1357,
  "\u2581\u70ba": 1358,
  "chen": 1359,
  "\u2581ersten": 1360,
  "\u7a31": 1361,
  "\u2581bald": 1362,
  "\u2581fast": 1363,
  "\u52d5": 1364,
  "\u5973": 1365,
  "\u63a5": 1366,
  "\u2581\u4ec0\u9ebc": 1367,
  "\u2581Ma\u00dfnahmen": 1368,
  "\u2581Wahrheit": 1369,
  "\u9019\u6a23": 1370,
  "\u2581War": 1371,
  "\u611b": 1372,
  "\u5df2\u7d93": 1373,
  "\u7531": 1374,
  "\u67aa": 1375,
  "\u2581\u7528": 1376,
  "\u54c8": 1377,
  "\u2581sah": 1378,
  "\u2581Dein": 1379,
  "\u2581\u4e00\u4e2a": 1380,
  "\u9ed1\u4f53": 1381,
  "\u2581\u5f9e": 1382,
  "\u2581\u5148\u751f": 1383,
  "\u2581lieber": 1384,
  "\u751f\u6d3b": 1385,
  "\u770b\u770b": 1386,
  "\u53ea\u6709": 1387,
  "\u4e48": 1388,
  "\u2581Sieh": 1389,
  "\u2581Tod": 1390,
  "\u7ba1\u7406": 1391,
  "\u6211\u662f": 1392,
  "\u516c": 1393,
  "\u2581letzte": 1394,
  "\u767d": 1395,
  "\u2581kenne": 1396,
  "nen": 1397,
  "\u2581\u6211\u5c31": 1398,
  "\u2581\u6240": 1399,
  "\u7684\u4e1c\u897f": 1400,
  "\u2581Geht": 1401,
  "\u2581Wort": 1402,
  "\u2581Gute": 1403,
  "\u6a5f": 1404,
  "\u8a00": 1405,
  "V": 1406,
  "\u2581don": 1407,
  "th": 1408,
  "\u6578": 1409,
  "\u5199": 1410,
  "\u2581kurz": 1411,
  "\u5730\u65b9": 1412,
  "\u2581insbesondere": 1413,
  "\u2581Ihren": 1414,
  "\u2581neuen": 1415,
  "\u2581\u6ca1\u9519": 1416,
  "\u2581fahren": 1417,
  "\u98ce": 1418,
  "\u2581Sehr": 1419,
  "\u79d1": 1420,
  "\u2581Geschichte": 1421,
  "\u2581\u6211\u6703": 1422,
  "\u76f8\u4fe1": 1423,
  "\u662f\u8c01": 1424,
  "\u2581gro\u00dfe": 1425,
  "\u7684\u8a71": 1426,
  "\u8bdd": 1427,
  "\u2581internationalen": 1428,
  "\u8fd9\u91cc": 1429,
  "\u2581egal": 1430,
  "\u2581\u90a3\u4e48": 1431,
  "\u72d7": 1432,
  "\u2581verr\u00fcckt": 1433,
  "\u2581\u59b3": 1434,
  "\u2581Guten": 1435,
  "\u2581Schei\u00df": 1436,
  "\u81ea\u5df1\u7684": 1437,
  "\u2581\u5929\u554a": 1438,
  "\u2581\u6216": 1439,
  "\u2581\u4ece": 1440,
  "\u6211\u8981": 1441,
  "\u2581Ziel": 1442,
  "\u96f7": 1443,
  "\u4e8c": 1444,
  "\u5982\u679c": 1445,
  "\u2581voll": 1446,
  "\u2581It": 1447,
  "\u2581ihrem": 1448,
  "\u2581\u8acb": 1449,
  "\u57ce": 1450,
  "\u2581Tochter": 1451,
  "\u2581\u8036": 1452,
  "\u641e": 1453,
  "\u81ea\u7531": 1454,
  "\u901a": 1455,
  "\u25813.": 1456,
  "\u2581\u03a4": 1457,
  "\u8482": 1458,
  "\u8fd8\u6709": 1459,
  "\u2581Tage": 1460,
  "\u2581Regierung": 1461,
  "\u2581f\u00fcnf": 1462,
  "\u2581\u6765": 1463,
  "\u2581$": 1464,
  "\u2581Denn": 1465,
  "\u2581bereits": 1466,
  "\u2581jemanden": 1467,
  "11": 1468,
  "\u65b9\u6848": 1469,
  "\u573a": 1470,
  "um": 1471,
  "\u2581sag": 1472,
  "\u2581gegeben": 1473,
  "lich": 1474,
  "\u2581arbeiten": 1475,
  "\u99ac": 1476,
  "\u2581sp\u00e4t": 1477,
  "\u4e4b\u540e": 1478,
  "808080}": 1479,
  "\u2581braucht": 1480,
  "ro": 1481,
  "\u90e8": 1482,
  "\u2581l\u00e4sst": 1483,
  "\u76ae": 1484,
  "\u2581Wissen": 1485,
  "\u2581We": 1486,
  "\u2581\u5582": 1487,
  "\u975e": 1488,
  "\u3113": 1489,
  "\u2581Unterst\u00fctzung": 1490,
  "\u6848": 1491,
  "\u2581Sicherheitsrat": 1492,
  "\u59c6": 1493,
  "\u56db": 1494,
  "\u25814.": 1495,
  "\u7279\u522b": 1496,
  "\u773c": 1497,
  "\u5230\u4e86": 1498,
  "\u2581Schatz": 1499,
  "\u2581Leid": 1500,
  "\u2581\u4e0d\u8fc7": 1501,
  "\u2581\u6211\u4e5f": 1502,
  "ner": 1503,
  "\u2581Typ": 1504,
  "\u2581Kerl": 1505,
  "\u2581aller": 1506,
  "\u2581d": 1507,
  "\u2581kleine": 1508,
  "\u2581Sei": 1509,
  "\u666e": 1510,
  "pe": 1511,
  "\u4ea4": 1512,
  "\u660e": 1513,
  "\u2581essen": 1514,
  "\u4e70": 1515,
  "\u76ee\u6807": 1516,
  "\u2581just": 1517,
  "\u6ce2": 1518,
  "\u2581gewesen": 1519,
  "\u2581Tagung": 1520,
  "\u2581fordert": 1521,
  "\u2581bedeutet": 1522,
  "\u865f": 1523,
  "\u513f": 1524,
  "\u5b83\u4eec": 1525,
  "\u807d": 1526,
  "\u90a3\u500b": 1527,
  "\u2581Fragen": 1528,
  "\u2581Dieser": 1529,
  "\u58eb": 1530,
  "ia": 1531,
  "\u2581ruhig": 1532,
  "\u2581suchen": 1533,
  "\u2581Waffen": 1534,
  "\u2581Deine": 1535,
  "\u56e0\u4e3a": 1536,
  "\u2581l\u00e4uft": 1537,
  "\u7537\u4eba": 1538,
  "\u2581gekommen": 1539,
  "\u7ebf": 1540,
  "\u5e36": 1541,
  "\u2581Einen": 1542,
  "\u8239": 1543,
  "\u671f": 1544,
  "\u2581Feuer": 1545,
  ",\"": 1546,
  "\u5982": 1547,
  "\u505a\u7684": 1548,
  "\u503c": 1549,
  "\u8d70\u4e86": 1550,
  "\u2581Re": 1551,
  "\u9b3c": 1552,
  "\u786e\u4fdd": 1553,
  "\u2581schwer": 1554,
  "\u2581Mitglied": 1555,
  "\u65e0\u6cd5": 1556,
  "\u5979\u7684": 1557,
  "\u6642\u9593": 1558,
  "\u5a1c": 1559,
  "\u6210\u4e3a": 1560,
  "\u5b8c\u5168": 1561,
  "\u2581solltest": 1562,
  "\u2581Miss": 1563,
  "\u9580": 1564,
  "\u2581get\u00f6tet": 1565,
  "\u5c40": 1566,
  "\u2581siehst": 1567,
  "\u8389": 1568,
  "\u559d": 1569,
  "\u57fa": 1570,
  "\u2581Idee": 1571,
  "\u2581geh": 1572,
  "\u2581Kommt": 1573,
  "\u5c4a": 1574,
  "\u2581Ruhe": 1575,
  "\u4e0d\u77e5\u9053": 1576,
  "\u52d2": 1577,
  "\u2581Stunden": 1578,
  "30": 1579,
  "\u5927\u5bb6": 1580,
  "\u2581fragen": 1581,
  "is": 1582,
  "\u2581Arsch": 1583,
  "\u2581Herz": 1584,
  "\u2581toll": 1585,
  "90": 1586,
  "\u5b57": 1587,
  "\u2581\u4f46\u4f60": 1588,
  "\u8fd9\u4e00": 1589,
  "\u2581eigentlich": 1590,
  "\u4e2d\u7684": 1591,
  "\u2581Am": 1592,
  "gm": 1593,
  "\u662f\u4e2a": 1594,
  "\u8207": 1595,
  "\u2581Schwester": 1596,
  "ation": 1597,
  "\u2581Kommen": 1598,
  "\u2581V": 1599,
  "\u2581Gehen": 1600,
  "\u5408": 1601,
  "\u661f": 1602,
  "\u2581\u6211\u4e0d\u60f3": 1603,
  "\u662f\u4ec0\u4e48": 1604,
  "\u5374": 1605,
  "\u2581lass": 1606,
  "/5": 1607,
  "\u8840": 1608,
  "Ich": 1609,
  "\u2581vier": 1610,
  "\u2581Woche": 1611,
  "\u5217": 1612,
  "\u2581beiden": 1613,
  "\u91cf": 1614,
  "\u662f\u7684": 1615,
  "kg": 1616,
  "\u2581m\u00f6glich": 1617,
  "\u258115": 1618,
  "\u2581*": 1619,
  "\u6d3b": 1620,
  "\u2581Krieg": 1621,
  "\u2581anders": 1622,
  "\u2581out": 1623,
  "\u7247": 1624,
  "\u2581spielen": 1625,
  "\u6211\u60f3": 1626,
  "16": 1627,
  "\u2581F": 1628,
  "\u2581\u7238\u7238": 1629,
  "\u2581pro": 1630,
  "\u2581unserer": 1631,
  "\u2581frei": 1632,
  "\u2581\u592a": 1633,
  "\u2581\u53f7": 1634,
  "\u4e1c\u897f": 1635,
  "\u6211\u4eec\u7684": 1636,
  "\u2581ersucht": 1637,
  "\u2581\u6211\u53ea\u662f": 1638,
  "\u2581\u00fcberhaupt": 1639,
  "\u4f4e": 1640,
  "\u2581wenig": 1641,
  "\u2581\u90a3\u4f60": 1642,
  "\u7684\u62a5\u544a": 1643,
  "\u7406": 1644,
  "\u4e24": 1645,
  "\u2581\u6211\u6709": 1646,
  "J": 1647,
  "\u2581Hab": 1648,
  "\u2581niemand": 1649,
  "ab": 1650,
  "\u65bc": 1651,
  "\u2581Zwei": 1652,
  "\u9009\u62e9": 1653,
  "\u2581Sam": 1654,
  "\u2581Anfang": 1655,
  "\u5728\u54ea": 1656,
  "\u547d": 1657,
  "\u2581erz\u00e4hlt": 1658,
  "\u2581What": 1659,
  "\u2581meinst": 1660,
  "\u2581\u9084\u6709": 1661,
  "\u6b66\u5668": 1662,
  "\u2581treffen": 1663,
  "\u2581versucht": 1664,
  "\u4e9a": 1665,
  "\u4ee3\u8868": 1666,
  "\u8c08": 1667,
  "\u2581sogar": 1668,
  "\u2581no": 1669,
  "as": 1670,
  "\u2581\u3113": 1671,
  "at": 1672,
  "\u2581erste": 1673,
  "\u2581unten": 1674,
  "\u2581USA": 1675,
  "\u2581Jack": 1676,
  "\u2581\u7b35": 1677,
  "\u653f\u6cbb": 1678,
  "\u4e94": 1679,
  "\u9ad4": 1680,
  "\u592a\u592a": 1681,
  "\u7535\u8bdd": 1682,
  "\u2581get": 1683,
  "\u52a0\u5f3a": 1684,
  "\u56e0": 1685,
  "\u2581\u4f60\u6709": 1686,
  "\u4e86\u55ce": 1687,
  "\u2581drauf": 1688,
  "ton": 1689,
  "\u2581ziemlich": 1690,
  "\u95f4": 1691,
  "\u2581K\u00f6nig": 1692,
  "\u2581Essen": 1693,
  "\u9019\u4e9b": 1694,
  "ent": 1695,
  "\u2581musste": 1696,
  "\u88c5": 1697,
  "\u662f\u6211": 1698,
  "\u54c1": 1699,
  "\u5931": 1700,
  "\u4fc3\u8fdb": 1701,
  "\u2581\u7b2c": 1702,
  "\u2581Ihrer": 1703,
  "\u75c5": 1704,
  "\u94f6\u884c": 1705,
  "50": 1706,
  "\u2581nat\u00fcrlich": 1707,
  "/1": 1708,
  "\u8f6c": 1709,
  "\u597d\u5417": 1710,
  "\u5305": 1711,
  "\u4f0a": 1712,
  "\u6838": 1713,
  "\u4e00\u4e2a\u4eba": 1714,
  "\u2581\u60f3": 1715,
  "\u7238\u7238": 1716,
  "\u6709\u70b9": 1717,
  "\u2581\u88ab": 1718,
  "\u2581Verdammt": 1719,
  "\u53d8": 1720,
  "\u4e07": 1721,
  "\u65b0\u7684": 1722,
  "iert": 1723,
  "\u8fc7\u53bb": 1724,
  "\u4e0d\u6703": 1725,
  "\u5f80": 1726,
  "id": 1727,
  "\u2581Zusammenarbeit": 1728,
  "\u4e3a\u4ec0\u4e48": 1729,
  "\u5de5": 1730,
  "\u2581Ding": 1731,
  "\u2581Mrs": 1732,
  "\u2581\u4eca\u5929": 1733,
  "\u5409": 1734,
  "\u25816": 1735,
  "\u63aa\u65bd": 1736,
  "\u5b66": 1737,
  "\u5170": 1738,
  "\u56de\u4f86": 1739,
  "\u2581\u600e\u4e48\u4e86": 1740,
  "\u5047": 1741,
  "\u7684\u4e8b\u60c5": 1742,
  "\u2581Bett": 1743,
  "\u5168\u7403": 1744,
  "\u5175": 1745,
  "\u2581eure": 1746,
  "\u6839": 1747,
  "\u898b": 1748,
  "\u89e3\u51b3": 1749,
  "\u2581up": 1750,
  "\u2581Datei": 1751,
  "\u73ed": 1752,
  "\u2581bestimmt": 1753,
  "\u91c7\u53d6": 1754,
  "\u2581\u6211\u80fd": 1755,
  "\u2581verlassen": 1756,
  "\u7ad9": 1757,
  "\u516c\u7ea6": 1758,
  "\u2581gerne": 1759,
  "\u2581\u22bf": 1760,
  "\u6d3b\u52a8": 1761,
  "\u53d1\u73b0": 1762,
  "\u7f85": 1763,
  "ri": 1764,
  "\u2581eins": 1765,
  "\u5efa\u7acb": 1766,
  "\u2581\u8fd8": 1767,
  "\u652f": 1768,
  "\u2581\u6211\u4e0d\u662f": 1769,
  "\u6d1b": 1770,
  "son": 1771,
  "\u653f\u7b56": 1772,
  "\u958b\u59cb": 1773,
  "la": 1774,
  "\u2581darum": 1775,
  "land": 1776,
  "\u2581~": 1777,
  "\u2581hoffe": 1778,
  "\u2581anderes": 1779,
  "\u2581K\u00f6nnen": 1780,
  "\u6b27\u6d32": 1781,
  "\u2581Mama": 1782,
  "\u51c6\u5907": 1783,
  "im": 1784,
  "\u2581Wann": 1785,
  "\u5728\u54ea\u91cc": 1786,
  "\u2581\u9019\u500b": 1787,
  "\u5b8c": 1788,
  "\u80fd\u591f": 1789,
  "\u2581\u4f60\u80fd": 1790,
  "\u2581like": 1791,
  "\u2581finde": 1792,
  "\u2581Chance": 1793,
  "\u2581Himmel": 1794,
  "\u58f0": 1795,
  "\u8fde": 1796,
  "\u5b9e\u73b0": 1797,
  "\u2581\u542c\u7740": 1798,
  "\u2581Zimmer": 1799,
  "v": 1800,
  "\u2581verstehen": 1801,
  "\u4ef6": 1802,
  "\u602a": 1803,
  "\u2581need": 1804,
  "\u2581at": 1805,
  "\u2581Gesicht": 1806,
  "\u533b\u751f": 1807,
  "\u7b97": 1808,
  "info": 1809,
  "\u600e\u4e48\u6837": 1810,
  "\u2581Organisationen": 1811,
  "\u2581allem": 1812,
  "\u96e2\u958b": 1813,
  "\u2581bringt": 1814,
  "\u2581Nimm": 1815,
  "\u5236": 1816,
  "\u4f2f": 1817,
  "\u52a9": 1818,
  "\u624d\u80fd": 1819,
  "\u2581w\u00e4ren": 1820,
  "ta": 1821,
  "\u2581sagst": 1822,
  "\u9032": 1823,
  "pos": 1824,
  "\u2581right": 1825,
  "\u7761": 1826,
  "ern": 1827,
  "\u2581Mensch": 1828,
  "\u8bb2": 1829,
  "\u65e9": 1830,
  "\u2581De": 1831,
  "\u8ddf\u4f60": 1832,
  "\u961f": 1833,
  "\u8ba9\u4f60": 1834,
  "\u2581bleibt": 1835,
  "\u5973\u5b69": 1836,
  "\u51fa\u4f86": 1837,
  "\u2581about": 1838,
  "\u2581\u5feb\u70b9": 1839,
  "\u2581U": 1840,
  "\u2581Spa\u00df": 1841,
  "\u2581here": 1842,
  "\u2581Dass": 1843,
  "\u80af\u5b9a": 1844,
  "\u843d": 1845,
  "\u2581Haupt": 1846,
  ">>zh_HK<<": 1847,
  "est": 1848,
  "\u2581\u6211\u4e0d": 1849,
  "\u2581Informationen": 1850,
  "\u63f4\u52a9": 1851,
  "zu": 1852,
  "\u2581Woher": 1853,
  "\u2581zeigen": 1854,
  "\u7dda": 1855,
  "\u53cd": 1856,
  "\u2581\u5c31\u50cf": 1857,
  "\u2581Tu": 1858,
  "\u2581einzige": 1859,
  "\u2581Friedens": 1860,
  "\u9084\u662f": 1861,
  "\u2581\u6709\u4eba": 1862,
  "\u738b": 1863,
  "\u623f": 1864,
  "\u2581J": 1865,
  "\u597d\u7684": 1866,
  "PH": 1867,
  "\u2581\u56e0\u70ba": 1868,
  "14": 1869,
  "\u8ddf\u6211": 1870,
  "\u2581Niemand": 1871,
  "\u4e0d\u540c": 1872,
  "\u76fe": 1873,
  "\u5173": 1874,
  "\u2581Millionen": 1875,
  "\u5fd9": 1876,
  "\u5144\u5f1f": 1877,
  "\u6218": 1878,
  "\u7387": 1879,
  "\u2581\u90a3\u4e2a": 1880,
  "\u2581Entschuldigung": 1881,
  "\u2581kleinen": 1882,
  "\u5bc6": 1883,
  "\u6839\u636e": 1884,
  "\u5143": 1885,
  "\u5904\u7406": 1886,
  "\u2581\u8fd9\u6837": 1887,
  "\u672a": 1888,
  "\u8bfa": 1889,
  "\u8bf4\u8bdd": 1890,
  "\u2581Erde": 1891,
  "\u2581wollten": 1892,
  "\u8df3": 1893,
  "\u2581Buch": 1894,
  "\u8ab0": 1895,
  "\u2581Waffe": 1896,
  "\u53d1\u751f": 1897,
  "\u2581nehme": 1898,
  "\u2581Unter": 1899,
  "\u2581sprach": 1900,
  "\u2581\u8c22\u8c22\u4f60": 1901,
  "na": 1902,
  "\u8868": 1903,
  "ich": 1904,
  "\u6ce8\u610f\u5230": 1905,
  "ph": 1906,
  "\u5ba4": 1907,
  "\u5077": 1908,
  "\u5b58": 1909,
  "\u2581\u795e": 1910,
  "\u7b11": 1911,
  "\u2581blo\u00df": 1912,
  "\u2581\u5982\u679c\u6211": 1913,
  "\u79bb": 1914,
  "X": 1915,
  "\u2581internationale": 1916,
  "\u2581Un": 1917,
  "\u2581versuchen": 1918,
  "gen": 1919,
  "ir": 1920,
  "\u96be": 1921,
  "\u2581Platz": 1922,
  "\u2581Freundin": 1923,
  "\u2581gro\u00dfen": 1924,
  "\u2581stellen": 1925,
  "\u2581oft": 1926,
  "\u4fe1\u606f": 1927,
  "\u2581\u591a": 1928,
  "\u9078": 1929,
  "\u745e": 1930,
  "to": 1931,
  "\u5f0f": 1932,
  "\u91cd\u7533": 1933,
  "\u2581Nummer": 1934,
  "\u2581verdammt": 1935,
  "\u603b": 1936,
  "\u8fd1": 1937,
  "\u2581L\u00e4nder": 1938,
  "\u5b8c\u6210": 1939,
  "\u2581Frank": 1940,
  "\u4e86\u89e3": 1941,
  "\u2581Wahl": 1942,
  "\u5efa\u8bae": 1943,
  "\u8b93\u6211": 1944,
  "\u6bdb": 1945,
  "\u2581\u90a3\u4e9b": 1946,
  "\u2581nimmt": 1947,
  "\u6b3e": 1948,
  "\u5c31\u4f1a": 1949,
  "\u6b27": 1950,
  "\u2581H\u00e4nde": 1951,
  "\u2581\u6211\u5f97": 1952,
  "\u2581Plan": 1953,
  "\u6c23": 1954,
  "\u53bb\u4e86": 1955,
  "\u662f\u5426": 1956,
  "\"?": 1957,
  "\u6551": 1958,
  "\u4ee5\u524d": 1959,
  "\u90a3\u6837": 1960,
  "\u258130": 1961,
  "\u6df1": 1962,
  "\u2581Klar": 1963,
  "\u548c\u6211": 1964,
  "\u6709\u4ec0\u4e48": 1965,
  "\u2581\u6216\u8005": 1966,
  "\u2581\u8fd9\u4e9b": 1967,
  "\u4f86\u4e86": 1968,
  "\u2581Sch\u00f6n": 1969,
  "\u5b89\u6392": 1970,
  "\u2581alt": 1971,
  "\u5357": 1972,
  "ul": 1973,
  "ry": 1974,
  "\u2581Wagen": 1975,
  "\u8089": 1976,
  "\u2581\u90a3\u5c31": 1977,
  "\u89c9\u5f97": 1978,
  "\u2581\u50cf": 1979,
  "\u2581\u8fd9\u91cc": 1980,
  "\u7814\u7a76": 1981,
  "\u5458": 1982,
  "\u5f85": 1983,
  "\u2581Durchf\u00fchrung": 1984,
  "\u2581go": 1985,
  "\u628a\u6211": 1986,
  "\u2581\u53ea\u8981": 1987,
  "\u6743": 1988,
  "\u56fe": 1989,
  "\u62cd": 1990,
  "\u74e6": 1991,
  "0\\": 1992,
  "ad": 1993,
  "\u2581Zeichen": 1994,
  "\u4e8b\u60c5": 1995,
  "\u2581\u6765\u5427": 1996,
  "\u2581eben": 1997,
  "\u2581Heute": 1998,
  "\u2581keiner": 1999,
  "\u7f8e\u5143": 2000,
  "\u7559": 2001,
  "\u98de": 2002,
  "\u2581\u6211\u4e0d\u80fd": 2003,
  "\u6307": 2004,
  "\u2581Rolle": 2005,
  "\u2581Al": 2006,
  "\u7ea6": 2007,
  "\u2581All": 2008,
  "\u2581Eltern": 2009,
  "\u2581Selbst": 2010,
  "\u54e6": 2011,
  "\u2581And": 2012,
  "\u5dde": 2013,
  "\u2581from": 2014,
  "\u2581holen": 2015,
  "\u7684\u5de5\u4f5c": 2016,
  "\u96c5": 2017,
  "\u2581\u53ea\u6709": 2018,
  "\u585e": 2019,
  "\u2581schaffen": 2020,
  "\u987f": 2021,
  "\u7ae0": 2022,
  "ma": 2023,
  "\u2581Kenntnis": 2024,
  "\u77e5": 2025,
  "\u2581Schuld": 2026,
  "12\\": 2027,
  "\u8282": 2028,
  "\u2581}": 2029,
  "\u4e0d\u597d": 2030,
  "\u2581Lassen": 2031,
  "\u54e5": 2032,
  "\u724c": 2033,
  "lo": 2034,
  "\u534a": 2035,
  "\u2581\u771f\u662f": 2036,
  "\u4e0a\u7684": 2037,
  "und": 2038,
  "\u611f\u5230": 2039,
  "\u2581B\u00fcro": 2040,
  "\u4e0d\u884c": 2041,
  "\u2581sechs": 2042,
  "\u6210\u529f": 2043,
  "\u6258": 2044,
  "\u2581niemals": 2045,
  "un": 2046,
  "\u7167": 2047,
  "\u7d22": 2048,
  "\u2581\u6211\u77e5\u9053\u4f60": 2049,
  "\u67e5": 2050,
  "\u2581\u4f60\u4f1a": 2051,
  "\u2581\u662f\u6211": 2052,
  "\u2581gedacht": 2053,
  "\u5404\u56fd": 2054,
  "\u2581Schule": 2055,
  "\u91d1\u878d": 2056,
  "\u5229\u7528": 2057,
  "\u25817": 2058,
  "\u2581kommst": 2059,
  "\u6211\u4f1a": 2060,
  "\u2581Dies": 2061,
  "\u2581unseren": 2062,
  "\u4e00\u9ede": 2063,
  "\u505a\u4ec0\u4e48": 2064,
  "\u662f\u8ab0": 2065,
  "\u662f\u4f60": 2066,
  "\u592b\u4eba": 2067,
  "\u53f0": 2068,
  "\u2581Sachen": 2069,
  "\u2581Sagen": 2070,
  "\u2581York": 2071,
  "\u4e0b\u53bb": 2072,
  "\u7aef": 2073,
  "\u2581tust": 2074,
  "\u7ec4": 2075,
  "\u2581Hinweis": 2076,
  "\u2581Luft": 2077,
  "\u25814": 2078,
  "\u25815.": 2079,
  "\u2581kriegen": 2080,
  "\u2581there": 2081,
  "\u544a\u8bc9\u4f60": 2082,
  "\u2581Kannst": 2083,
  "\u2581n\u00e4chsten": 2084,
  "\u2581Volk": 2085,
  "ra": 2086,
  "\u2581schlecht": 2087,
  "\u2581one": 2088,
  "\u2581welche": 2089,
  "\u69cd": 2090,
  "\u4eba\u6c11": 2091,
  "ja": 2092,
  "\u00f6": 2093,
  "\u4e0d\u60f3": 2094,
  "\u76ee": 2095,
  "\u2581Schl\u00fcssel": 2096,
  "\u8272": 2097,
  "\u2581\u6ca1": 2098,
  "ce": 2099,
  "\u2581nett": 2100,
  "\u4fbf": 2101,
  "\u2581\u8ab0": 2102,
  "\u2581him": 2103,
  "\u7a0b\u5e8f": 2104,
  "Y": 2105,
  "\u2581\u5fc5": 2106,
  "\u5c81": 2107,
  "\u70ed": 2108,
  ").": 2109,
  "\u554f": 2110,
  "\u2581Schutz": 2111,
  "\u2581warte": 2112,
  "DE": 2113,
  "\u2581Probleme": 2114,
  "\u554f\u984c": 2115,
  "\u836f": 2116,
  "\u00e9": 2117,
  "\u628a\u4ed6": 2118,
  "\u2581Ihrem": 2119,
  "\u798f": 2120,
  "\u2581\u662f\u5417": 2121,
  "\u59ae": 2122,
  "\u2581retten": 2123,
  "\u88cf": 2124,
  "ment": 2125,
  "\u2581Auch": 2126,
  "\u8a72": 2127,
  "\u4e71": 2128,
  "\u975e\u6d32": 2129,
  "\u800c\u5df2": 2130,
  "\u6765\u7684": 2131,
  "\u2581eigenen": 2132,
  "\u89e3": 2133,
  "\u5546": 2134,
  "\u5e97": 2135,
  "\u6740": 2136,
  "\u4e0d\u53ef": 2137,
  "\u2581Sorgen": 2138,
  "ol": 2139,
  "\u2581geworden": 2140,
  "\u2581endlich": 2141,
  "\u767b": 2142,
  "18": 2143,
  "\u2581\u7136\u5f8c": 2144,
  "\u4f5c\u4e3a": 2145,
  "\u6728": 2146,
  "li": 2147,
  "\u2581guter": 2148,
  "\u4efb": 2149,
  "\u5439": 2150,
  "\u7d0d": 2151,
  "\u2581\u4e9e": 2152,
  "\u6bd2": 2153,
  "\u2581Alter": 2154,
  "\u90a3\u91cc": 2155,
  "\u2581meines": 2156,
  "\u5965": 2157,
  "\u6216\u8005": 2158,
  "\u79cd": 2159,
  "\u904e\u4f86": 2160,
  "\u91cd\u65b0": 2161,
  "\u2581=": 2162,
  "\u2581h\u00e4ttest": 2163,
  "\u2581gehst": 2164,
  "\u2581\u5443": 2165,
  "\u7834": 2166,
  "\u8c03\u67e5": 2167,
  "\u7d66\u4f60": 2168,
  "\u2581Darf": 2169,
  "\u2581#": 2170,
  "\u83ab": 2171,
  "\u2581\u4e0d\u884c": 2172,
  "\u505a\u4e86": 2173,
  "\u611f": 2174,
  "\u2581\u74b6": 2175,
  "\u539f": 2176,
  "\u4f1a\u5458": 2177,
  "\u8857": 2178,
  "\u2581g": 2179,
  "ine": 2180,
  "\u5f88\u591a": 2181,
  "\u8d8a": 2182,
  "\u628a\u4f60": 2183,
  "\u2581Licht": 2184,
  "U": 2185,
  "\u578b": 2186,
  "\u4e9e": 2187,
  "\u5bb3\u6015": 2188,
  "\u662f\u500b": 2189,
  "\u2581\u4eb2\u7231\u7684": 2190,
  "\u2581\u4f60\u770b": 2191,
  "\u63a8": 2192,
  "\u2581Sehen": 2193,
  "\u9664": 2194,
  "\u00e4": 2195,
  "\u2581\u4e0d\u77e5\u9053": 2196,
  "\u2581gestern": 2197,
  "\u4eca\u665a": 2198,
  "\u559c\u6b61": 2199,
  "\u9019\u662f": 2200,
  "\u8acb": 2201,
  "\u7f6a": 2202,
  "\u8655": 2203,
  "\u5167": 2204,
  "\u7535": 2205,
  "ist": 2206,
  "\u51b0": 2207,
  "\u8b93": 2208,
  "\u61c9\u8a72": 2209,
  "\u4e2d\u5fc3": 2210,
  "\u5c31\u80fd": 2211,
  "\u2581w": 2212,
  "\u2581\u7576\u7136": 2213,
  "\u6309": 2214,
  ":\"": 2215,
  "\u662f\u4e0d\u662f": 2216,
  "end": 2217,
  "\u2581jede": 2218,
  "\u628a\u5b83": 2219,
  "\u2581La": 2220,
  "\u6211\u77e5\u9053": 2221,
  "Comment": 2222,
  "\u2581Internationale": 2223,
  "\u2581zwar": 2224,
  "\u9019\u9ebc": 2225,
  "\u2581Daten": 2226,
  "?\"": 2227,
  "\u7279\u6d3e": 2228,
  "\u6211\u5c31": 2229,
  "\u51fb": 2230,
  "\u65af\u7279": 2231,
  "\u91cd\u8981": 2232,
  "\u2581Sorge": 2233,
  "\u800c\u4e14": 2234,
  "\u2581Ah": 2235,
  "\u7842": 2236,
  "\u8ff7": 2237,
  "\u6cb9": 2238,
  "\u2581\u6bd4": 2239,
  "\u2581Rat": 2240,
  "\u2581Mo": 2241,
  "\u2581schlafen": 2242,
  "\u2581au\u00dfer": 2243,
  "\u2581einige": 2244,
  "\u2581\u53eb": 2245,
  "\u4eba\u5458": 2246,
  "\u8428": 2247,
  "\u2581\u53ef\u662f": 2248,
  "\u591c": 2249,
  "\u8d77\u4f86": 2250,
  "\u2581Bar": 2251,
  "\u4e0b\u6765": 2252,
  "\u4f5b": 2253,
  "\u2581dessen": 2254,
  "\u2581\u8d70": 2255,
  "\u258119": 2256,
  "\u2581System": 2257,
  "\u633a": 2258,
  "\u5834": 2259,
  "do": 2260,
  "\u2581Rahmen": 2261,
  "\u4ed6\u4eec\u7684": 2262,
  "\u2581Do": 2263,
  "\u5c31\u50cf": 2264,
  "\u6f14": 2265,
  "\u2581Stunde": 2266,
  "\u540c\u610f": 2267,
  "\u2581H\u00f6ren": 2268,
  "\u2581h\u00f6r": 2269,
  "\u4e1d": 2270,
  "\u6d17": 2271,
  "\u2581Sonder": 2272,
  "\u2581got": 2273,
  "\u7ef4": 2274,
  "\u6230": 2275,
  "\u670d\u52a1": 2276,
  "\u5169": 2277,
  "\u2581Zukunft": 2278,
  "\u4e0d\u5230": 2279,
  "\u4e2d\u56fd": 2280,
  "\u72af\u7f6a": 2281,
  "\u4f46\u662f": 2282,
  "\u2581\u76fe": 2283,
  "\u25816.": 2284,
  "\u9519": 2285,
  "\u5e73": 2286,
  "\u2581scheint": 2287,
  "\u600e\u6837": 2288,
  "\u4e0a\u5e1d": 2289,
  "\u4f24": 2290,
  "\u6e05": 2291,
  "\u6253\u7b97": 2292,
  "\u6709\u4e2a": 2293,
  "\u54ea": 2294,
  "\u2581w\u00e4r": 2295,
  "\u5988\u5988": 2296,
  "\u522b\u4eba": 2297,
  "\u4ed8": 2298,
  "\u4ee4": 2299,
  "\u2581weniger": 2300,
  "\u2581reicht": 2301,
  "\u589e\u957f": 2302,
  "\u2581\u5b50": 2303,
  "\u771f\u662f": 2304,
  "\u2581d\u00fcrfen": 2305,
  "\u6c11": 2306,
  "\u51b2\u7a81": 2307,
  "\u4ee4\u4eba": 2308,
  "ant": 2309,
  "\u2581gl\u00fccklich": 2310,
  "\u2581w\u00fcrdest": 2311,
  "\u62a5": 2312,
  "\u5152": 2313,
  "\u2581kaum": 2314,
  "\u8003\u8651": 2315,
  "\u2581nationale": 2316,
  "\u2581gegen\u00fcber": 2317,
  "\u5e2e\u52a9": 2318,
  "\u2581erz\u00e4hlen": 2319,
  "\u5e02\u573a": 2320,
  "\u2581Vielen": 2321,
  "\u6280\u672f": 2322,
  "ster": 2323,
  "\u2581Dieses": 2324,
  "\u2581besten": 2325,
  "\u2581fr\u00fch": 2326,
  "\u6025": 2327,
  "\u4e0d\u53ef\u80fd": 2328,
  "\u5c04": 2329,
  "\u89c6": 2330,
  "\u2581f\u00fchren": 2331,
  "\u591a\u5c11": 2332,
  "\u53f2": 2333,
  "\u2581Schau": 2334,
  "\u2581Wochen": 2335,
  "\u6392": 2336,
  "\u2581Seine": 2337,
  "\u8fdb\u53bb": 2338,
  "\u6771\u897f": 2339,
  "\u2581worden": 2340,
  "\u5f3a": 2341,
  "\u2581\u4f60\u5f97": 2342,
  "\u660e\u767d": 2343,
  "\u2581guten": 2344,
  "\u2581Damit": 2345,
  "\u2581meisten": 2346,
  "\u2581still": 2347,
  "\u8bed": 2348,
  "\u2581heraus": 2349,
  "\u2581\u8ba9\u6211": 2350,
  "\u5973\u58eb": 2351,
  "\u2581Fenster": 2352,
  "\u2581Wollen": 2353,
  "\u63d0\u51fa": 2354,
  "\u2581Bild": 2355,
  "\u2581X": 2356,
  "\u2581\u8fd8\u662f": 2357,
  "\u2581Jeder": 2358,
  "\u5355": 2359,
  "\u2581\u5f88": 2360,
  "\u2581St": 2361,
  "\u52a0\u5165": 2362,
  "\u2581falsch": 2363,
  "\u9054": 2364,
  "\u2581Bin": 2365,
  "\u8c03": 2366,
  "\u2581Papa": 2367,
  "\u2581Z": 2368,
  "\u6cd5\u5f8b": 2369,
  "\u2581\u6211\u4eec\u8981": 2370,
  "\u2581\u8ddf": 2371,
  "\u53e4": 2372,
  "\u8863": 2373,
  "\u540d\u5b57": 2374,
  "\u2581\u4e5f\u8bb8": 2375,
  "\u2581zehn": 2376,
  "\u2581\u6c92": 2377,
  "\u2581\u5f53": 2378,
  "\u8c61": 2379,
  "\u2581\u5c0d\u4e0d\u8d77": 2380,
  "\u2581\u00e4ndern": 2381,
  "ard": 2382,
  "\u2581\u5c07": 2383,
  "\u914d": 2384,
  "\u5c11": 2385,
  "\u2581gef\u00e4llt": 2386,
  "da": 2387,
  "\u2581Lebens": 2388,
  "ru": 2389,
  "\u25818": 2390,
  "\u767e": 2391,
  "\u4efb\u52a1": 2392,
  "\u4e00\u79cd": 2393,
  "\u2581wann": 2394,
  "\u2581\u884c": 2395,
  "\u22bf": 2396,
  "\u7684\u95ee\u9898": 2397,
  "ger": 2398,
  "\u8fdc": 2399,
  "\u90e8\u961f": 2400,
  "\u2581\u4f60\u4e0d\u80fd": 2401,
  "\u6cb3": 2402,
  "\u76df": 2403,
  "\u2581gro\u00df": 2404,
  "\u2581Seit": 2405,
  "\u2581\u5929": 2406,
  "\u2581\u62c9": 2407,
  "\u4fdd\u6301": 2408,
  "\u2581Frieden": 2409,
  "\u7acb": 2410,
  "\u2581as": 2411,
  "\u4e00\u5b9a": 2412,
  "\u6a23": 2413,
  "\u513f\u7ae5": 2414,
  "\u6b65": 2415,
  "\u9009": 2416,
  "\u827e": 2417,
  "\u5f62": 2418,
  "\u98a8": 2419,
  "\u2581sagten": 2420,
  "\u2581H\u00f6lle": 2421,
  "\u4fee": 2422,
  "\u2581kleiner": 2423,
  "\u6015": 2424,
  "\u5173\u7cfb": 2425,
  "\u6539": 2426,
  "2000": 2427,
  "\u2581trinken": 2428,
  "\u2581ziehen": 2429,
  "\u5207": 2430,
  "\u2581Telefon": 2431,
  "\u4e16": 2432,
  "\u9084\u6709": 2433,
  "\u2581denkst": 2434,
  "\u589e\u52a0": 2435,
  "\u516b": 2436,
  "mal": 2437,
  "\u2581Liste": 2438,
  "\u53c2\u4e0e": 2439,
  "25": 2440,
  "\u2581\u56e0": 2441,
  "\u2581darin": 2442,
  "\u76f4\u63a5": 2443,
  "\u5dee": 2444,
  "\u5f71\u54cd": 2445,
  "\u258150": 2446,
  "me": 2447,
  "\u2581Beispiel": 2448,
  "\u6539\u53d8": 2449,
  "\u6807": 2450,
  "\u2581Eure": 2451,
  "ha": 2452,
  "\u2581Kampf": 2453,
  "\u2581ent": 2454,
  "\u4f60\u8981": 2455,
  "and": 2456,
  "\u5728\u9019\u88e1": 2457,
  "\u2581weitere": 2458,
  "\u516d": 2459,
  "\u2581wirtschaftliche": 2460,
  "\u662f\u5728": 2461,
  "\u2581spricht": 2462,
  "\u9632": 2463,
  "\u2581Allah": 2464,
  "\u5a01": 2465,
  "\u74b6": 2466,
  "\u2581Kumpel": 2467,
  "\u8054": 2468,
  "\u8eab\u4e0a": 2469,
  "0": 2470,
  "\u25818.": 2471,
  "\u2581Lasst": 2472,
  "ler": 2473,
  "\u786e\u5b9a": 2474,
  "\u85cf": 2475,
  "\u4f26": 2476,
  "\u5728\u90a3\u91cc": 2477,
  "\u2581direkt": 2478,
  "\u2581\u624b": 2479,
  "\u4e1c": 2480,
  "\u8d85": 2481,
  "\u2581\u6c92\u932f": 2482,
  "\u4e3d": 2483,
  "\u8996": 2484,
  "\u2581Text": 2485,
  "\u2581gebe": 2486,
  "\u83b7\u5f97": 2487,
  "\u2581hierher": 2488,
  "\u72af": 2489,
  "\u6765\u8bf4": 2490,
  "\u2581Ha": 2491,
  "\u2581\u62dc\u6258": 2492,
  "\u2581Menschenrechte": 2493,
  "\u7ea7": 2494,
  "\u2581if": 2495,
  "17": 2496,
  "rial": 2497,
  "\u8d44\u6e90": 2498,
  "\u62c5\u5fc3": 2499,
  "\u548c\u5176\u4ed6": 2500,
  "\u2581rum": 2501,
  "\u2581\u8d70\u5427": 2502,
  "\u2581Menge": 2503,
  "\u8cb7": 2504,
  "\u2581but": 2505,
  "\u5b58\u5728": 2506,
  "name": 2507,
  "\u2581Erkl\u00e4rung": 2508,
  "\u2581Gottes": 2509,
  "55": 2510,
  "60": 2511,
  "\u7279\u522b\u662f": 2512,
  "\u2581does": 2513,
  "\u80fd\u529b": 2514,
  "\u2581tue": 2515,
  "\u6697": 2516,
  "\u2581au\u00dferdem": 2517,
  "\u2581alten": 2518,
  "\u7ed3\u675f": 2519,
  "\u6c99": 2520,
  "\u2581h": 2521,
  "\u2581\u56e0\u4e3a\u6211": 2522,
  "\u2581\u4e0b\u4e00": 2523,
  "\u2581\u770b\u770b": 2524,
  "\u4e00\u5929": 2525,
  "\u6c42": 2526,
  "\u2581\u7576": 2527,
  "\u623f\u5b50": 2528,
  "co": 2529,
  "\u25812000": 2530,
  "\u611f\u89c9": 2531,
  "\u96e3": 2532,
  "\u2581Le": 2533,
  "\u505c": 2534,
  "\u6b7b\u4ea1": 2535,
  "\u2581K\u00f6rper": 2536,
  "\u7a2e": 2537,
  "\u2581\u54c8": 2538,
  "\u2581Sicher": 2539,
  "ah": 2540,
  "\u529e": 2541,
  "\u5f27": 2542,
  "\u9760": 2543,
  "\u2581\u4ed6\u5728": 2544,
  "\u5ba2": 2545,
  "\u2581\u6240\u6709": 2546,
  "\u2581\u7b49\u4e00\u4e0b": 2547,
  "\u2581\u600e\u4e48": 2548,
  "\u5b98": 2549,
  "\u6562": 2550,
  "\u838e": 2551,
  "\u2581Nachricht": 2552,
  "\u98df": 2553,
  "\u5e6b": 2554,
  "\u96c6": 2555,
  "40": 2556,
  "\u97f3": 2557,
  "\u56de\u5230": 2558,
  "\u600e\u4e48\u4e86": 2559,
  "\u25817.": 2560,
  "\u5b78": 2561,
  "\u8a71": 2562,
  "\u90a3\u662f": 2563,
  "\u7a66": 2564,
  "\u51e0": 2565,
  "\u5176\u4e2d": 2566,
  "\u5c0f\u5b69": 2567,
  "\u2581tragen": 2568,
  "\u673a\u4f1a": 2569,
  "\u5757": 2570,
  "\u9000": 2571,
  "\u4f60\u662f": 2572,
  "\u8f49": 2573,
  "\u2581think": 2574,
  "\u2581neu": 2575,
  "\u2581\u5f97": 2576,
  "\u5728\u8fd9\u513f": 2577,
  "\u2581\u5148": 2578,
  "\u9ebc": 2579,
  "22": 2580,
  "\u548c\u4f60": 2581,
  "\u2581Unsere": 2582,
  "\u2581krank": 2583,
  "\u2581\u7ed9\u6211": 2584,
  "\u2581\u5927\u5bb6": 2585,
  "\u2581Boden": 2586,
  "\u2581black": 2587,
  "\u514b\u65af": 2588,
  "\u2581gebracht": 2589,
  "007": 2590,
  "\u2581David": 2591,
  "\u8f7d": 2592,
  "\u5e1d": 2593,
  "\u534e": 2594,
  "\u4e2a\u4eba": 2595,
  "\u884c\u4e3a": 2596,
  "\u2581Geben": 2597,
  "\u725b": 2598,
  "\u5beb": 2599,
  "\u53c2\u52a0": 2600,
  "\u9020": 2601,
  "\u603b\u7edf": 2602,
  "\u5ea7": 2603,
  "\u2581\u4f5c": 2604,
  "\u2581\u82e5": 2605,
  "\u2581Yeah": 2606,
  "\u6240\u6709\u7684": 2607,
  "\u8868\u793a": 2608,
  "\u2581Film": 2609,
  "\u2581\u6b22\u8fce": 2610,
  "text": 2611,
  "\u517b": 2612,
  "\u7cbe": 2613,
  "fe": 2614,
  "\u2581Lage": 2615,
  "\u5531": 2616,
  "\u8fdb\u4e00\u6b65": 2617,
  "\u2581Mission": 2618,
  "\u2581want": 2619,
  "\u2581\u4eca\u665a": 2620,
  "\u2581brauchst": 2621,
  "\u2581\u6240\u4ee5\u6211": 2622,
  "\u2581v\u00f6llig": 2623,
  "\u544a\u8a34\u6211": 2624,
  "\u662f\u4e00\u4e2a": 2625,
  "[": 2626,
  "\u4f20": 2627,
  "\u4e0d\u518d": 2628,
  "\u5f39": 2629,
  "ungen": 2630,
  "\u2581Gebiet": 2631,
  "\u2581\u518d\u89c1": 2632,
  "\u9886": 2633,
  "\u2581weiterhin": 2634,
  "\u2581Hund": 2635,
  "\u2581\u7a66": 2636,
  "\u534f\u8c03": 2637,
  "2005": 2638,
  "\u2581Siehst": 2639,
  "\u2581Opfer": 2640,
  "\u2581funktioniert": 2641,
  "\u2581Rest": 2642,
  "\u2581General": 2643,
  "\u4e8b\u4ef6": 2644,
  "\u2581Stimmt": 2645,
  "\u5931\u53bb": 2646,
  "\u8bb0\u5f55": 2647,
  "\u2581PH": 2648,
  "\u5bb6\u5ead": 2649,
  "\u2581s": 2650,
  "ko": 2651,
  "\u2581verlieren": 2652,
  "\u4ea4\u6613": 2653,
  "\u2581vielen": 2654,
  "13": 2655,
  "\u2581\u83ef": 2656,
  "bar": 2657,
  "\u2581--": 2658,
  "\u670d": 2659,
  "\u2581nahe": 2660,
  "\u2581verstanden": 2661,
  "\u862d": 2662,
  "\u8d39": 2663,
  "\u2581lieben": 2664,
  "\u6b4c": 2665,
  "\u8d38\u6613": 2666,
  "\u66fe": 2667,
  "\u8349": 2668,
  "\u2581Euer": 2669,
  "\u57ce\u5e02": 2670,
  "\u5f15": 2671,
  "\u2581\u4e09": 2672,
  "\u77f3": 2673,
  "\u597d\u50cf": 2674,
  "\u8d5b": 2675,
  "\u660e\u5929": 2676,
  "\u5341": 2677,
  "\u53d7\u5230": 2678,
  "):": 2679,
  "\u5230\u5e95": 2680,
  "\u2581Bleib": 2681,
  "\u2581Funktion": 2682,
  "\u2581einschlie\u00dflich": 2683,
  "auf": 2684,
  "\u2581\u6211\u53bb": 2685,
  "\u4efb\u4f55\u4eba": 2686,
  "\u754c": 2687,
  "ik": 2688,
  "ut": 2689,
  "\u8b66": 2690,
  "\u2581Typen": 2691,
  "\u745f": 2692,
  "\u2581ehrlich": 2693,
  "\u2581\u3050\u6216": 2694,
  "\u2581Ben": 2695,
  "\u2581\u4f60\u5c31": 2696,
  "\u571f": 2697,
  "\u4ed6\u5988\u7684": 2698,
  "\u2581or": 2699,
  "\u5e7e": 2700,
  "\u2581erneut": 2701,
  "\u53ca\u5176": 2702,
  "\u5e02": 2703,
  "\u2581\u4e3a\u4e86": 2704,
  "\u811a": 2705,
  "\u65b9\u5f0f": 2706,
  "\u9875": 2707,
  "ke": 2708,
  "Z": 2709,
  "\u6709\u4e9b": 2710,
  "\u2581they": 2711,
  "\u25819": 2712,
  "\u2581St\u00fcck": 2713,
  "\u6559\u80b2": 2714,
  "\u2581setzen": 2715,
  "\u7f6e": 2716,
  "\u4f9b": 2717,
  "\u9023": 2718,
  "1)": 2719,
  "\u5468": 2720,
  "\u2581Finanz": 2721,
  "\u5145\u5206": 2722,
  "cHFF": 2723,
  "\u2581See": 2724,
  "\u662f\u6211\u7684": 2725,
  "\u2581erkl\u00e4ren": 2726,
  "\u4e24\u4e2a": 2727,
  "\u2581fr\u00fcher": 2728,
  "\u65cf": 2729,
  "\u600e\u9ebc": 2730,
  "\u2581con": 2731,
  "\u4e0d\u7528": 2732,
  "\u2581\u6211\u89c9\u5f97": 2733,
  "\u537b": 2734,
  "age": 2735,
  "\u2581Gibt": 2736,
  "\u2581Pass": 2737,
  "\u4eba\u7c7b": 2738,
  "\u5b9e": 2739,
  "\u2581see": 2740,
  "\u2581Jemand": 2741,
  "\u8863\u670d": 2742,
  "\u89d2": 2743,
  "\u6545\u4e8b": 2744,
  "\u613f\u610f": 2745,
  "\u75db": 2746,
  "\u8c22\u8c22": 2747,
  "ca": 2748,
  "ers": 2749,
  "\u9003": 2750,
  "\u8fdb\u6765": 2751,
  "\u2581\u5b89": 2752,
  "\u663e\u793a": 2753,
  "\u2581Tages": 2754,
  "\u989d": 2755,
  "\u88dd": 2756,
  "\u8ba9\u4ed6": 2757,
  "\u5371\u673a": 2758,
  "\u4efd": 2759,
  "\u2581beste": 2760,
  "\u2581\u4e0d\u904e": 2761,
  "\u73af\u5883": 2762,
  "ick": 2763,
  "\u2581gefallen": 2764,
  "\u5c31\u8981": 2765,
  "\u4e4b\u95f4": 2766,
  "\u5b9e\u65bd": 2767,
  "\u62d6": 2768,
  "\u2581solche": 2769,
  "\u89e3\u91ca": 2770,
  "\u6df7\u86cb": 2771,
  "\u2581genommen": 2772,
  "\u2581alte": 2773,
  "\u5bf9\u6211": 2774,
  "\u2581That": 2775,
  "\u62db": 2776,
  "fna": 2777,
  "110}": 2778,
  "\u6211\u5011\u7684": 2779,
  "\u6e05\u695a": 2780,
  "\u2581Sein": 2781,
  "\u2581Tagen": 2782,
  "\u2581\u56e0\u6b64": 2783,
  "\u2581\u53ea": 2784,
  "\u25810": 2785,
  "\u2581Nachrichten": 2786,
  "\u968a": 2787,
  "\u2581\u6211\u5df2\u7ecf": 2788,
  "\u66b4": 2789,
  "mo": 2790,
  "\u2581sollst": 2791,
  "\u6837": 2792,
  "\u932f": 2793,
  "\u767c\u73fe": 2794,
  "\u8036": 2795,
  "\u5b89\u7406": 2796,
  "\u96ea": 2797,
  "\u2581Michael": 2798,
  "\u2581weh": 2799,
  "\u2581Vertrags": 2800,
  "\u8499": 2801,
  "\u2581Mist": 2802,
  "\u5c31\u6703": 2803,
  "ate": 2804,
  "\u2581Mittel": 2805,
  "2001": 2806,
  "ze": 2807,
  "\u2581Pr\u00e4sident": 2808,
  "\u8054\u7cfb": 2809,
  "\u53ea\u80fd": 2810,
  "\u2581Boss": 2811,
  "\u5219": 2812,
  "\u25812002": 2813,
  "\u501f": 2814,
  "\u7ed3": 2815,
  "\u2581\u5988\u5988": 2816,
  "\u2581\u62ff": 2817,
  "\u2581\u4e0d\u80fd": 2818,
  "\u6ee1": 2819,
  "\u4e86\u5427": 2820,
  "\u753b": 2821,
  "\u2581Gewalt": 2822,
  "\u2581Sex": 2823,
  "\u2581Ex": 2824,
  "\u5723": 2825,
  "\u8bfb": 2826,
  "\u5370": 2827,
  "\u842c": 2828,
  "\u2581\u6211\u9700\u8981": 2829,
  "\u677f": 2830,
  "\u8ddf\u4ed6": 2831,
  "\u8ac7": 2832,
  "\u3106": 2833,
  "\u7968": 2834,
  "\u2581indem": 2835,
  "\u2581fand": 2836,
  "\u2581Ohne": 2837,
  "\u4e0d\u9519": 2838,
  "\u258112": 2839,
  "\u2581\u00fcberall": 2840,
  "\u6295": 2841,
  "\u50bb": 2842,
  "\u65b9\u6cd5": 2843,
  "\u601d": 2844,
  "\u00ea": 2845,
  "\u2581st": 2846,
  "\u5728\u8fd9": 2847,
  "\u2581regionale": 2848,
  "\u2581Mar": 2849,
  "Ja": 2850,
  "\u535a\u58eb": 2851,
  "\u9593": 2852,
  "\u2581\u4f7f": 2853,
  "\u4e3b\u8981": 2854,
  "\u6309\u7167": 2855,
  "\u00df": 2856,
  "\u2581Stra\u00dfe": 2857,
  "\u2581getroffen": 2858,
  "\u5171": 2859,
  "\u4e03": 2860,
  "\u2581unserem": 2861,
  "\u2581wollt": 2862,
  "\u80cc": 2863,
  "\u2581Gef\u00fchl": 2864,
  "\u5356": 2865,
  "\u548c\u4ed6": 2866,
  "\u6bba": 2867,
  "\u574f": 2868,
  "\u50b3": 2869,
  "\u6218\u4e89": 2870,
  "\u5e2e": 2871,
  "\u6709\u9ede": 2872,
  "\u4fdd": 2873,
  "\u6ce8\u610f": 2874,
  "\u6c11\u4e3b": 2875,
  "\u8b1b": 2876,
  "\u5634": 2877,
  "\u6234": 2878,
  "\u2581Musik": 2879,
  "\u7559\u4e0b": 2880,
  "\u6210\u5458": 2881,
  "\u2581lernen": 2882,
  "\u2581Kaffee": 2883,
  "\u2581leicht": 2884,
  "\u2581\u6211\u5f88": 2885,
  "\u2581irgendwie": 2886,
  "\u2581\u70ba\u4ec0\u9ebc": 2887,
  "\u62e5\u6709": 2888,
  "\u2581\u662f\u4f60": 2889,
  "\u9662": 2890,
  "\u5b88": 2891,
  "\u7684\u751f\u6d3b": 2892,
  "\u6700\u597d": 2893,
  "\u66f4\u591a": 2894,
  "os": 2895,
  "\u2581Mike": 2896,
  "\u2581tu": 2897,
  "\u2581irgendwas": 2898,
  "23": 2899,
  "di": 2900,
  "\u4eba\u4eec": 2901,
  "\u25819.": 2902,
  "\u2581\u5361": 2903,
  "\u6253\u5f00": 2904,
  "\u570b": 2905,
  "\u7684\u6771\u897f": 2906,
  "\u2581langsam": 2907,
  "\u2581\u5e76": 2908,
  "\u8072": 2909,
  "\u2581h\u00e4lt": 2910,
  "\u6d88\u606f": 2911,
  "\u91ab\u751f": 2912,
  "\u2581Party": 2913,
  "\u2581geschafft": 2914,
  "\u2581Weise": 2915,
  "\u2581nennen": 2916,
  "\u2581Artikel": 2917,
  "\u5c3d": 2918,
  "\u57fa\u91d1": 2919,
  "\u2581Je": 2920,
  "\u8ba4\u8bc6": 2921,
  "\u4e25\u91cd": 2922,
  "\u9996": 2923,
  "q": 2924,
  "\u2581\u6211\u6ca1\u6709": 2925,
  "\u2581Mund": 2926,
  "\u2581Falls": 2927,
  "\u2581Organisation": 2928,
  "\u5c0a\u91cd": 2929,
  "\u4ee5\u4fbf": 2930,
  "\u7b41": 2931,
  "\u96fb\u8a71": 2932,
  "\u2581back": 2933,
  "\u6bcf": 2934,
  "\u5f53\u7136": 2935,
  "\u7684\u56fd\u5bb6": 2936,
  "\u2581\u4e0d\u7528": 2937,
  "\u2581\u897f": 2938,
  "\u5317": 2939,
  "\u2581seines": 2940,
  "per": 2941,
  "\u53eb\u6211": 2942,
  "\u2581Wirtschafts": 2943,
  "\u2581\u7b49": 2944,
  "\u2581\u660e\u5929": 2945,
  "\u2581Sch": 2946,
  "\u2581h\u00f6rt": 2947,
  "\u2581Gef\u00e4ngnis": 2948,
  "\u904e\u53bb": 2949,
  "\u5e76\u4e0d": 2950,
  "Q": 2951,
  "\u2581Siehe": 2952,
  "\u7136\u540e": 2953,
  "\u7f14": 2954,
  "2003": 2955,
  "\u5fc5": 2956,
  "\u8b8a": 2957,
  "\u7684\u65b9\u5f0f": 2958,
  "\u4ecd\u7136": 2959,
  "\u5343": 2960,
  "\u2581Tja": 2961,
  "\u2581Programm": 2962,
  "\u88c1": 2963,
  "\u8afe": 2964,
  "\u5bf9\u4f60": 2965,
  "\u5ff5": 2966,
  "FF": 2967,
  "\u2581n\u00e4chste": 2968,
  "\u2581erinnern": 2969,
  "\u4ee5\u540e": 2970,
  "\u83dc": 2971,
  "\u6740\u4e86": 2972,
  "\u2581laufen": 2973,
  "\u5a01\u80c1": 2974,
  "\u2581she": 2975,
  "\u2581\u53ef\u80fd": 2976,
  "\u2581Entscheidung": 2977,
  "\u4ee3": 2978,
  "\u85e5": 2979,
  "\u90fd\u6709": 2980,
  "\u7a0b": 2981,
  "\u2581\u827e": 2982,
  "\u5e8a": 2983,
  "\u5340": 2984,
  "\u79d8\u5bc6": 2985,
  "\u2581Viel": 2986,
  "\u6709\u591a": 2987,
  "\u671f\u95f4": 2988,
  "\u8fdb\u5165": 2989,
  "\u2581ihres": 2990,
  "\u2581\u4e00\u500b": 2991,
  "heit": 2992,
  "\u8036\u548c\u83ef": 2993,
  "\u539f\u56e0": 2994,
  "\u2581wieso": 2995,
  "\u2581herum": 2996,
  "\u2581\u4f46\u662f\u6211": 2997,
  "\u86cb": 2998,
  "\u2581\u5927\u4f1a": 2999,
  "\u81ed": 3000,
  "\u4eb2": 3001,
  "\u8ecd": 3002,
  "\u2581gonna": 3003,
  "\u2581Sinn": 3004,
  "\u4fc3": 3005,
  "\u82e5": 3006,
  "ci": 3007,
  "\u2581Arschloch": 3008,
  "\u2581Team": 3009,
  "\u2581\u65b0": 3010,
  "\u6df7": 3011,
  "\u53ef\u6301\u7eed": 3012,
  "\u4e50": 3013,
  "\u90fd\u4f1a": 3014,
  "\u2581\u9019\u6a23": 3015,
  "\u4eba\u7684": 3016,
  "\u2581(200": 3017,
  "\u7fa4": 3018,
  "\u2581Herrn": 3019,
  "\u2581Anstrengungen": 3020,
  "\u2581total": 3021,
  "\u4e5f\u8bb8": 3022,
  "isch": 3023,
  "!\"": 3024,
  "\u2581Willkommen": 3025,
  "\u9644\u4ef6": 3026,
  "\u5730\u533a": 3027,
  "\u2581Onkel": 3028,
  "\u2581\u524d\u4e00": 3029,
  "\u5957": 3030,
  "\u6293": 3031,
  "\u63db": 3032,
  "\u4eba\u9053\u4e3b\u4e49": 3033,
  "\u258118": 3034,
  "\u53d6\u5f97": 3035,
  "\u5584": 3036,
  "\u8fdb\u7a0b": 3037,
  "\u5bb9": 3038,
  "\u5e15": 3039,
  "\u2581Sieht": 3040,
  "\u77ed": 3041,
  "\u95dc": 3042,
  "\u2581Drogen": 3043,
  "\u2581unterst\u00fctzen": 3044,
  "\u62bd": 3045,
  "\u9c7c": 3046,
  "\u2581lebt": 3047,
  "\u665a\u4e0a": 3048,
  "2004": 3049,
  "\u2581wahrscheinlich": 3050,
  "ina": 3051,
  "\u53ef\u662f": 3052,
  "\u544a\u8a34\u4f60": 3053,
  "\u9879\u76ee": 3054,
  "\u2581l\u00e4nger": 3055,
  "\u534f\u52a9": 3056,
  "ba": 3057,
  "\u2581werdet": 3058,
  "\u5e72\u4ec0\u4e48": 3059,
  "\u2581Gruppe": 3060,
  "\u2581\u6211\u4e0d\u4f1a": 3061,
  "\u597d\u597d": 3062,
  "\u8d1f\u8d23": 3063,
  "\u2581Jungen": 3064,
  "\u5225\u4eba": 3065,
  "\u8bb0": 3066,
  "\u2581namentlich": 3067,
  "\u98de\u673a": 3068,
  "\u60a8\u7684": 3069,
  "\u2581Bewegung": 3070,
  "\u2581Tom": 3071,
  "\u6885": 3072,
  "\u4f5c\u51fa": 3073,
  "\u6e38": 3074,
  "up": 3075,
  "\u2581Kindern": 3076,
  "\u7d20": 3077,
  "\u679c": 3078,
  "\u25812001": 3079,
  "\u665a": 3080,
  "\u2581v": 3081,
  "\u2581\u4e34": 3082,
  ">": 3083,
  "\u7259": 3084,
  "\u8b93\u4f60": 3085,
  "ian": 3086,
  "\u2581Person": 3087,
  "\u7f16": 3088,
  "\u603b\u662f": 3089,
  "\u2581Deshalb": 3090,
  "ley": 3091,
  "\u6846": 3092,
  "\u258110.": 3093,
  "\u2581k\u00f6nnt": 3094,
  "\u908a": 3095,
  "ow": 3096,
  "\u2581wolltest": 3097,
  "\u80e1": 3098,
  "\u2581humanit\u00e4re": 3099,
  "\u9078\u64c7": 3100,
  "\u2581lasse": 3101,
  "he": 3102,
  "\u5987\u5973": 3103,
  "\u65b0\u95fb": 3104,
  "\u2581Gold": 3105,
  "\u2581Punkt": 3106,
  "\u5bc4": 3107,
  "\u6574\u4e2a": 3108,
  "\u2581Leuten": 3109,
  "\u8aaa\u8a71": 3110,
  "\u2581Schiff": 3111,
  "\u2581\u6ce8\u610f\u5230": 3112,
  "2002": 3113,
  "\u7981": 3114,
  "\u2581100": 3115,
  "\u2581stand": 3116,
  "\u671b": 3117,
  "\u2581Drei": 3118,
  "\u4ecd": 3119,
  "ige": 3120,
  "\u2581US": 3121,
  "\u2581\u5411": 3122,
  "\u6295\u8d44": 3123,
  "\u5496\u5561": 3124,
  "\u5e95": 3125,
  "\u76ee\u524d": 3126,
  "ka": 3127,
  "\u2581\u8981\u662f": 3128,
  "\u2581Max": 3129,
  "\u2581jedes": 3130,
  "\u597d\u55ce": 3131,
  "\u5e2e\u6211": 3132,
  "\u5f92": 3133,
  "\u90a3\u6a23": 3134,
  "\u8ba8\u8bba": 3135,
  "\u2581Unser": 3136,
  "\u2581erfahren": 3137,
  "\u2581Bo": 3138,
  "\u2581\u5f27": 3139,
  "\u54ed": 3140,
  "\u66b4\u529b": 3141,
  "\u7684\u5c0f": 3142,
  "\u2581sitzen": 3143,
  "\u2581Dir": 3144,
  "\u5ba1\u8bae": 3145,
  "\u91ce": 3146,
  "\u25812003": 3147,
  "\u2581\u5979\u662f": 3148,
  "\u4e3a\u4e86": 3149,
  "\u8d27": 3150,
  "\u5377": 3151,
  "\u50b7": 3152,
  "\u5f52": 3153,
  "\u90e8\u5206": 3154,
  "\u63d0\u9ad8": 3155,
  "\u2581Traum": 3156,
  "\u547d\u4ee4": 3157,
  "\u2581dr\u00fcben": 3158,
  "\u2581hattest": 3159,
  "\u6700\u540e": 3160,
  "\u6162": 3161,
  "\u505c\u6b62": 3162,
  "\u2581\u5feb\u9ede": 3163,
  "\u4e5f\u4e0d": 3164,
  "\u2581k\u00e4mpfen": 3165,
  "\u2581diejenigen": 3166,
  "\u821e": 3167,
  "\u2581Captain": 3168,
  "\u2581findet": 3169,
  "\u964d": 3170,
  "\u2581F\u00f6rderung": 3171,
  "\u2581gefragt": 3172,
  "\u5200": 3173,
  "\u2581\u9084": 3174,
  "stellung": 3175,
  "\u2581Juni": 3176,
  "\u83f2": 3177,
  "\u9ebb\u70e6": 3178,
  "\u2581\u88e1": 3179,
  "\u2581beschlie\u00dft": 3180,
  "\u5e72\u561b": 3181,
  "\u2581verletzt": 3182,
  "\u2581ernst": 3183,
  "\u2581Mehr": 3184,
  "\u2581wem": 3185,
  "\u2581\u54c7": 3186,
  "\u2581\u6211\u6ca1": 3187,
  "\u7cbe\u795e": 3188,
  "\u5c06\u4f1a": 3189,
  "\u589e": 3190,
  "au": 3191,
  "\u2581Ro": 3192,
  "\u258112.": 3193,
  "\u2581now": 3194,
  "\u5831": 3195,
  "\u4e34": 3196,
  "\u2581Ent": 3197,
  "\u4e00\u4efd": 3198,
  "\u4e01": 3199,
  "\u51fa\u73b0": 3200,
  "\u2581\u6b64": 3201,
  "\u5347": 3202,
  "\u2581Antwort": 3203,
  "\u90e8\u95e8": 3204,
  "\u4fdd\u8bc1": 3205,
  "\u534f\u5b9a": 3206,
  "\u2581froh": 3207,
  "\u2581\u6211\u4eec\u4f1a": 3208,
  "\u2581\u4f60\u8bf4": 3209,
  "\u2581\u6253": 3210,
  "\u751a\u81f3": 3211,
  "\u2581\u4e0d\u7ba1": 3212,
  "\u7d72": 3213,
  "\u4f60\u4e86": 3214,
  "\u7a33\u5b9a": 3215,
  "\u804a": 3216,
  "\u2581\u4f60\u4e0d": 3217,
  "\u2581\u4f60\u4e0d\u662f": 3218,
  "\u2581L\u00e4ndern": 3219,
  "\u8fd9\u6837\u7684": 3220,
  "\u5565": 3221,
  "\u600e\u4e48\u529e": 3222,
  "\u2581Not": 3223,
  "\u2581\u6211\u662f\u8bf4": 3224,
  "\u2581glaubst": 3225,
  "\u6539\u9769": 3226,
  "\u2581kleines": 3227,
  "\u2581Schluss": 3228,
  "\u2581zuerst": 3229,
  "\u6587\u5316": 3230,
  "\u2581by": 3231,
  "\u2581\u4e8c": 3232,
  "\u2581Daddy": 3233,
  "\u2581soziale": 3234,
  "\u2581Machen": 3235,
  "\u4e1a": 3236,
  "\u2581Durch": 3237,
  "\u2581Schnell": 3238,
  "\u2581\u5df4": 3239,
  "EN": 3240,
  "\u5171\u540c": 3241,
  "\u2581jedem": 3242,
  "\u535a": 3243,
  "\u7dad": 3244,
  "\u2581erwartet": 3245,
  "57": 3246,
  "\u2581\u789e": 3247,
  "56": 3248,
  "\u4f3c\u4e4e": 3249,
  "\u2581Darum": 3250,
  "\u2581cool": 3251,
  "\u2581Einklang": 3252,
  "\u5e0c": 3253,
  "\u2581\u738b": 3254,
  "\u8ba1": 3255,
  "\u2581sieben": 3256,
  "\u6709\u6548": 3257,
  "\u9060": 3258,
  "\u8981\u53bb": 3259,
  "\u2581Monate": 3260,
  "\u83b1": 3261,
  "\u2581Wert": 3262,
  "\u5179": 3263,
  "\u2581\u5c0f\u5fc3": 3264,
  "\u2581gemeinsam": 3265,
  "\u2581\u81ea": 3266,
  "ber": 3267,
  "ell": 3268,
  "\u6362": 3269,
  "\u9f99": 3270,
  "staatlichen": 3271,
  "\u2581Meister": 3272,
  "\u2581kennt": 3273,
  "\u2581Israel": 3274,
  "ierung": 3275,
  "\u2581\u5929\u54ea": 3276,
  "\u6b72": 3277,
  "\u6e38\u620f": 3278,
  "\u4f8b": 3279,
  "\u2581danach": 3280,
  "\u2581\u81f3\u5c11": 3281,
  "\u2581fallen": 3282,
  "\u6211\u5728": 3283,
  "\u591a\u4e45": 3284,
  "58": 3285,
  "\u9519\u8bef": 3286,
  "\u258113": 3287,
  "\u2581stark": 3288,
  "\u600e\u6a23": 3289,
  "\u8fd9\u6837\u505a": 3290,
  "\u66f8": 3291,
  "\u6b63\u5f0f": 3292,
  "\u5bf9\u4e8e": 3293,
  "\u2581Wohnung": 3294,
  "\u2581Befehl": 3295,
  "\u6700\u8fd1": 3296,
  "\u2581George": 3297,
  "\u5bb3": 3298,
  "\u89ba\u5f97": 3299,
  "\u2581\u7a31": 3300,
  "ML": 3301,
  "\u676f": 3302,
  "\u6a02": 3303,
  "\u4e00\u500b\u4eba": 3304,
  "\u2581genannt": 3305,
  "ak": 3306,
  "\u2581Verbindung": 3307,
  "\u7684\u5b69\u5b50": 3308,
  "\u2581interessiert": 3309,
  "\u6770": 3310,
  "\u6a94\u6848": 3311,
  "\u2581geschehen": 3312,
  "\u8a8d\u70ba": 3313,
  "\u51c6": 3314,
  "ische": 3315,
  "\u2581Arzt": 3316,
  "\u79d2": 3317,
  "go": 3318,
  "\u2581Will": 3319,
  "\u2581\u672c": 3320,
  "\u5168\u9762": 3321,
  "\u2581Peter": 3322,
  "\u5abd\u5abd": 3323,
  "\u2581passieren": 3324,
  "\u2581Zusammenhang": 3325,
  "59": 3326,
  "\u2581liegen": 3327,
  "\u2581Meinung": 3328,
  "\u2581ch": 3329,
  "\u064a": 3330,
  "\u7121\u6cd5": 3331,
  "\u96fb": 3332,
  "\u2581\u77e5\u9053": 3333,
  "\u544a\u8bc9": 3334,
  "\u6743\u5229": 3335,
  "\u2581Handbuch": 3336,
  "\u2581lie\u00df": 3337,
  "\u5716": 3338,
  "\u51b7": 3339,
  "\u4e0d\u592a": 3340,
  "\u817f": 3341,
  "24": 3342,
  "\u5883": 3343,
  "\u8a9e": 3344,
  "\u5ba3\u8a00": 3345,
  "\u7b2c\u4e00\u6b21": 3346,
  "\u2581\u8207": 3347,
  "\u2581falls": 3348,
  "\u2581machte": 3349,
  "\u2581Etwas": 3350,
  "\u2581eher": 3351,
  "\u2581Richtung": 3352,
  "2006": 3353,
  "\u5fae": 3354,
  "21": 3355,
  "\u2581\u56de\u987e": 3356,
  "\u2581Gemeinschaft": 3357,
  "\u2581\u5c06": 3358,
  "\u2581\u665a\u5b89": 3359,
  "\u2581us": 3360,
  "\u2581would": 3361,
  "\u7684\u670b\u53cb": 3362,
  "\u2581Preis": 3363,
  "\u2581kaufen": 3364,
  "\u79f0": 3365,
  "\u2581verdient": 3366,
  "\u2581Worte": 3367,
  "\u2581m\u00f6chten": 3368,
  "\u5c31\u53ef\u4ee5": 3369,
  "\u2581\u8ba9": 3370,
  "igen": 3371,
  "\u2581\u4f46\u4ed6": 3372,
  "\u6218\u7565": 3373,
  "\u2581them": 3374,
  "\u2581\u90a3\u500b": 3375,
  "\u2581wen": 3376,
  "\u8054\u76df": 3377,
  "\u2581H\u00f6rt": 3378,
  "\u76f4": 3379,
  "\u7ed9\u4ed6": 3380,
  "\u7a97": 3381,
  "\u2581\u6211\u53eb": 3382,
  "\u2581Habe": 3383,
  "\u6c7a\u5b9a": 3384,
  "\u8bae": 3385,
  "\u2581anderer": 3386,
  "\u4e0b\u4f86": 3387,
  "\u68d2": 3388,
  "\u8fd8\u5728": 3389,
  "\u7684\u5973\u4eba": 3390,
  "\u2581Go": 3391,
  "\u2581time": 3392,
  "\u2581\u957f\u5b98": 3393,
  "\u793a": 3394,
  "sa": 3395,
  "\u2581Harry": 3396,
  "\u2581gegangen": 3397,
  "\u9884\u7b97": 3398,
  "ive": 3399,
  "\u7b2c\u4e8c": 3400,
  "\u8fd8\u6ca1": 3401,
  "\u9032\u53bb": 3402,
  "\u7684\u539f\u56e0": 3403,
  "\u2581nochmal": 3404,
  "\u2581acht": 3405,
  "\u2581hei\u00dfen": 3406,
  "\u4e0d\u5728": 3407,
  "\u2581Berichts": 3408,
  "\u2581Laden": 3409,
  "\u544a": 3410,
  "\u2581\u4e8b\u5b9e\u4e0a": 3411,
  "\u7ea2": 3412,
  "\u6811": 3413,
  "\u68a6": 3414,
  "\u8bf4\u7684": 3415,
  "ier": 3416,
  "\u2581Pr\u00e4sidenten": 3417,
  "\u4f86\u7684": 3418,
  "\u51b2": 3419,
  "\u8d1d": 3420,
  "\u6bcd": 3421,
  "\u9032\u4f86": 3422,
  "\u2581Agent": 3423,
  "\u767c\u751f": 3424,
  "\u2581Gesch\u00e4ft": 3425,
  "\u2581Weiter": 3426,
  "\u8f1b": 3427,
  "\u5ba1\u67e5": 3428,
  "\u2581\u5594": 3429,
  "ti": 3430,
  "\u2581\u7d66": 3431,
  "\u671d": 3432,
  "ay": 3433,
  "\u2581Bank": 3434,
  "\u7136": 3435,
  "\u2581n\u00f6tig": 3436,
  "\u2581kennst": 3437,
  "\u2581redest": 3438,
  "\u90fd\u5728": 3439,
  "\u2581Stelle": 3440,
  "\u5979\u4eec": 3441,
  "\u7406\u89e3": 3442,
  "\u8bb8\u591a": 3443,
  "\u2581denkt": 3444,
  "\u2581Politik": 3445,
  "\u521a": 3446,
  "\u771f\u6b63\u7684": 3447,
  "\u8a2d\u5b9a": 3448,
  "\u2581angerufen": 3449,
  "\u2581Ziffer": 3450,
  "\u2581\u7678": 3451,
  "\u8ffd": 3452,
  "\u258115.": 3453,
  "\u9019\u88e1": 3454,
  "\u55ae": 3455,
  "\u8fd9\u4e48\u505a": 3456,
  "ff": 3457,
  "\u2581Herren": 3458,
  "\u54e1": 3459,
  "\u502b": 3460,
  "\u6211\u4e0d\u77e5\u9053": 3461,
  "\u2581T\u00e4tigkeit": 3462,
  "\u2581bringe": 3463,
  "\u2581vorher": 3464,
  "\u2581gro\u00dfer": 3465,
  "\u2581la": 3466,
  "\u2581erhalten": 3467,
  "\u2581vorstellen": 3468,
  "\u2581Tisch": 3469,
  "zeit": 3470,
  "\u7714": 3471,
  "\u2581f\u00fchle": 3472,
  "\u689d": 3473,
  "\u7535\u5f71": 3474,
  "\u2581Rechts": 3475,
  "\u9732": 3476,
  "\u0644": 3477,
  "\u4e00\u5e74": 3478,
  "no": 3479,
  "\u2581ALLAH": 3480,
  "\u2581\u5df2": 3481,
  "\u65e5\u672c": 3482,
  "\u2581\u6211\u73b0\u5728": 3483,
  "\u2581some": 3484,
  "\u2581f\u00fchrt": 3485,
  "\u2581alleine": 3486,
  "45": 3487,
  "\u2581Ebene": 3488,
  "\u2581wert": 3489,
  "\u6cbb": 3490,
  "\u2581Monaten": 3491,
  "\u4fc4\u7f57\u65af": 3492,
  "\u5e08": 3493,
  "\u6b22\u8fce": 3494,
  "\u258140": 3495,
  "\u2581Ho": 3496,
  "\u2581klingt": 3497,
  "\u751f\u547d": 3498,
  "\u2581nachdem": 3499,
  "\u2581Geist": 3500,
  "\u9f13\u52b1": 3501,
  "\u79fb": 3502,
  "\u89c4\u5b9a": 3503,
  "\u2581umbringen": 3504,
  "ling": 3505,
  "\u2581kamen": 3506,
  "\u5fb7\u56fd": 3507,
  "\u6e90": 3508,
  "--": 3509,
  "\u2581Kraft": 3510,
  "\u2581Seiten": 3511,
  "\u2581th": 3512,
  "\u8bc1\u660e": 3513,
  "\u53bb\u627e": 3514,
  "\u2581Immer": 3515,
  "nd": 3516,
  "\u653e\u5728": 3517,
  "\u6d88\u9664": 3518,
  "\u2581glaubt": 3519,
  "\u2581Mord": 3520,
  "\u4e8b\u52a1": 3521,
  "\u2581China": 3522,
  "\u2581Regierungen": 3523,
  "\u2581nachdr\u00fccklich": 3524,
  "\u5168\u90e8": 3525,
  "\u61c2": 3526,
  "Das": 3527,
  "ho": 3528,
  "\u2581manchmal": 3529,
  "\u9aa8": 3530,
  "\u642d": 3531,
  "\u6761\u7ea6": 3532,
  "\u8d27\u5e01": 3533,
  "\u540c\u65f6": 3534,
  "\u258114": 3535,
  "\u4f60\u5728": 3536,
  "mann": 3537,
  "\u2581Herzen": 3538,
  "\u6ce8": 3539,
  "\u7e7c\u7e8c": 3540,
  "\u2581gestorben": 3541,
  "\u5b66\u6821": 3542,
  "\u2581h\u00f6re": 3543,
  "\u2581\u662f\u4e0d\u662f": 3544,
  "\u2581Entschuldigen": 3545,
  "\u5370\u5ea6": 3546,
  "\u5bf9\u8bdd": 3547,
  "\u2581Jo": 3548,
  "\u2581Ruf": 3549,
  "\u2581\u597d\u5417": 3550,
  "\u6b63\u5e38": 3551,
  "\u6a21\u5f0f": 3552,
  "\u7ed3\u679c": 3553,
  "\u9019\u7a2e": 3554,
  "\u2581gesprochen": 3555,
  "\u526f": 3556,
  "\u2581\u807d\u8457": 3557,
  "\u51fa\u4e86": 3558,
  "\u9886\u571f": 3559,
  "\u53cc": 3560,
  "\u53e6\u4e00": 3561,
  "op": 3562,
  "\u8ba2": 3563,
  "\u2581\u5e38": 3564,
  "\u2581tat": 3565,
  "pa": 3566,
  "\u2581Wow": 3567,
  "\u65bd": 3568,
  "\u4eab\u53d7": 3569,
  "\u789e": 3570,
  "\u51cf\u5c11": 3571,
  "\u7d04": 3572,
  "\u2581\u8b1d\u8b1d\u4f60": 3573,
  "\u9ed8": 3574,
  "ptional": 3575,
  "\u258111.": 3576,
  "\u6536\u5230": 3577,
  "\u85a9": 3578,
  "\u627f\u8bfa": 3579,
  "\u2581Verzeihung": 3580,
  "\u62ff\u5230": 3581,
  "\u2581\u9664\u4e86": 3582,
  "\u4e82": 3583,
  "\u6574": 3584,
  "\u2581Einsatz": 3585,
  "\u4ef7": 3586,
  "\u2581Wei\u00df": 3587,
  "\u2581Zug": 3588,
  "=": 3589,
  "\u2581\u4e0d\u597d\u610f\u601d": 3590,
  "\u2581Kontrolle": 3591,
  "\u2581{": 3592,
  "\u2581Ernst": 3593,
  "\u5f20": 3594,
  "\u2581\u4f60\u4e5f": 3595,
  "\u9b54": 3596,
  "\u2581Habt": 3597,
  "\u6761\u4ef6": 3598,
  "\u804c": 3599,
  "\u2581hinaus": 3600,
  "\u2581ex": 3601,
  "\u2581Krankenhaus": 3602,
  "\u5176\u4ed6\u4eba": 3603,
  "\u96e8": 3604,
  "ein": 3605,
  "\u9c81": 3606,
  "\u4e00\u4f4d": 3607,
  "\u5065\u5eb7": 3608,
  "j": 3609,
  "\u2581voller": 3610,
  "\u51cf": 3611,
  "\u65ad": 3612,
  "You": 3613,
  "\u2581benutzt": 3614,
  "\u2581\u5229": 3615,
  "\u4e45": 3616,
  "\u5f3a\u8c03": 3617,
  "\u5f17": 3618,
  "\u2581heiraten": 3619,
  "\u4e3e": 3620,
  "\u6c38\u8fdc": 3621,
  "\u82e6": 3622,
  "\u2581liebt": 3623,
  "\u8d70\u5427": 3624,
  "\u2581Idiot": 3625,
  "\u2581Welche": 3626,
  "\u2581o": 3627,
  "\u2581tr": 3628,
  "\u7a0b\u5f0f": 3629,
  "\u2581Zeug": 3630,
  "\u9876": 3631,
  "\u2581Entwicklungs": 3632,
  "\u756b": 3633,
  "\u2581trotzdem": 3634,
  "\u2581\u6240\u4ee5\u4f60": 3635,
  "\u2581\u6211\u5011\u8981": 3636,
  "\u2581innerhalb": 3637,
  "\u53ef\u80fd\u4f1a": 3638,
  "\u7d50": 3639,
  "\u8c08\u8c08": 3640,
  "\u4f60\u4eec\u7684": 3641,
  "\u2581Situation": 3642,
  "\u4e00\u6761": 3643,
  "\u6e96\u5099": 3644,
  "\u2581\u5404\u4f4d": 3645,
  "\u2581\u8001": 3646,
  "\u6446": 3647,
  "\u7ecf": 3648,
  "\u2581Gefahr": 3649,
  "\u2581besonders": 3650,
  "\u597d\u5427": 3651,
  "\u2581\u8fc7\u6765": 3652,
  "\u6599": 3653,
  "\u7537\u5b69": 3654,
  "\u78b0": 3655,
  "\u2581Auge": 3656,
  "\u2581Beste": 3657,
  "\u7d27": 3658,
  "che": 3659,
  "\u2581Aktion": 3660,
  "\u2581Personal": 3661,
  "\u2581\u4e3b": 3662,
  "\u2581gerettet": 3663,
  "\u2581Hol": 3664,
  "\u2581\u4e26": 3665,
  "\u5728\u6211": 3666,
  "\u2581hasse": 3667,
  "\u5446": 3668,
  "ny": 3669,
  "\u901f": 3670,
  "\u2581\u524d": 3671,
  "\u4e00\u53ea": 3672,
  "\u2581hinten": 3673,
  "pp": 3674,
  "\u2581Sicherheits": 3675,
  "\u2581\u4f60\u89c9\u5f97": 3676,
  "\u2581wartet": 3677,
  "\u96e2": 3678,
  "\u2581versuche": 3679,
  "\u98db": 3680,
  "\u6a21": 3681,
  "\u4e5d": 3682,
  "\u6208": 3683,
  "\u6240\u4ee5": 3684,
  "einkommens": 3685,
  "\u2581offen": 3686,
  "ungs": 3687,
  "\u2581Raus": 3688,
  "\u2581Doktor": 3689,
  "\u2581irgendwo": 3690,
  "\u6563": 3691,
  "\u2581But": 3692,
  "\u5e93": 3693,
  "\u2581Feld": 3694,
  "\u2581\u5b69\u5b50": 3695,
  "\u2581\u592a\u597d\u4e86": 3696,
  "\u4ec0\u9ebd": 3697,
  "ty": 3698,
  "\u2581Partner": 3699,
  "\u2581\u975e\u5e38": 3700,
  "\u2581Rechte": 3701,
  "\u2581se": 3702,
  "\u4e0a\u4e86": 3703,
  "\u2581neues": 3704,
  "\u4f5c\u7528": 3705,
  "\u2581hart": 3706,
  "\u2581FBI": 3707,
  "\u2581Glauben": 3708,
  "\u2581anrufen": 3709,
  "\u5473": 3710,
  "\u2581Co": 3711,
  "\u2581politischen": 3712,
  "\u2581his": 3713,
  "\u2581euer": 3714,
  "\u2581\u6211\u4eec\u5f97": 3715,
  "if": 3716,
  "\u662f\u4ec0\u9ebc": 3717,
  "die": 3718,
  "\u5de5\u5177": 3719,
  "\u7684\u4e00\u5207": 3720,
  "\u2581\u8fd9\u4e0d\u662f": 3721,
  "\u4ed6\u662f": 3722,
  "\u2581aufh\u00f6ren": 3723,
  "\u96f6": 3724,
  "\u2581\u5217": 3725,
  "\u2581\u5982": 3726,
  "\u7206\u70b8": 3727,
  "\u2581did": 3728,
  "\u2581\u90a3\u6211": 3729,
  "\u5360": 3730,
  "\u8db3": 3731,
  "\u9ad8\u7ea7": 3732,
  "\u2581f\u00e4llt": 3733,
  "\u5bb6\u4eba": 3734,
  "\u2581Verstanden": 3735,
  "\u2581Eins": 3736,
  "ren": 3737,
  "\u2581Umsetzung": 3738,
  "\u2581good": 3739,
  "\u2581Behandlung": 3740,
  "\u2581Richtig": 3741,
  "\u9009\u4e3e": 3742,
  "\u2581This": 3743,
  "\u2581bring": 3744,
  "\u8ba9\u6211\u4eec": 3745,
  "les": 3746,
  "\u624d\u662f": 3747,
  "\u2581begr\u00fc\u00dft": 3748,
  "\u2581rede": 3749,
  "\u4e3b\u4e49": 3750,
  "\u4ed6\u5011\u7684": 3751,
  "\u7684\u6240\u6709": 3752,
  "\u8033": 3753,
  "\u9e97": 3754,
  "\u2581Anlage": 3755,
  "\u4e86\u6211": 3756,
  "\u71b1": 3757,
  "\u2581Wird": 3758,
  "\u2581Sonst": 3759,
  "\u2581\u4f60\u600e\u4e48": 3760,
  "\u2581\u4ed6\u8bf4": 3761,
  "\u8003": 3762,
  "\u2581Sekunden": 3763,
  "\u6765\u81ea": 3764,
  "\u6709\u4e00\u4e2a": 3765,
  "\u67b6": 3766,
  "Was": 3767,
  "\u521d": 3768,
  "\u2581Regeln": 3769,
  "\u8c08\u5224": 3770,
  "\u8fd0": 3771,
  "\u6211\u4e5f": 3772,
  "\u2581Ausschusses": 3773,
  "\u2581\u6211\u4e5f\u662f": 3774,
  "\u627f\u8ba4": 3775,
  "\u8584": 3776,
  "\u53ea\u8981": 3777,
  "\u2581bekannt": 3778,
  "\u4f60\u597d": 3779,
  "\u64ca": 3780,
  "\u2581verwenden": 3781,
  "\u6062\u590d": 3782,
  "\u4f60\u77e5\u9053": 3783,
  "\u529e\u6cd5": 3784,
  "\u7684\u6545\u4e8b": 3785,
  "\u258117": 3786,
  "\u81f3\u5c11": 3787,
  "\u6cd5\u5ead": 3788,
  "\u2581k\u00f6nntest": 3789,
  "\u4e4b\u4e00": 3790,
  "\u2581\u6211\u5e0c\u671b": 3791,
  "\u2581\u89aa\u611b\u7684": 3792,
  "\u8173": 3793,
  "\u72c2": 3794,
  "\u2581erreichen": 3795,
  "\u2581stolz": 3796,
  "\u5f37": 3797,
  "\u4eb2\u7231\u7684": 3798,
  "\u2581stellt": 3799,
  "\u2581konnten": 3800,
  "\u2581gewinnen": 3801,
  "\u2581jedoch": 3802,
  "\u2581\u8be5": 3803,
  "\u4f24\u5bb3": 3804,
  "\u2581Fu\u00df": 3805,
  "\u2581Europa": 3806,
  "\u6613": 3807,
  "\u2581genauso": 3808,
  "\u2581Joe": 3809,
  "\u2581Gedanken": 3810,
  "\u2581were": 3811,
  "\u7b49\u7b49": 3812,
  "\u68c0\u67e5": 3813,
  "\u2581Klappe": 3814,
  "\u9748": 3815,
  "\u963b\u6b62": 3816,
  "\u2581Achtung": 3817,
  "\u2581Juli": 3818,
  "\u2581Monat": 3819,
  "\u53d8\u6210": 3820,
  "\u5236\u5ea6": 3821,
  "\u2581\u4ee5\u53ca": 3822,
  "\u7433": 3823,
  "\u2581betreffend": 3824,
  "\u7bb1": 3825,
  "\u2581Charlie": 3826,
  "\u2581Versuch": 3827,
  "\u2581schreiben": 3828,
  "\u70c2": 3829,
  "\u7537": 3830,
  "ft": 3831,
  "liche": 3832,
  "\u2581\u5168": 3833,
  "\u2581\u9019\u4e9b": 3834,
  "\u4fe1\u4efb": 3835,
  "\u89c1\u8fc7": 3836,
  "\u2581\u4f60\u771f": 3837,
  "\u7ff4": 3838,
  "\u9813": 3839,
  "\u610f\u601d": 3840,
  "\u2581lustig": 3841,
  "\u258120.": 3842,
  "\u2581starb": 3843,
  "\u5feb\u70b9": 3844,
  "\u2581n": 3845,
  "\u2581nahm": 3846,
  "\u2581umgebracht": 3847,
  "\u2581verschwinden": 3848,
  "\u7f51": 3849,
  "ice": 3850,
  "\u2581spielt": 3851,
  "\u2581Warten": 3852,
  "\u2581going": 3853,
  "\u2581\u5927\u5bb6\u90fd": 3854,
  "bo": 3855,
  "\u2581El": 3856,
  "\u771f\u6b63": 3857,
  "\u81ea\u7136": 3858,
  "\u2581\u30cd": 3859,
  "\u8bc1": 3860,
  "\u770b\u89c1": 3861,
  "\u7a81\u7136": 3862,
  "\u2581Wiedersehen": 3863,
  "\u56de\u7b54": 3864,
  "\u4f4d\u7f6e": 3865,
  "\u7167\u7247": 3866,
  "\u6cd5\u5b98": 3867,
  "einkommen": 3868,
  "\u2581ma": 3869,
  "\u542c\u5230": 3870,
  "\u5947\u602a": 3871,
  "\u2581Don": 3872,
  "\u2581\u5012": 3873,
  "\u80af": 3874,
  "\u6709\u5f88\u591a": 3875,
  "\u610f\u5916": 3876,
  "\u2581\u56db": 3877,
  "\u7684\u65f6\u95f4": 3878,
  "\u79d1\u5b66": 3879,
  "\u2581Raum": 3880,
  "\u2581Insel": 3881,
  "\u2581\u4f60\u6703": 3882,
  "om": 3883,
  "\u2581fort": 3884,
  "\u2581Zahl": 3885,
  "\u2581\u76f4\u5230": 3886,
  "\u901a\u77e5": 3887,
  "\u2581Amerika": 3888,
  "\u540e\u9762": 3889,
  "\u4e00\u4ef6\u4e8b": 3890,
  "\u6d1e": 3891,
  "80": 3892,
  "\u2581Well": 3893,
  "\u4e0d\u5f97": 3894,
  "\u2581Pro": 3895,
  "\u4e3a\u4f60": 3896,
  "\u2581gef\u00e4hrlich": 3897,
  "\u529f": 3898,
  "\u8bcd": 3899,
  "\u2581N\u00e4he": 3900,
  "\u4f60\u60f3": 3901,
  "\u584a": 3902,
  "\u2581w\u00e4rst": 3903,
  "\u4eae": 3904,
  "\u2581Reise": 3905,
  "\u2581damals": 3906,
  "\u4f4f\u5728": 3907,
  "\u2581Konferenz": 3908,
  "\u4e4b\u5f8c": 3909,
  "\u2581James": 3910,
  "\u2581Entschuldige": 3911,
  "\u4e5f\u6709": 3912,
  "\u2581Seele": 3913,
  "\u51e0\u4e4e": 3914,
  "\u2581Finger": 3915,
  "\u2581jemals": 3916,
  "\u2581Ressourcen": 3917,
  "\u7b2c\u4e00": 3918,
  "\u2581Seht": 3919,
  "\u5efa": 3920,
  "\u534f\u8bae": 3921,
  "Be": 3922,
  "\u66ff": 3923,
  "\u773c\u775b": 3924,
  "\u6211\u6703": 3925,
  "\u91cc\u7684": 3926,
  "\u6536\u5165": 3927,
  "\u2581Hotel": 3928,
  "\u6700\u597d\u7684": 3929,
  "\u5feb\u4e50": 3930,
  "ga": 3931,
  "\u2581i": 3932,
  "\u2581Ob": 3933,
  "\u751f\u4ea7": 3934,
  "we": 3935,
  "\u4e16\u7eaa": 3936,
  "\u739b": 3937,
  "\u2581arbeite": 3938,
  "\u9519\u4e86": 3939,
  "\u2581Dich": 3940,
  "\u2581h\u00f6rte": 3941,
  "\u2581Arm": 3942,
  "\u2581Anwalt": 3943,
  "\u2581\u7c73": 3944,
  "\u2581lesen": 3945,
  "\u2581benutzen": 3946,
  "\u2581k\u00fcmmern": 3947,
  "\u2581bezahlt": 3948,
  "\u2581\u6211\u4eec\u53ef\u4ee5": 3949,
  "\u91cc\u9762": 3950,
  "\u683c\u5f0f": 3951,
  "\u2581Stimme": 3952,
  "\u5373": 3953,
  "\u2581Landes": 3954,
  "\u2581Manchmal": 3955,
  "\u2581Druck": 3956,
  "\u6765\u8fd9\u91cc": 3957,
  "\u90fd\u8981": 3958,
  "\u2581Familien": 3959,
  "\u2581Gericht": 3960,
  "\u75db\u82e6": 3961,
  "\u771f\u76f8": 3962,
  "\u2581\u4e5f\u8a31": 3963,
  "\u2581\u6700": 3964,
  "\u2581Pa": 3965,
  "\u2581geschickt": 3966,
  "\u7ed3\u5a5a": 3967,
  "\u2581\u4e8b": 3968,
  "\u2581geschrieben": 3969,
  "ug": 3970,
  "\u548c\u5979": 3971,
  "tor": 3972,
  "\u2581fliegen": 3973,
  "\u78ba\u662f": 3974,
  "\u9b5a": 3975,
  "\u523a": 3976,
  "\u5e76\u4e14": 3977,
  "The": 3978,
  "\u3050\u6216": 3979,
  "\u9020\u6210": 3980,
  "\u2581\u8fd9\u5c31\u662f": 3981,
  "\u5fd8\u4e86": 3982,
  "\u2581been": 3983,
  "\u975e\u6cd5": 3984,
  "\u2581Super": 3985,
  "\u2581She": 3986,
  "\u2581how": 3987,
  "\u6f02\u4eae": 3988,
  "box": 3989,
  "\u2581Gesetz": 3990,
  "\u60f9": 3991,
  "\u653b\u51fb": 3992,
  "\u65e7": 3993,
  "aus": 3994,
  "\u2581Armee": 3995,
  "\u4e00\u573a": 3996,
  "\u4f11\u606f": 3997,
  "\u5c42": 3998,
  "pi": 3999,
  "\u2581Alex": 4000,
  "\u2581deshalb": 4001,
  "\u2581anzeigen": 4002,
  "\u2581\u66f4": 4003,
  "\u4f55": 4004,
  "\u2581halt": 4005,
  "\u2581\u52a0": 4006,
  "\u2581\u6211\u548c": 4007,
  "\u70ba\u4ec0\u9ebc": 4008,
  "\u6709\u500b": 4009,
  "\u7ecf\u5e38": 4010,
  "lu": 4011,
  "\u57fa\u672c": 4012,
  "\u6570\u636e": 4013,
  "\u2581\u4f60\u77e5\u9053\u6211": 4014,
  "ov": 4015,
  "\u2581f\u00f6rdern": 4016,
  "\u5b8c\u4e86": 4017,
  "\u76f8\u5173": 4018,
  "\u8425": 4019,
  "\u2581Eis": 4020,
  "\u258114.": 4021,
  "2)": 4022,
  "\u555f": 4023,
  "\u8bf4\u8fc7": 4024,
  "\u2581nachhaltig": 4025,
  "format": 4026,
  "sp": 4027,
  "\u2581\u8ba9\u6211\u4eec": 4028,
  "\u4e0d\u9700\u8981": 4029,
  "\u66f4\u52a0": 4030,
  "\u4e0a\u53bb": 4031,
  "\u82f1\u96c4": 4032,
  "\u8f9b": 4033,
  "\u2581besteht": 4034,
  "\u9047\u5230": 4035,
  "\u2581take": 4036,
  "\u518d\u6b21": 4037,
  "\u786c": 4038,
  "kt": 4039,
  "\u2581Nehmen": 4040,
  "\u2581Verbrechen": 4041,
  "\u2581\u00f6ffnen": 4042,
  "\u2581Wohin": 4043,
  "\u2581arbeitet": 4044,
  "\u8f7b": 4045,
  "\u2581Gesellschaft": 4046,
  "\u4eba\u53e3": 4047,
  "\u2581Mich": 4048,
  "\u2581re": 4049,
  "\u2581globale": 4050,
  "LA": 4051,
  "\u7522": 4052,
  "\u2581folgen": 4053,
  "\u521b\u9020": 4054,
  "io": 4055,
  "\u2581Ausdruck": 4056,
  "\u2581sorgen": 4057,
  "\u6ed1": 4058,
  "\u505a\u51fa": 4059,
  "\u2581\u6211\u559c\u6b22": 4060,
  "\u90a3\u8fb9": 4061,
  "\u5967": 4062,
  "\u5df4\u52d2\u65af\u5766": 4063,
  "\u2581Flug": 4064,
  "\u2581\u6211\u60f3\u4f60": 4065,
  "\u5206\u949f": 4066,
  "*": 4067,
  "\u627e\u5230\u4e86": 4068,
  "\u591f": 4069,
  "\u2581ewig": 4070,
  "\u2581\u662f\u55ce": 4071,
  "\u8ce3": 4072,
  "\u5e79": 4073,
  "los": 4074,
  "\u2581Energie": 4075,
  "\u2581\u6ca1\u4e8b": 4076,
  "\u57c3": 4077,
  "\u7e3d": 4078,
  "\u2581My": 4079,
  "\u7a46": 4080,
  "\u2581bitten": 4081,
  "\u7edd": 4082,
  "\u2581]": 4083,
  "\u529b\u91cf": 4084,
  "\u2581Paul": 4085,
  "\u79c1": 4086,
  "\u9810": 4087,
  "\u8822": 4088,
  "wa": 4089,
  "vo": 4090,
  "\u4e00\u4ef6": 4091,
  "ud": 4092,
  "\u4f60\u4f1a": 4093,
  "\u2581\u53f2": 4094,
  "\u806a\u660e": 4095,
  "\u8b80": 4096,
  "\u807d\u5230": 4097,
  "\u2581Minister": 4098,
  "\u2581Bring": 4099,
  "\u6210\u70ba": 4100,
  "\u53d4\u53d4": 4101,
  "\u2581\u653e": 4102,
  "\u6027\u7684": 4103,
  "\u2581aktuelle": 4104,
  "\u2581\u4f0a": 4105,
  "\u2581M\u00f6glichkeit": 4106,
  "\u751f\u7269": 4107,
  "\u9650\u5236": 4108,
  "\u5371\u9669": 4109,
  "\u2581\u90fd\u662f": 4110,
  "\u62b1\u6b49": 4111,
  "\u8d22\u653f": 4112,
  "\u2581Daf\u00fcr": 4113,
  "mon": 4114,
  "\u2581Tor": 4115,
  "\u592a\u591a": 4116,
  "iv": 4117,
  "\u2581\u8b93\u6211": 4118,
  "\u4fe1\u9053": 4119,
  "\u2581\u800c\u6211": 4120,
  "\u89aa": 4121,
  "\u9a6c\u4e0a": 4122,
  "\u90a3\u79cd": 4123,
  "\u4e5f\u4f1a": 4124,
  "\u2581\u4f86\u5427": 4125,
  "\u2581\u5e0c\u671b": 4126,
  "\u547c\u5438": 4127,
  "\u2581x": 4128,
  "\u2581\u6211\u8bf4": 4129,
  "\u2581\u5feb\u8d70": 4130,
  "\u2581m\u00f6gen": 4131,
  "\u4e00\u76f4\u5728": 4132,
  "\u6b66\u88c5": 4133,
  "\u8b49": 4134,
  "\u2581\u5bf9\u5427": 4135,
  "\u56de\u6765\u4e86": 4136,
  "\u5438": 4137,
  "\u4e00\u822c": 4138,
  "\u2581who": 4139,
  "\u2581\u6bcf": 4140,
  "\u2581Karte": 4141,
  "\u2581dahin": 4142,
  "\u2581Gar": 4143,
  "\u9999": 4144,
  "\u2581weder": 4145,
  "\u5728\u9019": 4146,
  "\u61c9": 4147,
  "\u6211\u53ef\u4ee5": 4148,
  "\u770b\u8d77\u6765": 4149,
  "\u7b2c\u4e09": 4150,
  "\u2581\u6211\u5c31\u662f": 4151,
  "\u2581\u6211\u6765": 4152,
  "\u4ee5\u4e3a": 4153,
  "schaft": 4154,
  "\u4e00\u540d": 4155,
  "\u563f": 4156,
  "\u978b": 4157,
  "\u2581\u0435": 4158,
  "\u4fdd\u8b77": 4159,
  "\u2581\u771f\u4e3b": 4160,
  "\u96be\u6c11": 4161,
  "\u2581\u7f85": 4162,
  "\u5e72\u7684": 4163,
  "\u8865": 4164,
  "\u2581behalten": 4165,
  "\u2581halte": 4166,
  "\u2581find": 4167,
  "\u2581schicken": 4168,
  "\u51e0\u4e2a": 4169,
  "\u5e2e\u5fd9": 4170,
  "\u2581Con": 4171,
  "\u7d44": 4172,
  "\u2581Wein": 4173,
  "\u2581Glaubst": 4174,
  "\u5f48": 4175,
  "\u2581ran": 4176,
  "\u6a19": 4177,
  "\u258111": 4178,
  "\u2581\u9084\u662f": 4179,
  "\u662f\u4f60\u7684": 4180,
  "\u8d6b": 4181,
  "\u7ffb": 4182,
  "\u2581H\u00f6he": 4183,
  "\u2581politische": 4184,
  "\u2581\u4e0a\u5e1d": 4185,
  "\u4f60\u81ea\u5df1": 4186,
  "\u677e": 4187,
  "\u2581Park": 4188,
  "\u79c1\u4eba": 4189,
  "\u4e8b\u5b9e": 4190,
  "\u503c\u5f97": 4191,
  "\u66f2": 4192,
  "\u6e29": 4193,
  "\u63a2": 4194,
  "\u8bf4\u660e": 4195,
  "\u8fd8\u8981": 4196,
  "bi": 4197,
  "\u2581\u7d66\u6211": 4198,
  "\u6717": 4199,
  "27": 4200,
  "\u25812004": 4201,
  "\u2581passt": 4202,
  "\u2581\u6211\u89ba\u5f97": 4203,
  "\u90a3\u9ebc": 4204,
  "du": 4205,
  "\u98df\u7269": 4206,
  "\u2581legt": 4207,
  "\u6bd2\u54c1": 4208,
  "\u2581erinnere": 4209,
  "\u5728\u54ea\u513f": 4210,
  "\u56e0\u6b64": 4211,
  "\u2581\u6211\u771f\u7684": 4212,
  "14\\": 4213,
  "keit": 4214,
  "\u2581Sollte": 4215,
  "\u2581Seid": 4216,
  "\u2581f\u00fchlen": 4217,
  "\u2581Ne": 4218,
  "\u70df": 4219,
  "\u8cc7\u6599": 4220,
  "\u9075\u5b88": 4221,
  "\u2581Position": 4222,
  "\u2581erkl\u00e4rt": 4223,
  "\u8bd5": 4224,
  "haus": 4225,
  "\u4e3b\u5e2d": 4226,
  "\u2581Prozent": 4227,
  "\u662f\u4e3a\u4e86": 4228,
  "\u2581Kontakt": 4229,
  "\u7684\u65b0": 4230,
  "\u5c0f\u5b50": 4231,
  "\u5168\u4f53": 4232,
  "\u2581glaub": 4233,
  "\u53cd\u5bf9": 4234,
  "ach": 4235,
  "\u76e1": 4236,
  "\u2581gelesen": 4237,
  "\u4f11": 4238,
  "\u53cb": 4239,
  "hilfe": 4240,
  "\u5728\u9019\u5152": 4241,
  "\u884c\u653f": 4242,
  "cm": 4243,
  "\u25812005": 4244,
  "\u2581Foto": 4245,
  "\u2581Hoffnung": 4246,
  "\u6c49": 4247,
  "\u2581Mandat": 4248,
  "\u2581Vergiss": 4249,
  "\u6539\u8b8a": 4250,
  "\u2581betont": 4251,
  "\u628a\u5979": 4252,
  "\u2581\u901a\u8fc7": 4253,
  "\u2581\u4f60\u8aaa": 4254,
  "\u2581\u544a\u8bc9\u6211": 4255,
  "\u5177\u6709": 4256,
  "\u990a": 4257,
  "\u539f\u5219": 4258,
  "one": 4259,
  "\u2581\u5b83\u4eec": 4260,
  "\u4e0a\u9762": 4261,
  "\u515a": 4262,
  "\u6301\u7eed": 4263,
  "\u66f4\u597d": 4264,
  "70": 4265,
  "\u611f\u89ba": 4266,
  "\u5fc5\u9808": 4267,
  "\u2581Parteien": 4268,
  "\u2581sp": 4269,
  "\u4f60\u53ef\u4ee5": 4270,
  "\u7f3a": 4271,
  "\u957f\u5b98": 4272,
  "\u2581\u5b9d\u8d1d": 4273,
  "min": 4274,
  "\u2581Henry": 4275,
  "\u525b": 4276,
  "\u4ea7": 4277,
  "\u6587\u6863": 4278,
  "28": 4279,
  "\u649e": 4280,
  "\u90fd\u4e0d": 4281,
  "\u2581Risiko": 4282,
  "\u2581\u5f3a\u8c03": 4283,
  "\u732b": 4284,
  "ron": 4285,
  "\u2581Chef": 4286,
  "ies": 4287,
  "\u2581Flugzeug": 4288,
  "\u932f\u8aa4": 4289,
  "\u2581schlimm": 4290,
  "\u2581when": 4291,
  "\u2581\u5728\u6211": 4292,
  "\u65b9\u5411": 4293,
  "\u6839\u672c": 4294,
  "\u2581Augenblick": 4295,
  "\u6781": 4296,
  "\u8d23\u4efb": 4297,
  "\u4f0a\u62c9\u514b": 4298,
  "\u5f88\u96be": 4299,
  "\u258113.": 4300,
  "\u8bf4\u4ec0\u4e48": 4301,
  "\u2581vorsichtig": 4302,
  "\u9e1f": 4303,
  "hi": 4304,
  "\u2581gewonnen": 4305,
  "\u675c": 4306,
  "\u7ea6\u56fd": 4307,
  "\u2581schlimmer": 4308,
  "\u62dc": 4309,
  "\u4e4b\u95f4\u7684": 4310,
  "\u82f1\u56fd": 4311,
  "\u5927\u5b66": 4312,
  "her": 4313,
  "\u2581\u4f60\u5e94\u8be5": 4314,
  "\u52b3": 4315,
  "\u5e94\u5f53": 4316,
  "\u6478": 4317,
  "\u6807\u51c6": 4318,
  "\u4f9d": 4319,
  "\u2581M\u00f6rder": 4320,
  "\u6050\u6016": 4321,
  "\u5211": 4322,
  "\u5982\u679c\u4f60": 4323,
  "\u7528\u4e8e": 4324,
  "gg": 4325,
  "\u2581Bescheid": 4326,
  "\u6253\u7535\u8bdd": 4327,
  "\u5f8b\u5e08": 4328,
  "\u7cd6": 4329,
  "\u2581anfangen": 4330,
  "\u5f88\u68d2": 4331,
  "\u706f": 4332,
  "\u2581\u7d04": 4333,
  "\u7f29": 4334,
  "\u2581\u6bd4\u5982": 4335,
  "\u2581\u77b7": 4336,
  "\u91cd\u5927": 4337,
  "\u2581\u9ad8": 4338,
  "\u2581November": 4339,
  "\u653f": 4340,
  "\u2581Ehre": 4341,
  "\u2581deines": 4342,
  "\u503a\u52a1": 4343,
  "Die": 4344,
  "\u5192": 4345,
  "\u6821": 4346,
  "\u9898": 4347,
  "\u8eb2": 4348,
  "\u2581r\u00fcber": 4349,
  "\u5206\u6790": 4350,
  "\u8df3\u821e": 4351,
  "\u2581\u4f60\u771f\u7684": 4352,
  "\u4e0d\u8fc7": 4353,
  "\u7bc0": 4354,
  "\u9886\u57df": 4355,
  "\u2581Keiner": 4356,
  "\u2581entsprechend": 4357,
  "\u9818": 4358,
  "ken": 4359,
  "\u63a5\u8fd1": 4360,
  "\u7ad9\u5728": 4361,
  "\u2581sicherzustellen": 4362,
  "\u746a": 4363,
  "\u6492": 4364,
  "\u97f3\u4e50": 4365,
  "\u2581\u800c\u4f60": 4366,
  "\u626f": 4367,
  "\u771f\u597d": 4368,
  "gt": 4369,
  "\u4e00\u9879": 4370,
  "\u2581Hunger": 4371,
  "\u5927\u4eba": 4372,
  "\u2581verdammte": 4373,
  "\u2581dagegen": 4374,
  "\u52a1": 4375,
  "\u2581bezahlen": 4376,
  "\u2581Dem": 4377,
  "\u2581klein": 4378,
  "\u2581Verf\u00fcgung": 4379,
  "\u2581verkaufen": 4380,
  "\u4e00\u5bb6": 4381,
  "\u2581anderem": 4382,
  "\u2581pre": 4383,
  "\u2581st\u00e4ndig": 4384,
  "\u623f\u95f4": 4385,
  "\u7ea6\u7ff0": 4386,
  "\u2581Aufgabe": 4387,
  "\u7cfb\u7d71": 4388,
  "\u2581Einer": 4389,
  "\u2581Empfehlungen": 4390,
  "31": 4391,
  "\u5167\u5bb9": 4392,
  "\u5e6b\u52a9": 4393,
  "$": 4394,
  "\u2581Hochzeit": 4395,
  "\u55ef": 4396,
  "\u66fe\u7ecf": 4397,
  "able": 4398,
  "\u5f71": 4399,
  "\u2581Bob": 4400,
  "\u2581neben": 4401,
  "\u504f": 4402,
  "za": 4403,
  "\u2581pl\u00f6tzlich": 4404,
  "\u2581rechts": 4405,
  "\u2581Handy": 4406,
  "\u822a": 4407,
  "An": 4408,
  "29": 4409,
  "\u2581Dienst": 4410,
  "\u2581Erst": 4411,
  "\u2581\u6d77": 4412,
  "\u2581tats\u00e4chlich": 4413,
  "\u2581Brief": 4414,
  "\u2581ta": 4415,
  "\u2581Jim": 4416,
  "\u2581sch\u00fctzen": 4417,
  "\u516c\u5171": 4418,
  "\u5bb9\u6613": 4419,
  "\u5728\u90a3": 4420,
  "\u7ef4\u6301\u548c\u5e73": 4421,
  "\u81f4": 4422,
  "\u9ea6": 4423,
  "ding": 4424,
  "\u2581Form": 4425,
  "\u2581links": 4426,
  "\u4ee5\u8272\u5217": 4427,
  "\u58de": 4428,
  "\u2581Vorsicht": 4429,
  "\u529e\u516c\u5ba4": 4430,
  "\u6b32": 4431,
  "ang": 4432,
  "\u00fcr": 4433,
  "\u82ac": 4434,
  "\u2581Liebling": 4435,
  "\u2581\u56de": 4436,
  "\u5f31": 4437,
  "\u2581Schritt": 4438,
  "\u2581Erfolg": 4439,
  "\u8d76": 4440,
  "\u2581down": 4441,
  "\u5f88\u91cd\u8981": 4442,
  "\u8fd9\u4ef6\u4e8b": 4443,
  "\u5404\u79cd": 4444,
  "by": 4445,
  "26": 4446,
  "\u5c45": 4447,
  "\u2581Klasse": 4448,
  "\u552f\u4e00\u7684": 4449,
  "\u7a0e": 4450,
  "\u4e0d\u559c\u6b22": 4451,
  "\u5766": 4452,
  "\u51b3": 4453,
  "\u5e2e\u4f60": 4454,
  "rt": 4455,
  "\u2581\u6211\u53ea\u662f\u60f3": 4456,
  "\u9053\u6b49": 4457,
  "\u2581\u5144\u5f1f": 4458,
  "ac": 4459,
  "ST": 4460,
  "\u2581Wald": 4461,
  "\u5c31\u597d": 4462,
  "\u6b78": 4463,
  "\u5c0d\u6211": 4464,
  "our": 4465,
  "\u2581Wen": 4466,
  "\u672b": 4467,
  "\u2581niemanden": 4468,
  "\u2581\u96f7": 4469,
  "\u5410": 4470,
  "\u3107": 4471,
  "Er": 4472,
  "\u2581Region": 4473,
  "tin": 4474,
  "ven": 4475,
  "\u2581geh\u00f6ren": 4476,
  "\u2581\u3106": 4477,
  "\u6ca1\u4e8b": 4478,
  "\u8bad\u7ec3": 4479,
  "ity": 4480,
  "\u5baa": 4481,
  "\u2581Ta": 4482,
  "\u2581rufe": 4483,
  "\u5f35": 4484,
  "\u8fd9\u4e48\u8bf4": 4485,
  "\u2581\u56e0\u4e3a\u4f60": 4486,
  "\u8cfd": 4487,
  "\u6311": 4488,
  "\u2581(\"": 4489,
  "\u2581Bier": 4490,
  "\u2581verheiratet": 4491,
  "\u2581kriegt": 4492,
  "\u2581translat": 4493,
  "\u7d2f": 4494,
  "\u2581leider": 4495,
  "\u2581Me": 4496,
  "\u2581Rede": 4497,
  "\u8131": 4498,
  "\u2581\u00c4rger": 4499,
  "\u2581\u6211\u5f88\u62b1\u6b49": 4500,
  "\u73b0": 4501,
  "\u866b": 4502,
  "\u2581Computer": 4503,
  "\u2581\u4e00\u5207": 4504,
  "\u6b0a": 4505,
  "\u2581\u6ca1\u5173\u7cfb": 4506,
  "\u4e0d\u4fe1": 4507,
  "\u5c9b": 4508,
  "\u653e\u5f03": 4509,
  "\u258124": 4510,
  "\u2581Riesen": 4511,
  "\u72ec\u7acb": 4512,
  "\u5728\u4e4e": 4513,
  "\u5eab": 4514,
  "lie": 4515,
  "\u2581\u6b63": 4516,
  "\u9805": 4517,
  "ou": 4518,
  "\u53bb\u5427": 4519,
  "\u6302": 4520,
  "\u7684\u7537\u4eba": 4521,
  "\u89c2": 4522,
  "\u5bcc": 4523,
  "\u5e6b\u4f60": 4524,
  "\u2581alter": 4525,
  "\u4f60\u5c31": 4526,
  "\u5a5a": 4527,
  "\u2581rufen": 4528,
  "\u5f00\u67aa": 4529,
  "\u2581Bereich": 4530,
  "\u4e0d\u932f": 4531,
  "\u30f6": 4532,
  "\u7834\u574f": 4533,
  "\u2581\u7522": 4534,
  "\u5f7c\u6b64": 4535,
  "\u2581sch": 4536,
  "\u6b27\u5143": 4537,
  "\u2581\u5df2\u7ecf": 4538,
  "\u63d0\u4ea4": 4539,
  "\u9632\u6b62": 4540,
  "Add": 4541,
  "\u8a8d\u8b58": 4542,
  "\u653e\u4e0b": 4543,
  "\u2581kalt": 4544,
  "\u5c0f\u7ec4": 4545,
  "\u77e5\u9053\u4f60": 4546,
  "Ver": 4547,
  "\u8fd9\u6b21": 4548,
  "\u9002\u5f53": 4549,
  "\u2581\u867d\u7136": 4550,
  "\u2581\u958b": 4551,
  "\u2581unm\u00f6glich": 4552,
  "\u2581Handels": 4553,
  "\u2581\u7ee7\u7eed": 4554,
  "\u63d2": 4555,
  "\u2581sch\u00e4tze": 4556,
  "\u2581\u5173\u4e8e": 4557,
  "\u2581eigene": 4558,
  "\u7684\u80fd\u529b": 4559,
  "\u7e3d\u662f": 4560,
  "Re": 4561,
  "\u258160": 4562,
  "\u4e0d\u53bb": 4563,
  "\u2581\u56e0\u70ba\u6211": 4564,
  "\u6eff": 4565,
  "\u8377": 4566,
  "\u5c4b": 4567,
  "\u70b8": 4568,
  "\u78ba": 4569,
  "\u82f1": 4570,
  "\u7f8a": 4571,
  "\u8fd9\u513f": 4572,
  "\u5c5e": 4573,
  "\u2581Fortschritte": 4574,
  "\u2581Zugang": 4575,
  "\u2581\u597d\u50cf": 4576,
  "\u89c4\u5219": 4577,
  "\u2581frage": 4578,
  "\u2581\u9a6c": 4579,
  "\u70e6": 4580,
  "\u2581Wunder": 4581,
  "\u2581\u6216\u8bb8": 4582,
  "\u6d88": 4583,
  "\u8868\u6f14": 4584,
  "\u5f53\u65f6": 4585,
  "\u2581Freiheit": 4586,
  "\u9762\u5bf9": 4587,
  "\u5e74\u524d": 4588,
  "\u2581had": 4589,
  "\u2581Au\u00dferdem": 4590,
  "\u6cd5\u56fd": 4591,
  "\u2581Bereit": 4592,
  "\u2581Fi": 4593,
  "\u642c": 4594,
  "\u7684\u540d\u5b57": 4595,
  "\u2581vertrauen": 4596,
  "\u5954": 4597,
  "\u7167\u987e": 4598,
  "ary": 4599,
  "\u2581Geburtstag": 4600,
  "\u2581\u7121": 4601,
  "\u2581Fleisch": 4602,
  "\u65af\u5766": 4603,
  "\u2581leisten": 4604,
  "\u2581probably": 4605,
  "\u7db4": 4606,
  "\u8138": 4607,
  "\u5217\u8868": 4608,
  "\u857e": 4609,
  "\u2581Schlaf": 4610,
  "art": 4611,
  "\u2581tief": 4612,
  "\u5f00\u5c55": 4613,
  "\u6240\u6709\u4eba": 4614,
  "\u2581entfernt": 4615,
  "isierung": 4616,
  "\u2581zer": 4617,
  "\u4e39": 4618,
  "\u2581Protokoll": 4619,
  "undf\u00fcnfzig": 4620,
  "\u2581\u89c1": 4621,
  "\u2581erforderlich": 4622,
  "\u2581legen": 4623,
  "\u2581\u4f7f\u7528": 4624,
  "\u4ec0": 4625,
  "\u2581\u6211\u8981\u4f60": 4626,
  "\u4e13": 4627,
  "\u4f69": 4628,
  "\u57fa\u5730": 4629,
  "\u4f34": 4630,
  "\u6212": 4631,
  "ende": 4632,
  "men": 4633,
  "\u2581Wegen": 4634,
  "\u54ea\u91cc": 4635,
  "bu": 4636,
  "\u4e5f\u53ef\u4ee5": 4637,
  "\u903c": 4638,
  "\u2581Kommission": 4639,
  "\u2581richtige": 4640,
  "\u2581\u4ed6\u4f1a": 4641,
  "\u2581Gefallen": 4642,
  "\u2581tell": 4643,
  "1}": 4644,
  "\u6846\u67b6": 4645,
  "...\"": 4646,
  "\u258125": 4647,
  "\u2581Egal": 4648,
  "\u7075": 4649,
  "\u2581jemandem": 4650,
  "\u2581hole": 4651,
  "\u2581Haushalts": 4652,
  "\u72b6\u51b5": 4653,
  "\u7f8e\u570b": 4654,
  "ht": 4655,
  "\u5706": 4656,
  "\u970d": 4657,
  "\u258118.": 4658,
  "\u60c5\u6cc1": 4659,
  "\u6298": 4660,
  "\u673a\u5236": 4661,
  "\u2581weiteren": 4662,
  "\u2581unterwegs": 4663,
  "lin": 4664,
  "\u8fd8\u80fd": 4665,
  "\u2581Halte": 4666,
  "\u4e00\u5b9a\u8981": 4667,
  "mit": 4668,
  "\u53e5": 4669,
  "\u70ae": 4670,
  "\u8abf": 4671,
  "\u6d88\u5931": 4672,
  "\u907f\u514d": 4673,
  "ben": 4674,
  "\u2581n\u00e4mlich": 4675,
  "\u8f6e": 4676,
  "\u9009\u9879": 4677,
  "\u54ac": 4678,
  "\u6c34\u5e73": 4679,
  "\u2581\u4f60\u73b0\u5728": 4680,
  "\u2581Ray": 4681,
  "\u786e\u8ba4": 4682,
  "\u8bf4\u4e86": 4683,
  "\u2581\u7238": 4684,
  "\u4f0a\u6717": 4685,
  "\u8fa6": 4686,
  "\u60f3\u5230": 4687,
  "\u2581Ziele": 4688,
  "\u2581our": 4689,
  "\u6469": 4690,
  "\u2581super": 4691,
  "\u5e2b": 4692,
  "\u60f3\u77e5\u9053": 4693,
  "\u9884\u9632": 4694,
  "\u72fc": 4695,
  "\u2581\u4e00\u5207\u90fd": 4696,
  "\u6307\u51fa": 4697,
  "\u2581Witz": 4698,
  "\u7236": 4699,
  "\u5f00\u8f66": 4700,
  "\u5141\u8bb8": 4701,
  "\u751f\u610f": 4702,
  "\u258117.": 4703,
  "\u4e5f\u6ca1\u6709": 4704,
  "\u258116.": 4705,
  "\u4e3b\u610f": 4706,
  "\u2581steckt": 4707,
  "\u2581\u6700\u540e": 4708,
  "\u76d8": 4709,
  "/3": 4710,
  "\u8bc1\u636e": 4711,
  "ER": 4712,
  "\u2581schneller": 4713,
  "\u2581Lauf": 4714,
  "\u2581Mary": 4715,
  "\u2581Personen": 4716,
  "\u4e13\u5bb6": 4717,
  "\u8b1d\u8b1d": 4718,
  "\u8b66\u544a": 4719,
  "\u2581komisch": 4720,
  "\u2581darfst": 4721,
  "\u2581\u500b": 4722,
  "000": 4723,
  "\u00f3": 4724,
  "\u5fd8": 4725,
  "\u2581Dan": 4726,
  "\u76ee\u7684": 4727,
  "\u2581could": 4728,
  "\u2581\u898b": 4729,
  "\u5594": 4730,
  "\u2581\u6211\u4eec\u7684": 4731,
  "\u5c0f\u5fc3": 4732,
  "\u51fa\u751f": 4733,
  "\u67cf": 4734,
  "\u2581b\u00f6se": 4735,
  "ris": 4736,
  "\u2581Tat": 4737,
  "\u2581Prozess": 4738,
  "\u5e26\u6765": 4739,
  "\u258116": 4740,
  "\u2581suche": 4741,
  "\u697c": 4742,
  "\u2581\u6211\u60f3\u6211": 4743,
  "\u4e0d\u65ad": 4744,
  "\u2581Tony": 4745,
  "\u2581gestohlen": 4746,
  "\u8c56": 4747,
  "\u56fd\u5185": 4748,
  "\u98ce\u9669": 4749,
  "\u2581Ka": 4750,
  "\u2581hilft": 4751,
  "\u2581Jesus": 4752,
  "\u2581Wind": 4753,
  "\u8ba8\u538c": 4754,
  "\u76d1\u7763": 4755,
  "He": 4756,
  "ip": 4757,
  "\u519b\u4e8b": 4758,
  "\u5a4a\u5b50": 4759,
  "\u2581\u6211\u4eec\u662f": 4760,
  "\u5783\u573e": 4761,
  "\u5e74\u4ee3": 4762,
  "\u2581Sonne": 4763,
  "\u6851": 4764,
  "Du": 4765,
  "\u5802": 4766,
  "\u2581hey": 4767,
  "\u644a": 4768,
  "\u2581geboren": 4769,
  "\u5de6": 4770,
  "\u600e\u9ebc\u6a23": 4771,
  "\u2581Bem\u00fchungen": 4772,
  "\u2581Echt": 4773,
  "\u2581Boot": 4774,
  "\u65c5\u884c": 4775,
  "ence": 4776,
  "\u2581bekommt": 4777,
  "\u2581sitzt": 4778,
  "\u8a2d": 4779,
  "\u2581Sekunde": 4780,
  "\u53f8": 4781,
  "\u6253\u51fb": 4782,
  "\u0645": 4783,
  "\u2581Ra": 4784,
  "\u2581\u6770\u514b": 4785,
  "\u2581Finde": 4786,
  "\u2581bewegen": 4787,
  "\u6838\u6b66\u5668": 4788,
  "\u6d77\u6d0b": 4789,
  "Nein": 4790,
  "uck": 4791,
  "\u2581Bedeutung": 4792,
  "\u2581\u4f60\u548c": 4793,
  "\u2581perfekt": 4794,
  "\u5341\u5206": 4795,
  "\u7c89": 4796,
  "\u2581Ca": 4797,
  "\u5821": 4798,
  "\u5c0d\u4f60": 4799,
  "\u8d95": 4800,
  "\u5956": 4801,
  "ischen": 4802,
  "\u7262": 4803,
  "ance": 4804,
  "\u2581Zeiten": 4805,
  "\u2581zeigt": 4806,
  "\u2581\u8be5\u6b7b": 4807,
  "\u300c": 4808,
  "\u5bb6\u91cc": 4809,
  "mi": 4810,
  "\u2581Mi": 4811,
  "\u2581ansehen": 4812,
  "\u2581R\u00fccken": 4813,
  "\u2581m\u00fcsst": 4814,
  "\u2581\u751a\u81f3": 4815,
  "\u7c7b": 4816,
  "\u2581Ordner": 4817,
  "Wir": 4818,
  "\u2581\u9996\u5148": 4819,
  "\u5fc3\u7406": 4820,
  "\u9080\u8bf7": 4821,
  "\u6bd4\u8d5b": 4822,
  "\u5185\u90e8": 4823,
  "\u5c65\u884c": 4824,
  "\u2581Eigentlich": 4825,
  "\u2581\u5982\u679c\u4ed6": 4826,
  "\u5b9d\u8d1d": 4827,
  "\u2581werd": 4828,
  "\u2581\u57c3": 4829,
  "\u2581\u90a3\u9ebc": 4830,
  "\u2581\u00c4h": 4831,
  "\u9762\u524d": 4832,
  "\u884c\u52d5": 4833,
  "use": 4834,
  "\u2581Milit\u00e4r": 4835,
  "\u6311\u6218": 4836,
  "\u8ca8": 4837,
  "\u90fd\u6ca1\u6709": 4838,
  "\u773e": 4839,
  "\u8fd0\u52a8": 4840,
  "put": 4841,
  "\u2581dumm": 4842,
  "\u2581\u9760": 4843,
  "\u6000\u7591": 4844,
  "\u8d85\u8fc7": 4845,
  "\u2581Geschenk": 4846,
  "\u2581Bill": 4847,
  "\u2581To": 4848,
  "\u6c89": 4849,
  "\u6cf0": 4850,
  "\u7406\u7531": 4851,
  "\u2581Ausschuss": 4852,
  "\u2581Dean": 4853,
  "\u2581Feind": 4854,
  "\u2581L\u00f6sung": 4855,
  "\u2581\u6211\u4eec\u5728": 4856,
  "\u5931\u8d25": 4857,
  "ps": 4858,
  "\u2581Setz": 4859,
  "\u62b1": 4860,
  "\u9f50": 4861,
  "\u2581Dort": 4862,
  "\u7981\u6b62": 4863,
  "\u2581Geb\u00e4ude": 4864,
  "\u2581Red": 4865,
  "\u770b\u5230\u4e86": 4866,
  "\u2581Republik": 4867,
  "jo": 4868,
  "\u2581w\u00fcnschte": 4869,
  "\u2581\u57fa": 4870,
  "\u547c\u5401": 4871,
  "\u6211\u80fd": 4872,
  "\u7cfb": 4873,
  "\u840a": 4874,
  "\u672a\u6765": 4875,
  "\u786e\u5b9e": 4876,
  "\u2581Anruf": 4877,
  "\u2581n\u00e4her": 4878,
  "\u2581Vi": 4879,
  "\u79d8\u4e66": 4880,
  "\u2581Weile": 4881,
  "\u6210\u4e86": 4882,
  "\u6bba\u4e86": 4883,
  "zen": 4884,
  "\u2581heim": 4885,
  "\u8655\u7406": 4886,
  "\u2581Ar": 4887,
  "\u2581Minute": 4888,
  "\u2581besorgt": 4889,
  "\u2581\u7ed9": 4890,
  "\u2581schie\u00dfen": 4891,
  "\u559c": 4892,
  "\u2581way": 4893,
  "\u2581Sheldon": 4894,
  "+": 4895,
  "hu": 4896,
  "\u2581has": 4897,
  "vi": 4898,
  "\u51fa\u53e3": 4899,
  "\u2581more": 4900,
  "\u2581\u5c31\u5728": 4901,
  "feld": 4902,
  "\u2581Interesse": 4903,
  "\u2581hol": 4904,
  "\u5e78\u798f": 4905,
  "\u805a": 4906,
  "\u5385": 4907,
  "\u538b": 4908,
  "\u591a\u4e86": 4909,
  "\u62d2\u7edd": 4910,
  "\u258122.": 4911,
  "\u5341\u5e74": 4912,
  "\u6597": 4913,
  "\u2581Systems": 4914,
  "\u2581Schulden": 4915,
  "\u6d3e\u5bf9": 4916,
  "\u732a": 4917,
  "\u5f53\u524d": 4918,
  "\u7684\u4e16\u754c": 4919,
  "org": 4920,
  "\u5c01": 4921,
  "\u8111": 4922,
  "\u9019\u4e48": 4923,
  "\u5bfc": 4924,
  "\u8cbb": 4925,
  "\u2581Einstellung": 4926,
  "\u2581Meer": 4927,
  "\u5e26\u7740": 4928,
  "\u2581Standard": 4929,
  "\u2581Ed": 4930,
  "ai": 4931,
  "\u2581\u6709\u4ec0\u4e48": 4932,
  "\u6570\u5b57": 4933,
  "so": 4934,
  "\u80fd\u6e90": 4935,
  "\u25812006": 4936,
  "\u2581Th": 4937,
  "\u2581ans": 4938,
  "\u2581miteinander": 4939,
  "\u62f3": 4940,
  "\u6bd4\u8f83": 4941,
  "\u2581einschl\u00e4gig": 4942,
  "\u56e0\u70ba": 4943,
  "\u2581Denk": 4944,
  "\u2581Unfall": 4945,
  "\u2581Lo": 4946,
  "\u2581F\u00fcnf": 4947,
  "\u4f60\u5011\u7684": 4948,
  "rat": 4949,
  "\u2581ver\u00e4ndert": 4950,
  "\u4e0d\u8be5": 4951,
  "\u2581\u6211\u4e0d\u6703": 4952,
  "qui": 4953,
  "\u5a18": 4954,
  "\u2581Tee": 4955,
  "\u559d\u9152": 4956,
  "\u2581Verantwortung": 4957,
  "\u2581verantwortlich": 4958,
  "\u2581\u6211\u53ea\u60f3": 4959,
  "\u5bf9\u5427": 4960,
  "\u8d62": 4961,
  "\u2581say": 4962,
  "\u2581\u57ce": 4963,
  "\u5176\u5b83": 4964,
  "\u5236\u5b9a": 4965,
  "\u6076": 4966,
  "\u2581Gleich": 4967,
  "\u2581should": 4968,
  "\u5b83\u7684": 4969,
  "\u7070": 4970,
  "ock": 4971,
  "\u6770\u514b": 4972,
  "\u696d": 4973,
  "\u5c41": 4974,
  "ish": 4975,
  "iz": 4976,
  "\u5404\u4f4d": 4977,
  "\u2581neuer": 4978,
  "\u75c7": 4979,
  "\u627e\u4f60": 4980,
  "\u2581wirksame": 4981,
  "\u5169\u500b": 4982,
  "\u5be6": 4983,
  "\u5173\u6ce8": 4984,
  "IN": 4985,
  "\u6839\u672c\u4e0d": 4986,
  "\u5922": 4987,
  "\u7206": 4988,
  "\")": 4989,
  "\u2581su": 4990,
  "\u2581bittet": 4991,
  "\u8d1f": 4992,
  "\u2581\u99ac": 4993,
  "\u2581unbedingt": 4994,
  "\u5728\u4f60": 4995,
  "\u5f02": 4996,
  "\u7eb8": 4997,
  "\u9152\u5427": 4998,
  "\u9ebb": 4999,
  "\u7ed9\u6211\u4eec": 5000,
  "\u2581Li": 5001,
  "\u5927\u5c0f": 5002,
  "\u6709\u6240": 5003,
  "\u9f20": 5004,
  "\u2581gelernt": 5005,
  "\u4e4b\u4e2d": 5006,
  "\u2581\u5176\u5b9e": 5007,
  "\u513f\u5b50": 5008,
  "\u2581Besuch": 5009,
  "\u7d93": 5010,
  "\u2581versprochen": 5011,
  "ran": 5012,
  "\u60e1": 5013,
  "\u590d": 5014,
  "\u2581Lady": 5015,
  "\u2581\u5341": 5016,
  "\u8ba9\u4eba": 5017,
  "\u7684\u60c5\u51b5": 5018,
  "\u2581Ehe": 5019,
  "\u52a8\u7269": 5020,
  "\u60f3\u8c61": 5021,
  "\u662f\u5427": 5022,
  "\u7701": 5023,
  "\u2581Adresse": 5024,
  "mar": 5025,
  "3)": 5026,
  "\u2581didn": 5027,
  "\u2581Symbol": 5028,
  "\u2581erwischt": 5029,
  "/4": 5030,
  "\u00e1": 5031,
  "Sch": 5032,
  "\u7ef4\u6301": 5033,
  "\u2581\u4f19\u8ba1": 5034,
  "\u6740\u4eba": 5035,
  "\u5403\u4e86": 5036,
  "\u2581Kosten": 5037,
  "\u2581per": 5038,
  "\u5411\u4f60": 5039,
  "\u5b63": 5040,
  "\u2581Vaters": 5041,
  "\u7d66\u4ed6": 5042,
  "100": 5043,
  "\u2581Damen": 5044,
  "\u2581erledigt": 5045,
  "\u8bfe": 5046,
  "sel": 5047,
  "\u5bf9\u4e0d\u8d77": 5048,
  "\u7528\u7684": 5049,
  "\u4f60\u80fd": 5050,
  "\u5236\u9020": 5051,
  "\u8a08\u5283": 5052,
  "\u2581Hoch": 5053,
  "\u2581Stellen": 5054,
  "\u2581\u6211\u6c92": 5055,
  "\u5730\u5740": 5056,
  "\u2581Gruppen": 5057,
  "ek": 5058,
  "lichkeit": 5059,
  "\u2581Verpflichtungen": 5060,
  "\u968f": 5061,
  "\u7b14": 5062,
  "\u8eab\u4efd": 5063,
  "\u00f6r": 5064,
  "\u4ed6\u5abd\u7684": 5065,
  "\u662f\u5417": 5066,
  "\u2581nennt": 5067,
  "\u2581Tasche": 5068,
  "\u2581sieh": 5069,
  "\u2581Ihm": 5070,
  "\u2581H\u00e4tte": 5071,
  "\u2581verstehst": 5072,
  "\u2581\u6c34": 5073,
  "\u89c1\u5230": 5074,
  "\u2581Auswirkungen": 5075,
  "\u4e00\u81f4": 5076,
  "the": 5077,
  "\u5c0e": 5078,
  "\u600e\u4e48\u8bf4": 5079,
  "\u8bf7\u6c42": 5080,
  "\u7b54\u6848": 5081,
  "\u9b6f": 5082,
  "\u2581Kon": 5083,
  "\u2581verkauft": 5084,
  "\u2581Ted": 5085,
  "\u6548": 5086,
  "\u2581\u6ca1\u4ec0\u4e48": 5087,
  "\u94c1": 5088,
  "\u2581laut": 5089,
  "\u2581hei\u00dfe": 5090,
  "\u4f01\u4e1a": 5091,
  "\u56fd\u738b": 5092,
  "\u8bb0\u5f97": 5093,
  "\u2581Firma": 5094,
  "\u9ed1\u6697": 5095,
  "sicherungs": 5096,
  "\u2581schlagen": 5097,
  "\u5bfc\u81f4": 5098,
  "\u2581kaputt": 5099,
  "\u2581\u76f8\u4fe1\u6211": 5100,
  "\u5efa\u8bbe": 5101,
  "\u2581Leonard": 5102,
  "\u5730\u7403": 5103,
  "\u2581Po": 5104,
  "\u66f4\u591a\u7684": 5105,
  "\u2581\u6cd5": 5106,
  "\u5920": 5107,
  "systems": 5108,
  "\u2581\u6216\u662f": 5109,
  "\u62d4": 5110,
  "\u59d1\u5a18": 5111,
  "\u2581H\u00e4lfte": 5112,
  "\u64e6": 5113,
  "\u67d0\u4e9b": 5114,
  "\u7ea6\u4f1a": 5115,
  "\u5362": 5116,
  "\u258123.": 5117,
  "\u2581Lu": 5118,
  "\u2581\u00e4h": 5119,
  "\u062a": 5120,
  "\u6545": 5121,
  "\u4e09\u4e2a": 5122,
  "\u2581neun": 5123,
  "\u74dc": 5124,
  "\u9650": 5125,
  "De": 5126,
  "\u2581Einzige": 5127,
  "\u2581San": 5128,
  "\u65e5\u671f": 5129,
  "\u2581September": 5130,
  "\u2581Sun": 5131,
  "\u5173\u5207": 5132,
  "35": 5133,
  "\u558a": 5134,
  "\u56fd\u5bb6\u7684": 5135,
  "\u7b7e": 5136,
  "ismus": 5137,
  "\u4e0d\u61c2": 5138,
  "\u2581\u75f7": 5139,
  "\u7576\u7136": 5140,
  "\u9879": 5141,
  "\u65e9\u5c31": 5142,
  "\u516c\u4e3b": 5143,
  "\u2581Paris": 5144,
  "\u2581Ko": 5145,
  "\u5c31\u5728": 5146,
  "\u2581gib": 5147,
  "\u9644\u8fd1": 5148,
  "\u2581sch\u00f6ne": 5149,
  "\u2581\u5c3d\u7ba1": 5150,
  "\u75af\u4e86": 5151,
  "del": 5152,
  "\u2581\u4e4b": 5153,
  "\u5eb7": 5154,
  "\u2581gutes": 5155,
  "\u2581How": 5156,
  "\u53d8\u5f97": 5157,
  "\u544a\u8a34": 5158,
  "\u2581erreicht": 5159,
  "\u2581Leiche": 5160,
  "\u2581\u4e94": 5161,
  "\u2581Fahr": 5162,
  "\u6316": 5163,
  "ev": 5164,
  "\u00e0": 5165,
  "\u2581Beziehung": 5166,
  "\u2581Projekt": 5167,
  "\u2581\u91d1": 5168,
  "\u2581Vier": 5169,
  "\u2581Kleine": 5170,
  "\u957f\u671f": 5171,
  "\u2581old": 5172,
  "\u731c": 5173,
  "\u7591": 5174,
  "\u2581lieb": 5175,
  "\u5c3e": 5176,
  "\u2581\u0440": 5177,
  "\u7684\u4efb\u52a1": 5178,
  "\u2581Richter": 5179,
  "\u4ec0\u4e48\u4e8b": 5180,
  "\u2581hei\u00df": 5181,
  "\u7684\u5927": 5182,
  "\u8003\u8651\u5230": 5183,
  "\u2581something": 5184,
  "\u5f88\u5feb": 5185,
  "\u8fdb\u5c55": 5186,
  "\u6975": 5187,
  "\u9501": 5188,
  "ney": 5189,
  "system": 5190,
  "\u6211\u81ea\u5df1": 5191,
  "\u62ef\u6551": 5192,
  "\u2581erkennen": 5193,
  "\u8ddf\u5979": 5194,
  "\u533b\u9662": 5195,
  "\u2581Pe": 5196,
  "\u9084\u6c92": 5197,
  "\u7559\u5728": 5198,
  "\u800c\u8a00": 5199,
  "\u8868\u660e": 5200,
  "\u2581Jane": 5201,
  "\u64cd": 5202,
  "\u9f9f": 5203,
  "\u6068": 5204,
  "\u9ebb\u7169": 5205,
  "\u7236\u6bcd": 5206,
  "\u8bd5\u56fe": 5207,
  "\u258119.": 5208,
  "\u2581s\u00fc\u00df": 5209,
  "\u6b20": 5210,
  "\u2581besch\u00fctzen": 5211,
  "\u2581\u64cd": 5212,
  "ham": 5213,
  "\u4e0d\u7ba1": 5214,
  "\u53c2": 5215,
  "\u6751": 5216,
  "61": 5217,
  "\u6bcd\u4eb2": 5218,
  "\u8bf4\u4f60": 5219,
  "fragen": 5220,
  "\u5de5\u4f5c\u4eba\u5458": 5221,
  "\u6c92\u4e8b": 5222,
  "\u7f72": 5223,
  "\u00fcber": 5224,
  "\u9ad8\u5174": 5225,
  "\u2581m\u00fcsste": 5226,
  "\u2581Blick": 5227,
  "\u2581\u4f60\u77e5\u9053\u5417": 5228,
  "\u5b97\u6559": 5229,
  "\u770b\u5230\u4f60": 5230,
  "\u77e5\u9053\u6211": 5231,
  "\u2581Chart": 5232,
  "\u2581solange": 5233,
  "\u6709\u6ca1\u6709": 5234,
  "\u2581Vergangenheit": 5235,
  "\u258130.": 5236,
  "\u2581M\u00f6chten": 5237,
  "\u2581Tun": 5238,
  "\u8d28": 5239,
  "\u2581e": 5240,
  "\u2581ge\u00e4ndert": 5241,
  "\u2581\u95ed\u5634": 5242,
  "\u2581make": 5243,
  "\u963f\u5bcc\u6c57": 5244,
  "\u2581\u597d\u554a": 5245,
  "ue": 5246,
  "\u4e86\u4e00\u4e2a": 5247,
  "\u638c": 5248,
  "In": 5249,
  "\u2581\u5fc3": 5250,
  "\u5e74\u7684": 5251,
  "\u5e6b\u6211": 5252,
  "\u2581\u9019\u88e1": 5253,
  "\u65b9\u9762\u7684": 5254,
  "\u812b": 5255,
  "chi": 5256,
  "\u966a": 5257,
  "\u2581Post": 5258,
  "\u2581over": 5259,
  "\u518a": 5260,
  "\u9759": 5261,
  "\u81e8": 5262,
  "\u2581Lord": 5263,
  "\u2581Stein": 5264,
  "\u5e55": 5265,
  "\u2581Su": 5266,
  "\u76f8\u4fe1\u6211": 5267,
  "\u500d": 5268,
  "\u7535\u89c6": 5269,
  "\u6700\u5927\u7684": 5270,
  "\u2581\u90a3\u5c31\u662f": 5271,
  "zi": 5272,
  "\u8c37": 5273,
  "mer": 5274,
  "\u8bae\u7a0b": 5275,
  "\u2581wenigstens": 5276,
  "\u2581euren": 5277,
  "\u5386\u53f2": 5278,
  "48": 5279,
  "\u2581Ball": 5280,
  "\u2581Is": 5281,
  "\u6297": 5282,
  "\u2581geliebt": 5283,
  "\u2581\u8b66\u5bdf": 5284,
  "\u2581\u662f\u5427": 5285,
  "\u2581brachte": 5286,
  "\u64d4\u5fc3": 5287,
  "\u2581\u540c": 5288,
  "od": 5289,
  "\u2581\u65e0\u6cd5": 5290,
  "\u2581geredet": 5291,
  "\u2581\u522b\u62c5\u5fc3": 5292,
  "\u6b63\u662f": 5293,
  "\u8fc7\u4e86": 5294,
  "\u51fd": 5295,
  "\u2581Beitr\u00e4ge": 5296,
  "\u820d": 5297,
  "\u2581\u6211\u5df2\u7d93": 5298,
  "\u9192": 5299,
  "\u5f97\u5f88": 5300,
  "\u53eb\u4f60": 5301,
  "\u6740\u6b7b": 5302,
  "\u2581\u9664\u975e": 5303,
  "\u2581zerst\u00f6rt": 5304,
  "\u9910": 5305,
  "\u2581off": 5306,
  "\u2581\u5e94\u8be5": 5307,
  "\u8ba4": 5308,
  "\u2581\u6c42\u4f60\u4e86": 5309,
  "gel": 5310,
  "\u2581Sp": 5311,
  "\u2581statt": 5312,
  "\u76d1\u72f1": 5313,
  "\u7ed3\u675f\u4e86": 5314,
  "\u2581\u6211\u90fd": 5315,
  "\u2581Schwert": 5316,
  "\u76d6": 5317,
  "\u2581nieder": 5318,
  "\u2581Mark": 5319,
  "\u2581ergibt": 5320,
  "\u6211\u4e0d": 5321,
  "\u2581ER": 5322,
  "\u2581\u6211\u8981\u53bb": 5323,
  "\u2581\u6b63\u5728": 5324,
  "\u5728\u5916\u9762": 5325,
  "\u5bb6\u65cf": 5326,
  "\u5931\u53bb\u4e86": 5327,
  "\u2581f\u00fcrchte": 5328,
  "RE": 5329,
  "\u2581Uns": 5330,
  "\u2581Bilder": 5331,
  "\u2581Staats": 5332,
  "\u2581\u5373\u4f7f": 5333,
  "\u5e74\u8f7b": 5334,
  "\u2581Show": 5335,
  "\u8bbe": 5336,
  "Hei": 5337,
  "low": 5338,
  "\u6aa2\u67e5": 5339,
  "\u722c": 5340,
  "\u2581gestellt": 5341,
  "\u543b": 5342,
  "\u2581Dokument": 5343,
  "\u2581\u4ed6\u4eec\u4f1a": 5344,
  "\u2581\u5abd\u5abd": 5345,
  "\u900f": 5346,
  "\u2581Anwendung": 5347,
  "\u5bf9\u8c61": 5348,
  "\u2581Viele": 5349,
  "\u5bbe": 5350,
  "\u7b26": 5351,
  "\u2581London": 5352,
  "\u6709\u53ef\u80fd": 5353,
  "\u505a\u4ec0\u9ebc": 5354,
  "\u514d": 5355,
  "\u6a94": 5356,
  "\u6ca1\u9519": 5357,
  "ator": 5358,
  "\u2581\u5404": 5359,
  "\u523b": 5360,
  "\u5c0f\u65f6": 5361,
  "\u8f38": 5362,
  "des": 5363,
  "\u613f": 5364,
  "\u719f": 5365,
  "\u2581If": 5366,
  "\u6218\u6597": 5367,
  "\u7f51\u7edc": 5368,
  "ther": 5369,
  "Mail": 5370,
  "\u0627": 5371,
  "ted": 5372,
  "\u2581\u72e6": 5373,
  "\u2581Sozial": 5374,
  "\u2581\u62dc\u8a17": 5375,
  "\u6700\u7ec8": 5376,
  "\u2581Menschenrechts": 5377,
  "\u2581\u518d\u898b": 5378,
  "\u5177": 5379,
  "\u2581Glas": 5380,
  "\u2581fehlt": 5381,
  "\u2581gearbeitet": 5382,
  "\u2581hinein": 5383,
  "\u4e0a\u5e8a": 5384,
  "\u89c9": 5385,
  "ert": 5386,
  "\u2581Afrika": 5387,
  "stellen": 5388,
  "port": 5389,
  "\u2581\u4ec0\u4e48\u4e8b": 5390,
  "\u2581unglaublich": 5391,
  "\u2581\u800c\u662f": 5392,
  "\u6628\u665a": 5393,
  "Ste": 5394,
  "\u8ff0": 5395,
  "cu": 5396,
  "\u2581\u8001\u5929": 5397,
  "\u2581\u5f88\u62b1\u6b49": 5398,
  "\u5718": 5399,
  "\u5f00\u5fc3": 5400,
  "\u2581Chi": 5401,
  "\u2581stirbt": 5402,
  "\u53bb\u770b": 5403,
  "\u79ef\u6781": 5404,
  "vor": 5405,
  "\u2581Beweise": 5406,
  "\u2581traurig": 5407,
  "laden": 5408,
  "\u5272": 5409,
  "\u7cdf": 5410,
  "form": 5411,
  "\u4e26": 5412,
  "\u7a0b\u5ea6": 5413,
  "\u2581Ya": 5414,
  "\u7d27\u6025": 5415,
  "\u610f\u5927\u5229": 5416,
  "\u7236\u4eb2": 5417,
  "res": 5418,
  "\u2581Hals": 5419,
  "\u2581\u4e0d\u4f1a": 5420,
  "\u9886\u5bfc\u4eba": 5421,
  "\u2581Detective": 5422,
  "\u2581entschuldigen": 5423,
  "\u9e21": 5424,
  "\u2581April": 5425,
  "\u2581verliebt": 5426,
  "\u2581\u5988\u7684": 5427,
  "\u00e4r": 5428,
  "\u2581lag": 5429,
  "\u2581Ergebnisse": 5430,
  "\u2581verwendet": 5431,
  "\u8a18": 5432,
  "\u2581versteckt": 5433,
  "ya": 5434,
  "\u7d27\u5f20": 5435,
  "\u2581enthalten": 5436,
  "\u900a": 5437,
  "\u2581Mai": 5438,
  "\u2581\u6069": 5439,
  "\u6ca1\u4ec0\u4e48": 5440,
  "\u2581G\u00fcte": 5441,
  "\u2581\u4e0d\u53ef\u80fd": 5442,
  "\u6263": 5443,
  "4)": 5444,
  "app": 5445,
  "\u4e3e\u884c": 5446,
  "ally": 5447,
  "\u680f": 5448,
  "\u9084\u5728": 5449,
  "\u2581Irak": 5450,
  "\u2581\u624d": 5451,
  "\u5c31\u5f97": 5452,
  "\u5f81": 5453,
  "\u5f88\u6709": 5454,
  "\u8209": 5455,
  "\u2581let": 5456,
  "\u2581\u7f8e\u56fd": 5457,
  "iff": 5458,
  "\u2581\u597d\u55ce": 5459,
  "\u4ee5\u70ba": 5460,
  "\u2581\u6697": 5461,
  "\u89c1\u9762": 5462,
  "berg": 5463,
  "\u62c9\u65af": 5464,
  "\u6cbb\u7597": 5465,
  "\u4eba\u985e": 5466,
  "\u2581Ad": 5467,
  "\u0646": 5468,
  "\u5b9d": 5469,
  "mm": 5470,
  "\u7d55": 5471,
  "\u2581\u8457": 5472,
  "\u2581\u00fcbrig": 5473,
  "\u63a7": 5474,
  "\u2581Suche": 5475,
  "\u2581wach": 5476,
  "\u9177": 5477,
  "ap": 5478,
  "\u2581\u7f57": 5479,
  "iere": 5480,
  "\u4e00\u6b65": 5481,
  "\u606f": 5482,
  "\u2581dringend": 5483,
  "\u72b6\u6001": 5484,
  "\u2581na": 5485,
  "\u2581\u7435": 5486,
  "\u8336": 5487,
  "ni": 5488,
  "\u2581erwarten": 5489,
  "\u6d0b": 5490,
  "\u78ba\u5b9a": 5491,
  "\u00e4n": 5492,
  "\u2581Monster": 5493,
  "\u2581Schlag": 5494,
  "\u2581ergreifen": 5495,
  "\u2581Eier": 5496,
  "\u2581Band": 5497,
  "\u2581mean": 5498,
  "\u2581Y": 5499,
  "\u2581\u90a3\u662f\u4ec0\u4e48": 5500,
  "\u2581entscheiden": 5501,
  "\u53cd\u5e94": 5502,
  "\u70e7": 5503,
  "\u2581Euro": 5504,
  "\u2581Q": 5505,
  "\u2581\u252e": 5506,
  "\u9884": 5507,
  "\u2581\u6ca1\u4eba": 5508,
  "\u6709\u4ec0\u9ebc": 5509,
  "\u2581Engel": 5510,
  "\u2581gesucht": 5511,
  "\u2581\u600e\u9ebc\u4e86": 5512,
  "\u4e34\u65f6": 5513,
  "\u7b79": 5514,
  "\u2581absolut": 5515,
  "\u662f\u771f\u7684": 5516,
  "\u7684\u5bb6\u4f19": 5517,
  "\u4ea7\u751f": 5518,
  "\u6254": 5519,
  "\u96d9": 5520,
  "\u90a3\u7a2e": 5521,
  "lichen": 5522,
  "\u2581finanzielle": 5523,
  "\u6211\u6709": 5524,
  "\u2581Car": 5525,
  "\u2581sowieso": 5526,
  "\u2581\u8001\u5144": 5527,
  "\u7684\u7ecf\u6d4e": 5528,
  "\u90fd\u6ca1": 5529,
  "\u590f": 5530,
  "\u8056": 5531,
  "\u8ba9\u4ed6\u4eec": 5532,
  "\u2581\u807d": 5533,
  "\u7acb\u5373": 5534,
  "\u2581Treffen": 5535,
  "\u2581soweit": 5536,
  "\u2581\u4f46\u662f\u4f60": 5537,
  "\u2581\u4f60\u6700\u597d": 5538,
  "\u71d2": 5539,
  "\u2581\u6492": 5540,
  "\u73af": 5541,
  "\u7678": 5542,
  "\u2581\u6211\u731c": 5543,
  "\u5e7b": 5544,
  "\u75bc": 5545,
  "\u624e": 5546,
  "\u2581Soldaten": 5547,
  "\u2581\u6211\u6c92\u6709": 5548,
  "\u6c38\u9060": 5549,
  "\u7ebd\u7ea6": 5550,
  "\u6ca1\u4eba": 5551,
  "1\"": 5552,
  "SE": 5553,
  "ei": 5554,
  "\u2581Muss": 5555,
  "\u2581Zeig": 5556,
  "\u2581\u7842\u740c": 5557,
  "\u4e86\u4ed6": 5558,
  "\u2581Presse": 5559,
  "\u2581Wahrscheinlich": 5560,
  "\u4e00\u534a": 5561,
  "\u5927\u6982": 5562,
  "ect": 5563,
  "\u2581zweite": 5564,
  "\u5ba3\u5e03": 5565,
  "1\\3": 5566,
  "\u0631": 5567,
  "\u2581Respekt": 5568,
  "\u2581\u6309": 5569,
  "\u53ef\u80fd\u662f": 5570,
  "\u6253\u4e86": 5571,
  "\u521a\u521a": 5572,
  "\u2581\u5f53\u6211": 5573,
  "\u6771": 5574,
  "\u2581Br\u00fcder": 5575,
  "\u661f\u671f": 5576,
  "\u2581\u8fd9\u662f\u4ec0\u4e48": 5577,
  "\u6389\u4e86": 5578,
  "ium": 5579,
  "\u2581schw\u00f6re": 5580,
  "\u2581\u6211\u7231\u4f60": 5581,
  "\u7231\u4f60": 5582,
  "\u2581Bev\u00f6lkerung": 5583,
  "\u7248": 5584,
  "abteilung": 5585,
  "\u6b7b\u7684": 5586,
  "\u5bdf": 5587,
  "\u8b93\u4ed6": 5588,
  "\u2581Internet": 5589,
  "\u2581Schicksal": 5590,
  "\u5229\u76ca": 5591,
  "\u53ef\u4e0d\u662f": 5592,
  "\u7684\u884c\u4e3a": 5593,
  "\u95ee\u4f60": 5594,
  "\u8d44\u6599": 5595,
  "\u770b\u898b": 5596,
  "abel": 5597,
  "ette": 5598,
  "\u2581schlie\u00dfen": 5599,
  "\u89c0": 5600,
  "\u2581Deal": 5601,
  "\u2581dasselbe": 5602,
  "\u898b\u904e": 5603,
  "Sie": 5604,
  "\u2581m\u00fcde": 5605,
  "\u5c41\u80a1": 5606,
  "75": 5607,
  "\u2581Leg": 5608,
  "\u2581Walter": 5609,
  "\u2581normal": 5610,
  "\u73b0\u5b9e": 5611,
  "\u25811,": 5612,
  "\u2581weiss": 5613,
  "\u56de\u987e": 5614,
  "\u8fd9\u4e8b": 5615,
  "\u2581Fisch": 5616,
  "\u2581Penny": 5617,
  "fnS": 5618,
  "\u2581Kleiner": 5619,
  "\u2581Anzahl": 5620,
  "\u2581Thema": 5621,
  "\u4f60\u6709": 5622,
  "\u505a\u7684\u4e8b": 5623,
  "\u6d6a": 5624,
  "\u2581Tier": 5625,
  "\u74f6": 5626,
  "Ge": 5627,
  "\u2581Sofort": 5628,
  "pl": 5629,
  "\u2581Vertrauen": 5630,
  "\u2581vermisst": 5631,
  "\u7761\u89c9": 5632,
  "\u5145": 5633,
  "\u2581As": 5634,
  "\u2581z": 5635,
  "\u2581\u00dcbersetzung": 5636,
  "\u5178": 5637,
  "\u6700\u9ad8": 5638,
  "\u2581Natur": 5639,
  "\u8fd8\u6ca1\u6709": 5640,
  "\u5e6b\u5fd9": 5641,
  "\u7684\u4f4d\u7f6e": 5642,
  "\u8001\u5e08": 5643,
  "\u53f3": 5644,
  "\u5907": 5645,
  "49": 5646,
  "\u2581h\u00e4ltst": 5647,
  "\u6109\u5feb": 5648,
  "dy": 5649,
  "\u2581nimm": 5650,
  "ub": 5651,
  "\u55e8": 5652,
  "va": 5653,
  "\u2581gekauft": 5654,
  "\u8d35": 5655,
  "\u5973\u6027": 5656,
  "\u2581Maschine": 5657,
  "\u2581\u9577\u5b98": 5658,
  "\u627e\u4e0d\u5230": 5659,
  "\u6539\u5584": 5660,
  "\u7a81": 5661,
  "\u9f8d": 5662,
  "\u641e\u5b9a": 5663,
  "\u8e22": 5664,
  "\u2581\u4f46\u6211\u4eec": 5665,
  "\u4fe1\u4ef6": 5666,
  "\u518d\u89c1": 5667,
  "\u89c4\u5b9a\u7684": 5668,
  "\u2581\u6211\u76f8\u4fe1": 5669,
  "\u4e00\u676f": 5670,
  "\u6216\u8bb8": 5671,
  "\u2581come": 5672,
  "\u2581zuvor": 5673,
  "\u7684\u65b9\u6cd5": 5674,
  "tz": 5675,
  "\u5e0c\u814a": 5676,
  "\u2581gro\u00dfartig": 5677,
  "\u575a\u6301": 5678,
  "\u2581\u6211\u4e00\u76f4": 5679,
  "\u5927\u7684": 5680,
  "\u2581Start": 5681,
  "\u2581\u6211\u60f3\u8981": 5682,
  "\u2581Wovon": 5683,
  "\u5019": 5684,
  "\u5435": 5685,
  "\u718a": 5686,
  "\u2581Bek\u00e4mpfung": 5687,
  "\u4eba\u751f": 5688,
  "\u5899": 5689,
  "\u2581Di": 5690,
  "\u2581Neu": 5691,
  "\u2581dis": 5692,
  "\u2581w\u00fctend": 5693,
  "\u2581\u3043\u740c": 5694,
  "\u2581\u766c": 5695,
  "\u786e\u662f": 5696,
  "po": 5697,
  "\u4e0d\u5f97\u4e0d": 5698,
  "\u88ab\u4eba": 5699,
  "\u2581Qu": 5700,
  "\u2581\u7167": 5701,
  "8080}": 5702,
  "ck": 5703,
  "tt": 5704,
  "\u2581Unternehmen": 5705,
  "\u2581Gutes": 5706,
  "\u5df4\u9ece": 5707,
  "\u2581verdammten": 5708,
  "\u2581\u76ee\u524d": 5709,
  "\u9032\u884c": 5710,
  "\u2581Runter": 5711,
  "\u2581\u7121\u6cd5": 5712,
  "\u4e3a\u6b64": 5713,
  "\u5404\u65b9": 5714,
  "\u5438\u8840\u9b3c": 5715,
  "\u60f3\u6cd5": 5716,
  "\u7d50\u675f": 5717,
  "\u53d1\u8fbe": 5718,
  "\u2581meinte": 5719,
  "\u6536\u62fe": 5720,
  "\u2581Steuer": 5721,
  "\u5099": 5722,
  "\u54a8\u8be2": 5723,
  "\u7b28": 5724,
  "\u81ea\u6211": 5725,
  "\u8ac7\u8ac7": 5726,
  "\u2581W\u00fcrde": 5727,
  "\u767d\u75f4": 5728,
  "ting": 5729,
  "\u2581unterst\u00fctzt": 5730,
  "\u5728\u90a3\u513f": 5731,
  "\u5750\u5728": 5732,
  "\u5c40\u52bf": 5733,
  "\u90a3\u908a": 5734,
  "sh": 5735,
  "\u2581Har": 5736,
  "\u2581deswegen": 5737,
  "\u665a\u9910": 5738,
  "\u83ef": 5739,
  "2008": 5740,
  "\u2581Berg": 5741,
  "\u2581umfassende": 5742,
  "\u2581\u537b": 5743,
  "\u4e0d\u660e\u767d": 5744,
  "\u2581witzig": 5745,
  "\u2581zweiten": 5746,
  "\u4ec0\u4e48\u65f6\u5019": 5747,
  "\u4e14": 5748,
  "\u2581jeweilige": 5749,
  "\u8005\u7684": 5750,
  "\u2581\u600e\u4e48\u56de\u4e8b": 5751,
  "\u5174": 5752,
  "\u5927\u5bb6\u90fd": 5753,
  "\u2581Lust": 5754,
  "\u2581com": 5755,
  "\u2581\u6211\u4eec\u5fc5\u987b": 5756,
  "\u52bf": 5757,
  "\u5f97\u5230\u4e86": 5758,
  "ight": 5759,
  "\u2581verschwunden": 5760,
  "\u2581\u8fd9\u79cd": 5761,
  "\u65e2": 5762,
  "\u2581cm": 5763,
  "\u5687": 5764,
  "\u2581Jimmy": 5765,
  "\u2581Neues": 5766,
  "\u2581pers\u00f6nlich": 5767,
  "\u76ca": 5768,
  "\u2581\u6642": 5769,
  "\u53e6\u4e00\u4e2a": 5770,
  "\u4e00\u5b9a\u4f1a": 5771,
  "\u5f00\u53d1": 5772,
  "\u7d05": 5773,
  "\u83b7": 5774,
  "\u2581\u4ed6\u8981": 5775,
  "\u7b2c\u4e94": 5776,
  "\u2581\u0111": 5777,
  "\u8f83": 5778,
  "\u904a\u6232": 5779,
  "ica": 5780,
  "\u0644\u0627": 5781,
  "\u2581namens": 5782,
  "\u6279\u51c6": 5783,
  "\u2581Professor": 5784,
  "\u2581Wohl": 5785,
  "\u2581Dateien": 5786,
  "\u2581any": 5787,
  "\u2581trans": 5788,
  "\u2581Cal": 5789,
  "\u70c8": 5790,
  "\u2581They": 5791,
  "OR": 5792,
  "\u2581Hunde": 5793,
  "\u2581f\u00fchlt": 5794,
  "\u2581sub": 5795,
  "\u2581\u6211\u5011\u6703": 5796,
  "\u9152\u5e97": 5797,
  "\u2581Arbeits": 5798,
  "\u2581Farbe": 5799,
  "\u5b9a\u4e49": 5800,
  "ita": 5801,
  "\u2581gehabt": 5802,
  "\u2581Haut": 5803,
  "\u63d0\u5230": 5804,
  "\u656c": 5805,
  "\u258155": 5806,
  "\u2581\u53cd\u6b63": 5807,
  "\u88ad\u51fb": 5808,
  "\u2581Schwanz": 5809,
  "\u5224": 5810,
  "\u25812008": 5811,
  "\u2581\u70ba\u4e86": 5812,
  "\u4e0b\u9762": 5813,
  "\u793e": 5814,
  "\u9a5a": 5815,
  "\u2581W\u00e4hrend": 5816,
  "\u2581wohin": 5817,
  "\u2581\u4eba\u4eec": 5818,
  "\u5413": 5819,
  "\u5728\u9019\u91cc": 5820,
  "\u2581\u4e8b\u60c5": 5821,
  "\u4e0d\u540c\u7684": 5822,
  "\u2581Tats\u00e4chlich": 5823,
  "\u4e0d\u50cf": 5824,
  "tag": 5825,
  "\u2581really": 5826,
  "\u2581\u4f60\u5230\u5e95": 5827,
  "\u2581\u54ea": 5828,
  "\u2581redet": 5829,
  "54": 5830,
  "\u53bb\u505a": 5831,
  "\u60f3\u50cf": 5832,
  "\u89e3\u6c7a": 5833,
  "ess": 5834,
  "all": 5835,
  "\u4fc4": 5836,
  "200": 5837,
  "\u2581w\u00e4hlen": 5838,
  "\u7fa9": 5839,
  "\u2581sucht": 5840,
  "\u2581verraten": 5841,
  "\u2581Amy": 5842,
  "\u2581Nase": 5843,
  "\u7ed9\u5979": 5844,
  "\u4ea1": 5845,
  "\u5708": 5846,
  "\u5973\u513f": 5847,
  "\u2581Kamera": 5848,
  "\u2581Sa": 5849,
  "\u4e92\u76f8": 5850,
  "\u2581Ch": 5851,
  "\u2581sobald": 5852,
  "\u5c3c\u4e9a": 5853,
  "Der": 5854,
  "ker": 5855,
  "\u2581\u771f\u7684\u5417": 5856,
  "\u2581200": 5857,
  "\u2581K\u00f6nigin": 5858,
  "\u5404\u9879": 5859,
  "\u2581\u7531": 5860,
  "\u602a\u7269": 5861,
  "\u6c83": 5862,
  "\u8328": 5863,
  "\u2581\u5982\u679c\u6211\u4eec": 5864,
  "\u8d8a\u6765\u8d8a": 5865,
  "\u8054\u5408": 5866,
  "\u8a08": 5867,
  "\u2581Anteil": 5868,
  "\u2581letzter": 5869,
  "\u2581K\u00f6nnte": 5870,
  "\u2581verhindern": 5871,
  "\u2581\u7ea6\u7ff0": 5872,
  "\u8bc4\u4f30": 5873,
  "\u90fd\u6703": 5874,
  "\u2581\u70ba\u4ec0\u4e48": 5875,
  "\u2581\u4f60\u8fd8": 5876,
  "\u7b49\u7740": 5877,
  "\u96fb\u5f71": 5878,
  "33": 5879,
  "\u2581\u4e0d\u7136": 5880,
  "\u6b62": 5881,
  "\u6cd5\u9662": 5882,
  "\u7518": 5883,
  "\u82cf": 5884,
  "\u5fd8\u8bb0": 5885,
  "\u6559\u6388": 5886,
  "\u4e5f\u4e0d\u4f1a": 5887,
  "\u770b\u7740": 5888,
  "\u9996\u8111": 5889,
  "\u6a5f\u6703": 5890,
  "row": 5891,
  "\u5384": 5892,
  "\u7edd\u5bf9": 5893,
  "\u2581h\u00fcbsch": 5894,
  "\u2581\u8d77": 5895,
  "SL": 5896,
  "\u2581Informations": 5897,
  "\u2581fangen": 5898,
  "\u2581only": 5899,
  "\u2581Ehren": 5900,
  "\u51ef": 5901,
  "\u771f\u7684\u5f88": 5902,
  "\u8179": 5903,
  "\u2581Messer": 5904,
  "\u2581Zieh": 5905,
  "\u2581\u6211\u662f\u8aaa": 5906,
  "lt": 5907,
  "\u2581too": 5908,
  "fer": 5909,
  "tro": 5910,
  "Es": 5911,
  "\u2581Geheimnis": 5912,
  "\u610f\u89c1": 5913,
  "\u5609": 5914,
  "\u7e3d\u7d71": 5915,
  "\u4f59": 5916,
  "\u547c": 5917,
  "\u9304": 5918,
  "\u5c3f": 5919,
  "\u7684\u6d88\u606f": 5920,
  "\u77ad\u89e3": 5921,
  "\u2581beenden": 5922,
  "\u76f4\u5230": 5923,
  "\u7a7a\u95f4": 5924,
  "\u8fd9\u4e00\u5207": 5925,
  "\u98db\u6a5f": 5926,
  "\u2581\u4f60\u4e0d\u4f1a": 5927,
  "\u6211\u90fd": 5928,
  "\u2581richtigen": 5929,
  "\u2581st\u00e4rker": 5930,
  "\u6a39": 5931,
  "ook": 5932,
  "\u5fc5\u8981": 5933,
  "\u7684\u5973\u5b69": 5934,
  "\u8bbe\u8ba1": 5935,
  "stand": 5936,
  "\u2581Sommer": 5937,
  "\u2581daher": 5938,
  "\u2581\u00d6l": 5939,
  "\u2581junge": 5940,
  "\u2581\u770b\u5230": 5941,
  "\u7684\u4e00\u4e2a": 5942,
  "\u2581\u00fcbernehmen": 5943,
  "\u4ed6\u5728": 5944,
  "\u662f\u554a": 5945,
  "igkeit": 5946,
  "\u5bf9\u4ed6": 5947,
  "\u2581erinnert": 5948,
  "\u25811999": 5949,
  "\u2581Obwohl": 5950,
  "\u4e5f\u8981": 5951,
  "\u65c1": 5952,
  "share": 5953,
  "\u2581\u9019\u5c31\u662f": 5954,
  "\u4e0d\u591f": 5955,
  "\u5341\u4e8c": 5956,
  "\u788e": 5957,
  "\u2581gr\u00f6\u00dfte": 5958,
  "\u9694": 5959,
  "\u2581aufhalten": 5960,
  "\u6743\u529b": 5961,
  "nblick": 5962,
  "\u5168\u4e16\u754c": 5963,
  "bel": 5964,
  "\u2581Toten": 5965,
  "\u5747": 5966,
  "\u2581\u6211\u73fe\u5728": 5967,
  "\u932f\u4e86": 5968,
  "999": 5969,
  "\u2581Staat": 5970,
  "\u2581\u8b93": 5971,
  "\u516c\u6c11": 5972,
  "\u548c\u56fd\u9645": 5973,
  "\u5f00\u73a9\u7b11": 5974,
  "\u5de8": 5975,
  "\u62a2": 5976,
  "\u2581Bullen": 5977,
  "\u5728\u5176": 5978,
  "\u89e3\u91cb": 5979,
  "\u300a": 5980,
  "\u4f19\u8ba1": 5981,
  "01": 5982,
  "\u2581Besorgnis": 5983,
  "\u2581Zeitpunkt": 5984,
  "\u2581unternehmen": 5985,
  "\u4e13\u95e8": 5986,
  "\u5e73\u7b49": 5987,
  "\u63a8\u52a8": 5988,
  "\u2581Gr\u00f6\u00dfe": 5989,
  "\u2581Auftrag": 5990,
  "\u2581menschliche": 5991,
  "\u5173\u5fc3": 5992,
  "\u904b": 5993,
  "\u9189": 5994,
  "lan": 5995,
  "ong": 5996,
  "\u7684\u76ee\u6807": 5997,
  "\u4f30\u8ba1": 5998,
  "ath": 5999,
  "\u8d44\u91d1": 6000,
  "\u2581Regen": 6001,
  "\u2581\u4ed6\u8aaa": 6002,
  "\u2581\u904e\u4f86": 6003,
  "\u5b8c\u7f8e": 6004,
  "\u7684\u94b1": 6005,
  "log": 6006,
  "\u2581Operation": 6007,
  "\u2581\u5c3c": 6008,
  "\u95f9": 6009,
  "\u2022": 6010,
  "\u2581Dame": 6011,
  "\u2581li": 6012,
  "\u2581Kirche": 6013,
  "ien": 6014,
  "\u4e0d\u6562": 6015,
  "\u2581\u6211\u4eec\u9700\u8981": 6016,
  "\u2581West": 6017,
  "\u2581\u6211\u8ba4\u4e3a": 6018,
  "\u9019\u5152": 6019,
  "\u65e9\u4e0a": 6020,
  "f\u00fchrung": 6021,
  "\u2581Erz\u00e4hl": 6022,
  "\u4e00\u767e": 6023,
  "kommen": 6024,
  "\u2581Bau": 6025,
  "\u71df": 6026,
  "\u2581sauer": 6027,
  "cHF": 6028,
  "eln": 6029,
  "schen": 6030,
  "\u2581di": 6031,
  "\u2581sauber": 6032,
  "\u523a\u6fc0": 6033,
  "\u8bbe\u7f6e": 6034,
  "\u2581Zur": 6035,
  "\u5916\u9762": 6036,
  "\u2581Verwaltungs": 6037,
  "\u4e24\u5e74": 6038,
  "\u2581\u6ca1\u95ee\u9898": 6039,
  "\u2581Van": 6040,
  "\u2581j": 6041,
  "\u9019\u4ef6\u4e8b": 6042,
  "\u2581\u5e03": 6043,
  "\u5e76\u6ca1\u6709": 6044,
  "\u6b7b\u53bb": 6045,
  "\u4e9b\u4ec0\u4e48": 6046,
  "\u5e79\u561b": 6047,
  "\u2581kriegst": 6048,
  "\u60ca": 6049,
  "\u2581\u4f60\u5462": 6050,
  "\u7684\u60c5\u51b5\u4e0b": 6051,
  "\u4f6c": 6052,
  "\u6ee1\u8db3": 6053,
  "\u968f\u65f6": 6054,
  "\u627e\u6211": 6055,
  "\u9b54\u6cd5": 6056,
  "\u86c7": 6057,
  "raum": 6058,
  "\u2581Denken": 6059,
  "\u2581dauert": 6060,
  "\u2581fahre": 6061,
  "\u8bba": 6062,
  "\u9752": 6063,
  "net": 6064,
  "\u79fb\u52a8": 6065,
  "\u2581gilt": 6066,
  "\u4e5f\u6ca1": 6067,
  "\u5728\u8fd9\u65b9\u9762": 6068,
  "\u5343\u5e74": 6069,
  "\u7279\u5de5": 6070,
  "\u8fbe\u5230": 6071,
  "office": 6072,
  "\u7ec8": 6073,
  "ring": 6074,
  "\u5bb6\u4f19": 6075,
  "\u67d0": 6076,
  "\u2581\u8fd9\u6b21": 6077,
  "\u7db2": 6078,
  "iger": 6079,
  "\u6000": 6080,
  "haltung": 6081,
  "\u2581S\u00fc\u00dfe": 6082,
  "\u2581Wege": 6083,
  "\u2581beginnen": 6084,
  "\u4e8c\u5341": 6085,
  "\u81c9": 6086,
  "\u8981\u6211": 6087,
  "\u2581\u5e76\u4e14": 6088,
  "/200": 6089,
  "\u2581Video": 6090,
  "\u662f\u56e0\u70ba": 6091,
  "\u7570": 6092,
  "\u2581eigenes": 6093,
  "\u2581Toll": 6094,
  "\u610f\u4e49": 6095,
  "\u65b7": 6096,
  "\u5fa9": 6097,
  "\u7684\u89c4\u5b9a": 6098,
  "\u2581jung": 6099,
  "\u8aaa\u7684": 6100,
  "So": 6101,
  "\u4e54": 6102,
  "\u2581Gehirn": 6103,
  "\u4ecb\u7ecd": 6104,
  "\u2581\u83ab": 6105,
  "\u4f19\u4f34": 6106,
  "\u86e4": 6107,
  "85": 6108,
  "\u2581Schlampe": 6109,
  "\u2581Tante": 6110,
  "\u4e00\u5c64": 6111,
  "\u53f6": 6112,
  "\u2581H\u00e4nden": 6113,
  "\u2581\u6211\u4eec\u90fd": 6114,
  "\u58f0\u97f3": 6115,
  "\u70e4": 6116,
  "\u7535\u8111": 6117,
  "\u4e0b\u5348": 6118,
  "\u662f\u56e0\u4e3a": 6119,
  "\u7b26\u5408": 6120,
  "\u8303\u56f4": 6121,
  "\u9806": 6122,
  "\u9ce5": 6123,
  "\u8868\u683c": 6124,
  "ux": 6125,
  "\u58d3": 6126,
  "\u8ba9\u5979": 6127,
  "\u2581\u4f60\u4e3a\u4ec0\u4e48": 6128,
  "\u624b\u4e0a": 6129,
  "\u5bc6\u7801": 6130,
  "\u2581Folge": 6131,
  "\u6587\u672c": 6132,
  "080": 6133,
  "\u8d34": 6134,
  "\u5730\u4f4d": 6135,
  "\u79df": 6136,
  "\u2581Osten": 6137,
  "\u723d": 6138,
  "out": 6139,
  "\u2581Angriff": 6140,
  "\u2581Wichser": 6141,
  "\u2581gro\u00dfes": 6142,
  "\u503a": 6143,
  "\u76f8\u4e92": 6144,
  "62": 6145,
  "gan": 6146,
  "\u2581Zivil": 6147,
  "\u4f1a\u6709": 6148,
  "\u996d": 6149,
  "\u2581Bezug": 6150,
  "\u7684\u673a\u4f1a": 6151,
  "wohl": 6152,
  "\u4e0d\u5fc5": 6153,
  "\u524d\u9762": 6154,
  "\u2581Amt": 6155,
  "\u2581Ergebnis": 6156,
  "II": 6157,
  "\u2581Herausforderung": 6158,
  "\u2581\u7f8e": 6159,
  "\u3071": 6160,
  "\u8aaa\u904e": 6161,
  "\u5582": 6162,
  "\u58a8\u897f\u54e5": 6163,
  "\u9ec4": 6164,
  "sl\u00e4ndern": 6165,
  "\u75c5\u6bd2": 6166,
  "\u2581\u5979\u5728": 6167,
  "\u5b83\u5011": 6168,
  "\u800d": 6169,
  "\u80dc": 6170,
  "\u2581M\u00e4nnern": 6171,
  "\u53f8\u6cd5": 6172,
  "\u2581Bus": 6173,
  "ki": 6174,
  "\u2581Yes": 6175,
  "\u51e0\u5929": 6176,
  "\u7c7b\u578b": 6177,
  "\u80f8": 6178,
  "\u8a5e": 6179,
  "ziehen": 6180,
  "\u2581then": 6181,
  "\u2581\u628a\u4ed6": 6182,
  "mb": 6183,
  "\u2581weltweit": 6184,
  "\u4e0d\u8a72": 6185,
  "\u9547": 6186,
  "off": 6187,
  "\u2581Plen": 6188,
  "\u2581V\u00f6lkerrecht": 6189,
  "\u4e0d\u77e5": 6190,
  "\u4e91": 6191,
  "\u6848\u5b50": 6192,
  "\u5feb\u9ede": 6193,
  "\u6559\u5802": 6194,
  "\u66f4\u597d\u7684": 6195,
  "\u2581Mut": 6196,
  "\u4fe1\u53f7": 6197,
  "\u4fee\u6539": 6198,
  "\u51f6\u624b": 6199,
  "\u5728\u54ea\u88e1": 6200,
  "\u6709\u4e00\u500b": 6201,
  "\u2581Bobby": 6202,
  "\u2581Bord": 6203,
  "\u2581Mag": 6204,
  "\u2581wundersch\u00f6n": 6205,
  "\u2581UN": 6206,
  "\u4ee5\u6765": 6207,
  "\u6211\u4e0d\u60f3": 6208,
  "\u2581bekr\u00e4ftigt": 6209,
  "500": 6210,
  "nis": 6211,
  "\u2581\u7136\u800c": 6212,
  "\u2581\u00fcberleben": 6213,
  "\u2581zahlen": 6214,
  "\u2581Zuhause": 6215,
  "\u2581\u4f4f\u624b": 6216,
  "\u2581\u67e5\u7406": 6217,
  "\u4e00\u904d": 6218,
  "\u521b\u5efa": 6219,
  "\u986f\u793a": 6220,
  "\u2581Mu": 6221,
  "\u6bcf\u4e2a": 6222,
  "\u7f57\u9a6c": 6223,
  "\u80a5": 6224,
  "uch": 6225,
  "\u2581Aufgaben": 6226,
  "\u9686": 6227,
  "\u5173\u952e": 6228,
  "\u2581findest": 6229,
  "\u8ddf\u6211\u8bf4": 6230,
  "\u7530": 6231,
  "38": 6232,
  "\u5267": 6233,
  "\u9760\u8fd1": 6234,
  "\u2581Programme": 6235,
  "288": 6236,
  "\u2581\u4f60\u89ba\u5f97": 6237,
  "\u2581\u773e": 6238,
  "\u2581Einheit": 6239,
  "\u2581bedeuten": 6240,
  "\u2581wider": 6241,
  "\u2581\u627e": 6242,
  "\u01d0": 6243,
  "\u56fa": 6244,
  "\u79e8": 6245,
  "\u8bbe\u5907": 6246,
  "bald": 6247,
  "\u2581For": 6248,
  "\u2581brauch": 6249,
  "\u2581gelassen": 6250,
  "\u60c5\u62a5": 6251,
  "\u8bd5\u8bd5": 6252,
  "\u8fd9\u8fb9": 6253,
  "\u2581\u800c\u4e0d\u662f": 6254,
  "46": 6255,
  "\u5e2d": 6256,
  "\u2581bekam": 6257,
  "\u2581besch\u00e4ftigt": 6258,
  "\u90a3\u513f": 6259,
  "\u2581\u6536\u5230": 6260,
  "\u6765\u5427": 6261,
  "\u2581Dialog": 6262,
  "\u2581W\u00e4hlen": 6263,
  "\u2581\u746a": 6264,
  "\u5371\u96aa": 6265,
  "\u2581verbunden": 6266,
  "\u2581Halten": 6267,
  "\u5230\u6211": 6268,
  "\u56e0\u7d20": 6269,
  "\u2581\u00fcbel": 6270,
  "\u6307\u5b9a": 6271,
  "\u8fd9\u4e48\u591a": 6272,
  "\u2581Thomas": 6273,
  "\u4eba\u7269": 6274,
  "\u8c9d": 6275,
  "\u9ed1\u4eba": 6276,
  "\u2581Dach": 6277,
  "\u4e00\u5b9a\u662f": 6278,
  "\u5403\u7684": 6279,
  "\u2581Fotos": 6280,
  "\u2581Kapazit\u00e4t": 6281,
  "\u2581hi": 6282,
  "\u5212": 6283,
  "\u6709\u4e8b": 6284,
  "\u721b": 6285,
  "\u9ea5": 6286,
  "\u2581\u6211\u771f": 6287,
  "\u624b\u6bb5": 6288,
  "\u7b49\u5f85": 6289,
  "\u8fd9\u4e00\u70b9": 6290,
  "\u5339": 6291,
  "\u5bf6": 6292,
  "\u7b80": 6293,
  "\u2581zust\u00e4ndigen": 6294,
  "UR": 6295,
  "\u2581\u5728\u4f60": 6296,
  "\u96de": 6297,
  "\u2581mu\u00df": 6298,
  "\u793c": 6299,
  "\u2581obwohl": 6300,
  "\u2581\u6b64\u5916": 6301,
  "\u5c0f\u6642": 6302,
  "\u2581\u9009\u62e9": 6303,
  "\u519b\u961f": 6304,
  "\u6c11\u65cf": 6305,
  "\u8d44": 6306,
  "\u7684\u4f5c\u7528": 6307,
  "\u8a8d": 6308,
  "\u5948": 6309,
  "\u68ee\u6797": 6310,
  "\u2581\u4e03": 6311,
  "\u2581\u6700\u8fd1": 6312,
  "\u2581\u6885": 6313,
  "\u4f17": 6314,
  "\u5e7e\u500b": 6315,
  "\u742a": 6316,
  "\u7684\u5404\u9879": 6317,
  "ld": 6318,
  "\u2581Benutzer": 6319,
  "\u2581Strafe": 6320,
  "\u2581\u8fd9\u662f\u6211": 6321,
  "\u53d1\u73b0\u4e86": 6322,
  "\u5c5e\u4e8e": 6323,
  "\u2581Maria": 6324,
  "\u2581selber": 6325,
  "red": 6326,
  "\u2581Gi": 6327,
  "ale": 6328,
  "\u2581There": 6329,
  "\u5b9e\u9645": 6330,
  "ite": 6331,
  "\u2581\u96be\u9053": 6332,
  "\u5c24\u5176\u662f": 6333,
  "\u770b\u6765": 6334,
  "\u2581Denkst": 6335,
  "\u2581f\u00e4hrt": 6336,
  "\u76db": 6337,
  "\u2581wohnen": 6338,
  "\u72ec": 6339,
  "\u2581Zeitraum": 6340,
  "line": 6341,
  "\u2581\u90a3\u4e0d\u662f": 6342,
  "\u6566": 6343,
  "\u2581\u6211\u660e\u767d": 6344,
  "\u9396": 6345,
  "\u2581Reden": 6346,
  "\u2581beweisen": 6347,
  "\u8332": 6348,
  "\u8c22\u8c22\u4f60": 6349,
  "\u2581geschlafen": 6350,
  "Ma": 6351,
  "\u2581bisher": 6352,
  "\u2581\u6587\u4ef6": 6353,
  "\u526a": 6354,
  "\u90a3\u88e1": 6355,
  "\u2581Reihe": 6356,
  "\u2581pass": 6357,
  "\u654c": 6358,
  "\u6b66": 6359,
  "\u8cea": 6360,
  "\u2581\u6ce2": 6361,
  "\u6355": 6362,
  "\u78bc": 6363,
  "\u00a4": 6364,
  "\u2581h\u00f6rst": 6365,
  "\u2581leer": 6366,
  "\u600e\u4e48\u505a": 6367,
  "\u2581aussehen": 6368,
  "\u2581\u7ed9\u4f60": 6369,
  "\u52c3": 6370,
  "\u2581Baum": 6371,
  "\u2581Beseitig": 6372,
  "\u2581Notwendigkeit": 6373,
  "\u2581\u5355": 6374,
  "\u4e4c": 6375,
  "\u6e2c": 6376,
  "\u9802": 6377,
  "\u5242": 6378,
  "ball": 6379,
  "\u2581gleichen": 6380,
  "\u6350\u52a9": 6381,
  "ise": 6382,
  "\u2581\u65e0": 6383,
  "\u2581entschieden": 6384,
  "\u2581welcher": 6385,
  "\u5f53\u5c40": 6386,
  "\u2581ganzes": 6387,
  "\u2581\u5bf9\u4e8e": 6388,
  "\u2581existiert": 6389,
  "\u2581\u5993": 6390,
  "\u5e76\u4e0d\u662f": 6391,
  "\u2581Konflikt": 6392,
  "\u652f\u63f4": 6393,
  "\u2581Andy": 6394,
  "\u2581Or": 6395,
  "\u2581\u5750": 6396,
  "tes": 6397,
  "\u6bd4\u6211": 6398,
  "\u84cb": 6399,
  "\u8d44\u4ea7": 6400,
  "\u987a": 6401,
  "\u2581Einige": 6402,
  "\u4f9d\u7136": 6403,
  "\u5b69\u5b50\u4eec": 6404,
  "\u7acb\u523b": 6405,
  "ep": 6406,
  "\u2581Nick": 6407,
  "\u2581wussten": 6408,
  "\u2581\u6211\u7684\u610f\u601d\u662f": 6409,
  "\u53bb\u770b\u770b": 6410,
  "\u8c0b": 6411,
  "\u673a\u5668": 6412,
  "\u8fc5\u901f": 6413,
  "\u4fe1\u4ef0": 6414,
  "\u2581Gelegenheit": 6415,
  "\u2581Priester": 6416,
  "\u2581never": 6417,
  "\u907f": 6418,
  "\u2581real": 6419,
  "\u2581\u4f60\u6ca1": 6420,
  "\u2581\u5169": 6421,
  "\u2581Schwein": 6422,
  "\u4e0b\u964d": 6423,
  "\u5929\u4f7f": 6424,
  "FFFF": 6425,
  "\u2581\u00dcberpr\u00fcfung": 6426,
  "\u4e00\u5207\u90fd": 6427,
  "\u77e5\u8bc6": 6428,
  "\u800c\u4e0d\u662f": 6429,
  "\u2581Angebot": 6430,
  "\u2581\u4f60\u5fc5\u987b": 6431,
  "\u6211\u4e0d\u80fd": 6432,
  "\u2581Abr\u00fcstung": 6433,
  "\u2581Armut": 6434,
  "\u552f\u4e00": 6435,
  "\u2581W\u00e4re": 6436,
  "\u2581t": 6437,
  "\u5de5\u7a0b": 6438,
  "Ein": 6439,
  "old": 6440,
  "AR": 6441,
  "ure": 6442,
  "\u2581Kurz": 6443,
  "\u2581\u7231": 6444,
  "\u4e1f": 6445,
  "\u8cb4": 6446,
  "\u8f2a": 6447,
  "\u2581look": 6448,
  "\u5f88\u5927": 6449,
  "\u2581\u4f60\u8bf4\u4ec0\u4e48": 6450,
  "\u639b": 6451,
  "\u751f\u5b58": 6452,
  "\u2581Schwierigkeiten": 6453,
  "\u901f\u5ea6": 6454,
  "\u2581help": 6455,
  "len": 6456,
  "\u2581Prinzessin": 6457,
  "\u2581\u52a0\u6cb9": 6458,
  "\u2581ermordet": 6459,
  "\u5931\u671b": 6460,
  "\u5c55": 6461,
  "\u64cd\u4f5c": 6462,
  "\u2581zieht": 6463,
  "\u4e00\u5f20": 6464,
  "\u89c4": 6465,
  "\u2581Haare": 6466,
  "\u8c6a": 6467,
  "\u2581Haar": 6468,
  "\u2581\u00dcberraschung": 6469,
  "\u4f18\u5148": 6470,
  "\u2581Amerikaner": 6471,
  "\u2581Ba": 6472,
  "\u2581verlangt": 6473,
  "47": 6474,
  "\u667a": 6475,
  "\u2581Aktivit\u00e4ten": 6476,
  "\u8fd8\u6d3b\u7740": 6477,
  "\u2581bewegt": 6478,
  "\u826f": 6479,
  "ous": 6480,
  "\u5006": 6481,
  "\u7ae5": 6482,
  "\u2581\u5f53\u4f60": 6483,
  "\u4e5f\u4e0d\u662f": 6484,
  "\u897f\u65b9": 6485,
  "\u8b8a\u6210": 6486,
  "\u58eb\u5175": 6487,
  "\u662f\u4e00\u500b": 6488,
  "\u7eb2": 6489,
  "\u4e32": 6490,
  "8000}": 6491,
  "\u2581Letzte": 6492,
  "\u6ce1": 6493,
  "\u95ee\u9898\u7684": 6494,
  "\u2581Gl\u00fcckwunsch": 6495,
  "\u2581bleibe": 6496,
  "\u2581love": 6497,
  "\u6c92\u932f": 6498,
  "\u7dca": 6499,
  "\u2581\u6c42": 6500,
  "\u7528\u6765": 6501,
  "gehen": 6502,
  "\u2581\u5bf6\u8c9d": 6503,
  "\u6d4b\u8bd5": 6504,
  "\u2581Einfach": 6505,
  "\u4e00\u8d77\u53bb": 6506,
  "\u4e5f\u8a31": 6507,
  "han": 6508,
  "\u2581schrecklich": 6509,
  "\u8abf\u67e5": 6510,
  "\u2581\u542c\u6211\u8bf4": 6511,
  "\u2581\u6211\u5fc5\u987b": 6512,
  "\u4e22": 6513,
  "\u70ba\u4ec0\u4e48": 6514,
  "\u2581halb": 6515,
  "\u4f86\u8aaa": 6516,
  "\u8001\u677f": 6517,
  "TE": 6518,
  "\u0643": 6519,
  "\u2581Ring": 6520,
  "\u2581lautet": 6521,
  "\u6230\u722d": 6522,
  "\u2581\u5f80": 6523,
  "\u5c3d\u7ba1": 6524,
  "\u8ced": 6525,
  "\u2581Ru": 6526,
  "\u52d9": 6527,
  "\u8f93": 6528,
  "tu": 6529,
  "\u2581Botschaft": 6530,
  "\u2581sagtest": 6531,
  "\u2581solchen": 6532,
  "\u2581\u5988": 6533,
  "\u6295\u7968": 6534,
  "\u89ba": 6535,
  "cHC": 6536,
  "\u2581Titel": 6537,
  "\u2581\u6709\u4e9b": 6538,
  "\u2581\u7714": 6539,
  "\u5c08": 6540,
  "\u2581Beim": 6541,
  "\u2581Union": 6542,
  "\u7b97\u662f": 6543,
  "\u888b": 6544,
  "\u2581\u5152": 6545,
  "\u2581erledigen": 6546,
  "\u2581tanzen": 6547,
  "\u662f\u4ed6": 6548,
  "\u2581inter": 6549,
  "\u2581str": 6550,
  "\u51e1": 6551,
  "\u2581\u592a\u68d2\u4e86": 6552,
  "\u2581\u7b41": 6553,
  "\u6700\u91cd\u8981\u7684": 6554,
  "ON": 6555,
  "\u2581Howard": 6556,
  "\u2581gef\u00fchrt": 6557,
  "\u2581wisst": 6558,
  "\u2581\u5207": 6559,
  "\u8c0b\u6740": 6560,
  "\u7b54": 6561,
  "amp": 6562,
  "\u2581gefangen": 6563,
  "\u5f88\u6f02\u4eae": 6564,
  "\u2581Bein": 6565,
  "\u2581verspreche": 6566,
  "\u4e0d\u904e": 6567,
  "\u2581seien": 6568,
  "\u7684\u4e00\u90e8\u5206": 6569,
  "mp": 6570,
  "\u2581Unterschied": 6571,
  "\u2581hielt": 6572,
  "\u8ddf\u4f60\u8bf4": 6573,
  "\u2581Hu": 6574,
  "act": 6575,
  "\u516c\u5e73": 6576,
  "\u6e56": 6577,
  "ierte": 6578,
  "\u2581Bevor": 6579,
  "\u2581WIR": 6580,
  "\u592a\u7a7a": 6581,
  "\u2581Markt": 6582,
  "\u2581\u5c11": 6583,
  "\u2581\u7997": 6584,
  "ble": 6585,
  "liste": 6586,
  "\u2581gebeten": 6587,
  "\u2581\u6ce8\u610f": 6588,
  "\u9032\u5165": 6589,
  "\u80fd\u4e0d\u80fd": 6590,
  "\u89c2\u5bdf": 6591,
  "\u9019\u91cc": 6592,
  "\u2581Umwelt": 6593,
  "\u2581\u6211\u53ea": 6594,
  "\u6c7a": 6595,
  "\u751f\u6c14": 6596,
  "\u2581falsche": 6597,
  "\u2581Aufmerksamkeit": 6598,
  "\u2581Taxi": 6599,
  "\u2581Gef\u00fchle": 6600,
  "\u2581abge": 6601,
  "\u94a9": 6602,
  "unt": 6603,
  "\u2581Ehrlich": 6604,
  "\u2581Neue": 6605,
  "\u2581geschlossen": 6606,
  "\u666f": 6607,
  "\u67ef": 6608,
  "\u2581deutlich": 6609,
  "\u8eab\u4f53": 6610,
  "hm": 6611,
  "\u2581thing": 6612,
  "\u65f6\u5019": 6613,
  "\u7532": 6614,
  "\u62fc": 6615,
  "\u8a66": 6616,
  "\u9769\u547d": 6617,
  "\u2581\u6c92\u4e8b": 6618,
  "\u2581einigen": 6619,
  "\u2581erschossen": 6620,
  "\u2581trifft": 6621,
  "\u2581\u5965": 6622,
  "\u7b28\u86cb": 6623,
  "\u2581little": 6624,
  "\u70b8\u5f39": 6625,
  "\u2581handelt": 6626,
  "\u6572": 6627,
  "\u2581Lee": 6628,
  "\u2581\u4f60\u6ca1\u4e8b\u5427": 6629,
  "\u4ece\u800c": 6630,
  "\u4f46\u6211": 6631,
  "con": 6632,
  "\u2581Falle": 6633,
  "\u2581Verstand": 6634,
  "\u5251": 6635,
  "\u610f\u8bc6\u5230": 6636,
  "\u7279\u5225": 6637,
  "\u529e\u4e8b\u5904": 6638,
  "\u6628\u5929": 6639,
  "\u2581Bestimmungen": 6640,
  "\u2581hie\u00df": 6641,
  "\u8861": 6642,
  "\u2581seh": 6643,
  "\u4f7f\u8005": 6644,
  "\u5564\u9152": 6645,
  "\u6210\u529f\u4e86": 6646,
  "\u5e33": 6647,
  "\u2581Billy": 6648,
  "\u2581bewusst": 6649,
  "\u2581davor": 6650,
  "\u5c31\u597d\u4e86": 6651,
  "\u2581Bleiben": 6652,
  "\u53f7\u548c": 6653,
  "\u544a\u8bc9\u4ed6": 6654,
  "0}": 6655,
  "\u2581Nr": 6656,
  "\u2581gebrochen": 6657,
  "\u86cb\u7cd5": 6658,
  "\u2581Sal": 6659,
  "\u7684\u529b\u91cf": 6660,
  "\u871c": 6661,
  "\u2581Pferd": 6662,
  "\u2581\u5305\u62ec": 6663,
  "\u902e\u6355": 6664,
  "\u2581\u8272": 6665,
  "field": 6666,
  "\u2581\u6628\u665a": 6667,
  "\u2581\u00fcberpr\u00fcfen": 6668,
  "\u0648": 6669,
  "\u7ade\u4e89": 6670,
  "\u2581Format": 6671,
  "\u2581Stra\u00dfen": 6672,
  "\u2581people": 6673,
  "\u2581where": 6674,
  "\u2581wichtige": 6675,
  "\u53d7\u5bb3\u8005": 6676,
  "\u5e73\u6c11": 6677,
  "\u9435": 6678,
  "sl\u00e4nder": 6679,
  "\u2581Grundlage": 6680,
  "\u2581\u4e00\u65e6": 6681,
  "\u2581Weihnachten": 6682,
  "\u2581\u5b8c\u5168": 6683,
  "\u2581Vereinigten": 6684,
  "RES": 6685,
  "\u2581Milliarden": 6686,
  "\u897f\u73ed\u7259": 6687,
  "\u2581\u51e1": 6688,
  "\u5976": 6689,
  "\u2581Kleid": 6690,
  "\u2581ruf": 6691,
  "\u2581\u7b2c\u4e00": 6692,
  "\u5e94\u5bf9": 6693,
  "\u751c": 6694,
  "\u2581\u5f00\u59cb": 6695,
  "\u64a4": 6696,
  "\u76e4": 6697,
  "\u8fd8\u4f1a": 6698,
  "werk": 6699,
  "\u2581Mitglieder": 6700,
  "\u57f7\u884c": 6701,
  "\u8b66\u5b98": 6702,
  "\u810f": 6703,
  "/6": 6704,
  "\u2581\u6211\u5011\u5f97": 6705,
  "\u2581Liebes": 6706,
  "42": 6707,
  "\u2581B\u00fccher": 6708,
  "\u2581\u672a": 6709,
  "TK": 6710,
  "\u2581Warnung": 6711,
  "\u2581\u5c0f\u59d0": 6712,
  "\u2581Verfahren": 6713,
  "\u2581ho": 6714,
  "\u8f93\u5165": 6715,
  "\u2581Tsch\u00fcss": 6716,
  "\u2581ferner": 6717,
  "\u2581lief": 6718,
  "\u8ad6": 6719,
  "\u2581\u5c31\u7b97": 6720,
  "\u5f55": 6721,
  "\u7159": 6722,
  "\u79ae": 6723,
  "\u79c0": 6724,
  "\u2581Zweck": 6725,
  "\u2581le": 6726,
  "\u2581\u7ff4": 6727,
  "\u4e00\u628a": 6728,
  "\u4f20\u7edf": 6729,
  "\u81ea\u613f": 6730,
  "\u81ea\u6740": 6731,
  "color": 6732,
  "ear": 6733,
  "\u0628": 6734,
  "\u2581kriege": 6735,
  "\u2581zerst\u00f6ren": 6736,
  "\u4e00\u7fa4": 6737,
  "\u56f0\u96be": 6738,
  "\u7ecf\u8fc7": 6739,
  "\u5bf9\u4ed8": 6740,
  "Char": 6741,
  "\u2581Folgen": 6742,
  "\u2581Sorry": 6743,
  "\u2581Star": 6744,
  "igt": 6745,
  "\u0440": 6746,
  "\u2581Eines": 6747,
  "\u2581aktiv": 6748,
  "\u5728\u91cc\u9762": 6749,
  "\u5f85\u5728": 6750,
  "\u2581Meinst": 6751,
  "\u2581two": 6752,
  "\u52de": 6753,
  "macht": 6754,
  "\u6293\u4f4f": 6755,
  "\u7684\u58f0\u97f3": 6756,
  "\u7ec8\u4e8e": 6757,
  "test": 6758,
  "\u623f\u9593": 6759,
  "\u2581schlechte": 6760,
  "\u2581\u4ed6\u5988\u7684": 6761,
  "\u641c\u7d22": 6762,
  "ana": 6763,
  "\u2581College": 6764,
  "\u8303": 6765,
  "\u2581angefangen": 6766,
  "\u5c1d\u8bd5": 6767,
  "\u2581Her": 6768,
  "\u4e0d\u5e94\u8be5": 6769,
  "\u5206\u9418": 6770,
  "amount": 6771,
  "\u5fc5\u5b9a": 6772,
  "\u8003\u616e": 6773,
  "\u2581tr\u00e4gt": 6774,
  "\u8f09": 6775,
  "\u964d\u4f4e": 6776,
  "\u7684\u90a3\u4e2a": 6777,
  "dienst": 6778,
  "\u2581\u600e\u9ebc": 6779,
  "\u2581stecken": 6780,
  "\u2581Gespr\u00e4ch": 6781,
  "\u5e3d\u5b50": 6782,
  "\u4ec7": 6783,
  "\u51f6": 6784,
  "\u7684\u554f\u984c": 6785,
  "\u4ebf": 6786,
  "\u2581Gegend": 6787,
  "\u2581Gewi\u00df": 6788,
  "elle": 6789,
  "\u5206\u4eab": 6790,
  "\u9886\u5bfc": 6791,
  "\u2581Klein": 6792,
  "\u2581Mond": 6793,
  "\u76f8\u4fe1\u4f60": 6794,
  "\u5177\u4f53": 6795,
  "\u5c1a\u672a": 6796,
  "\u2581\u4f60\u9700\u8981": 6797,
  "\u529f\u80fd": 6798,
  "\u2581Kunst": 6799,
  "\u2581entlang": 6800,
  "\u6d3b\u7740": 6801,
  "\u2581\u505c": 6802,
  "\u2581Br": 6803,
  "\u2581\u96c5": 6804,
  "\u8981\u627e": 6805,
  "1998": 6806,
  "ack": 6807,
  "\u2581Meter": 6808,
  "\u2581Sitzung": 6809,
  "\u8c03\u6574": 6810,
  "list": 6811,
  "\u5b50\u5f39": 6812,
  "\u70ba\u4e86": 6813,
  "leiste": 6814,
  "\u2581gew\u00e4hrleisten": 6815,
  "\u2581\u6df7\u86cb": 6816,
  "\u2581\u767c": 6817,
  "\u770b\u8fc7": 6818,
  "\u2581\u6211\u4f86": 6819,
  "\u8d4c": 6820,
  "18\\": 6821,
  "\u2581Oktober": 6822,
  "\u6321": 6823,
  "\u71c8": 6824,
  "\u5728\u6b64": 6825,
  "\u2581\u9053": 6826,
  "ji": 6827,
  "\u2581Stopp": 6828,
  "\u2581\u6211\u8fd8": 6829,
  "\u53eb\u4ed6": 6830,
  "\u6f22": 6831,
  "\u7684\u7167\u7247": 6832,
  "\u79bb\u5f00\u8fd9\u91cc": 6833,
  "53": 6834,
  "\u2581Wahnsinn": 6835,
  "\u2581\u770b\u6765": 6836,
  "\u2581Maus": 6837,
  "\u2581Rom": 6838,
  "\u2581bauen": 6839,
  "\u2581schwierig": 6840,
  "\u2581\u6211\u628a": 6841,
  "rie": 6842,
  "\u96c6\u56e2": 6843,
  "\u2581Ecke": 6844,
  "\u2581gehalten": 6845,
  "\u2581lebe": 6846,
  "\u2581\u00fcberrascht": 6847,
  "\u2581\u5426\u5219": 6848,
  "\u4e0d\u4e00\u6837": 6849,
  "\u2581Beziehungen": 6850,
  "\u2581EU": 6851,
  "\u5605": 6852,
  "\u2581Zwischen": 6853,
  "\u2581\u7ed3\u679c": 6854,
  "\u4ed6\u4e86": 6855,
  "\u5806": 6856,
  "\u60f3\u60f3": 6857,
  "\u7238": 6858,
  "\u2581Se": 6859,
  "\u2581nah": 6860,
  "\u2581pr\u00fcfen": 6861,
  "\u2581\u4f60\u600e\u4e48\u77e5\u9053": 6862,
  "\u5408\u6cd5": 6863,
  "\u6aa2": 6864,
  "\u2581\u6211\u7684\u5929": 6865,
  "gar": 6866,
  "\u2581Vertrag": 6867,
  "\u8fbe\u6210": 6868,
  "fi": 6869,
  "\u2581\u663e\u793a": 6870,
  "\u4e0a\u73ed": 6871,
  "\u4ec0\u4e48\u7684": 6872,
  "\u593e": 6873,
  "\u6211\u53bb": 6874,
  "\u6253\u96fb\u8a71": 6875,
  "\u9000\u51fa": 6876,
  "hen": 6877,
  "\u2581bleibst": 6878,
  "\u2581teilen": 6879,
  "\u2581\u65e9\u4e0a\u597d": 6880,
  "\u2581\u6839\u636e": 6881,
  "\u2581Gerechtigkeit": 6882,
  "\u5831\u544a": 6883,
  "\u5c06\u519b": 6884,
  "wert": 6885,
  "\u2581Institutionen": 6886,
  "\u2581Objekt": 6887,
  "\u2581Steh": 6888,
  "spiel": 6889,
  "\u2581Fest": 6890,
  "\u2581Unrecht": 6891,
  "\u5404\u56fd\u653f\u5e9c": 6892,
  "\u731b": 6893,
  "\u2581\u54b1\u4eec": 6894,
  "\u2581\u4f60\u4e0d\u77e5\u9053": 6895,
  "\u8282\u76ee": 6896,
  "\u2581Maul": 6897,
  "\u2581\u86e4": 6898,
  "\u9858\u610f": 6899,
  "\u2581sch\u00f6nen": 6900,
  "\u2581\u5973\u58eb": 6901,
  "\u4e2d\u592e": 6902,
  "\u7684\u5efa\u8bae": 6903,
  "\u76d1\u89c6": 6904,
  "\u2581August": 6905,
  "\u2581Streit": 6906,
  "\u2581nutzen": 6907,
  "\u6c47": 6908,
  "\u2581mussten": 6909,
  "\u5f62\u5f0f": 6910,
  "\u7b49\u4e00\u4e0b": 6911,
  "\u3120": 6912,
  "\u2581L\u00fcge": 6913,
  "\u2581\u77a7": 6914,
  "\u53d6\u6d88": 6915,
  "\u5feb\u901f": 6916,
  "\u7684\u653f\u6cbb": 6917,
  "AN": 6918,
  "\u624b\u673a": 6919,
  "\u73fe": 6920,
  "action": 6921,
  "\u6bd4\u4f60": 6922,
  "\u63cf\u8ff0": 6923,
  "\u9489": 6924,
  "\u97f3\u6a02": 6925,
  "haft": 6926,
  "~": 6927,
  "\u01b0": 6928,
  "\u6740\u4e86\u4ed6": 6929,
  "\u2581\u5916": 6930,
  "\u4ef7\u683c": 6931,
  "\u8fde\u63a5": 6932,
  "\u2581betroffen": 6933,
  "\u2581niemandem": 6934,
  "\u737b": 6935,
  "\u70ba\u4f60": 6936,
  "0)": 6937,
  "\u2581Schmerz": 6938,
  "\u627e\u4e2a": 6939,
  "\u75af\u72c2": 6940,
  "ett": 6941,
  "\u2581Au": 6942,
  "\u5176\u5b9e": 6943,
  "\u53d1\u6325": 6944,
  "\u5cf6": 6945,
  "\u2581Setzen": 6946,
  "\u2581\u6211\u770b": 6947,
  "organisationen": 6948,
  "\u2581Afghanistan": 6949,
  "\u2581geholfen": 6950,
  "\u7167\u9867": 6951,
  "\u76f8\u5f53": 6952,
  "\u2581Deswegen": 6953,
  "\u2581Wartet": 6954,
  "\u6210\u672c": 6955,
  "\u2581M\u00f6chte": 6956,
  "\u4e86\u5f88\u591a": 6957,
  "\u2581Todes": 6958,
  "\u2581work": 6959,
  "\u2581\u6253\u5f00": 6960,
  "\u4fdd\u9669": 6961,
  "\u2581meint": 6962,
  "lassen": 6963,
  "\u2581Sekretariat": 6964,
  "\u2581beginnt": 6965,
  "\u51c6\u5907\u597d\u4e86": 6966,
  "\u7a76\u7adf": 6967,
  "\u7b80\u4f53": 6968,
  "\u2581\u79e8": 6969,
  "000000": 6970,
  "\u2581\u7ad2": 6971,
  "\u8fdd\u53cd": 6972,
  "\u2581tolle": 6973,
  "\u2581\u4efb\u4f55": 6974,
  "\u5988": 6975,
  "\u63d0\u9192": 6976,
  "\u5931\u6557": 6977,
  "gekommen": 6978,
  "\u6765\u770b": 6979,
  "\u03bc": 6980,
  "\u2581\u4f4f": 6981,
  "\u906d": 6982,
  "nem": 6983,
  "\u6f02\u4eae\u7684": 6984,
  "\u00e4h": 6985,
  "\u2581\u9019\u4e0d\u662f": 6986,
  "\u793c\u7269": 6987,
  "\u7b80\u5355": 6988,
  "\u2581irgendwann": 6989,
  "\u6709\u8da3": 6990,
  "\u600e\u4e48\u6a23": 6991,
  "\u6eab": 6992,
  "\u75c5\u4eba": 6993,
  "\u2581\u522b\u8fd9\u6837": 6994,
  "\u59bb\u5b50": 6995,
  "\u5c6c": 6996,
  "\u592a\u597d\u4e86": 6997,
  "\u738b\u5b50": 6998,
  "\u2581Wissenschaft": 6999,
  "\u90a3\u4e48\u591a": 7000,
  "\u2581schuldig": 7001,
  "\u2581schwanger": 7002,
  "\u2581\u4f60\u662f\u8bf4": 7003,
  "\u2581Verwirklichung": 7004,
  "\u2581ge\u00f6ffnet": 7005,
  "\u2581\u03c1": 7006,
  "\u2581\u4f60\u8fd9": 7007,
  "\u5bfb\u627e": 7008,
  "aiti": 7009,
  "\u2581festgelegt": 7010,
  "It": 7011,
  "uff": 7012,
  "\u2581\u4f60\u77e5\u9053\u7684": 7013,
  "\u00c3": 7014,
  "\u258121.": 7015,
  "\u6211\u5417": 7016,
  "\u662f\u4ec0\u4e48\u610f\u601d": 7017,
  "\u2581Hut": 7018,
  "\u4e4b\u5916": 7019,
  "\u2581\u9577": 7020,
  "\u2581Tiere": 7021,
  "\u5305\u542b": 7022,
  "\u5b66\u751f": 7023,
  "\u7684\u5f71\u54cd": 7024,
  "\u4ece\u672a": 7025,
  "\u2581Can": 7026,
  "\u2581Schuhe": 7027,
  "\u2581said": 7028,
  "\u4f73": 7029,
  "\u2581Russland": 7030,
  "\u2581gr\u00f6\u00dfer": 7031,
  "\u52dd": 7032,
  "\u7235\u58eb": 7033,
  "\u751a\u9ebc": 7034,
  "\u8d2b\u7a77": 7035,
  "\u51fd\u6570": 7036,
  "\u5c0a": 7037,
  "for": 7038,
  "\u6865": 7039,
  "\u90fd\u80fd": 7040,
  "36": 7041,
  "\u2581Server": 7042,
  "\u2581allerdings": 7043,
  "\u2581verstecken": 7044,
  "\u7c21": 7045,
  "\u2581Erste": 7046,
  "\u2581Zahlen": 7047,
  "\u5b57\u7b26": 7048,
  "\u671f\u5f85": 7049,
  "\u2581Tr": 7050,
  "\u2581Vogel": 7051,
  "\u2581gesamten": 7052,
  "\u2581\u6211\u4ee5\u4e3a": 7053,
  "\u4e00\u4f1a\u513f": 7054,
  "\u6bc1\u4e86": 7055,
  "\u8077": 7056,
  "\u9019\u9ebc\u505a": 7057,
  "\u2581\u5c0d\u5427": 7058,
  "\u2581Beweis": 7059,
  "\u4ee5\u4e0b": 7060,
  "\u780d": 7061,
  "\u4e0d\u51fa": 7062,
  "ake": 7063,
  "\u5b78\u6821": 7064,
  "\u5bbf": 7065,
  "\u2581nerv\u00f6s": 7066,
  "\u2581Tommy": 7067,
  "\u51c6\u5907\u597d": 7068,
  "\u5287": 7069,
  "RS": 7070,
  "\u2581\u8def": 7071,
  "\u601d\u8003": 7072,
  "\u672a\u4f86": 7073,
  "\u77e5\u9053\u4e86": 7074,
  "\u2581Test": 7075,
  "\u2581fern": 7076,
  "\u2581h\u00e4ngt": 7077,
  "\u2581liebst": 7078,
  "\u6d6e": 7079,
  "\u7f70": 7080,
  "\u95ea": 7081,
  "\u4e00\u7a2e": 7082,
  "\u8361": 7083,
  "\u9488\u5bf9": 7084,
  "\u4e00\u4eba": 7085,
  "\u914c": 7086,
  "Koordinierung": 7087,
  "\u4e3a\u4f55": 7088,
  "\u985e": 7089,
  "\u2581vi": 7090,
  "\u2581Gang": 7091,
  "\u2581Regel": 7092,
  "\u2581Wochenende": 7093,
  "\u6269\u5927": 7094,
  "\u75af": 7095,
  "\u50bb\u74dc": 7096,
  "\u53d1\u751f\u4e86": 7097,
  "\u53ef\u6015\u7684": 7098,
  "\u8be5\u6b7b\u7684": 7099,
  "\u2581Wand": 7100,
  "\u2581verfolgen": 7101,
  "\u2581\u6216\u8a31": 7102,
  "\u2581ruft": 7103,
  "\u5132": 7104,
  "\u5c64": 7105,
  "\u84dd": 7106,
  "\u2581Wirtschaft": 7107,
  "\u4e58": 7108,
  "\u7684\u751f\u547d": 7109,
  "\u8b49\u660e": 7110,
  "\u96c6\u4e2d": 7111,
  "\u2581500": 7112,
  "\u2581setzt": 7113,
  "\u2581besuchen": 7114,
  "\u2581schau": 7115,
  "\u2581\u6211\u8ddf": 7116,
  "\u5f8b": 7117,
  "\u2581Finanzierung": 7118,
  "\u2581\u00f6ffentlichen": 7119,
  "\u2581\u8868\u793a": 7120,
  "\u7b2c\u56db": 7121,
  "\u2581hell": 7122,
  "\u2581volle": 7123,
  "\u9858": 7124,
  "\u2581Drink": 7125,
  "\u2581gegessen": 7126,
  "\u2581wichtiger": 7127,
  "\u6ec5": 7128,
  "\u2581Ber\u00fccksichtig": 7129,
  "\u64ad": 7130,
  "\u958b\u69cd": 7131,
  "\u6548\u679c": 7132,
  "\u8aaa\u4e86": 7133,
  "52": 7134,
  "\u2581verpasst": 7135,
  "\u2581\u4f55": 7136,
  "\u0639": 7137,
  "\u2581Vergn\u00fcgen": 7138,
  "\u2581bessere": 7139,
  "\u2581Sprache": 7140,
  "\u3044": 7141,
  "ix": 7142,
  "\u2581Sh": 7143,
  "\u4e0d\u4e0a": 7144,
  "\u8352": 7145,
  "\u5929\u624d": 7146,
  "ile": 7147,
  "nie": 7148,
  "\u963b": 7149,
  "\u2581Carter": 7150,
  "\u2581Claire": 7151,
  "\u62a4": 7152,
  "\u2581En": 7153,
  "\u2581K\u00f6nigs": 7154,
  "\u2581gebaut": 7155,
  "\u2581\u6211\u4eec\u6709": 7156,
  "\u53c3\u52a0": 7157,
  "bin": 7158,
  "\u5949": 7159,
  "isten": 7160,
  "\u2581Einstellungen": 7161,
  "\u6240\u6709\u56fd\u5bb6": 7162,
  "\u2581Freude": 7163,
  "\u4ecb\u610f": 7164,
  "\u8ca0\u8cac": 7165,
  "\u2581Hilf": 7166,
  "\u2581stehe": 7167,
  "\u2581zus\u00e4tzliche": 7168,
  "\u6211\u4eec\u8981": 7169,
  "\u7684\u786e": 7170,
  "\u6beb\u65e0": 7171,
  "\u2581Strom": 7172,
  "\u2581bleib": 7173,
  "\u5a92\u4f53": 7174,
  "\u2581Spur": 7175,
  "\u2581\u4ec0\u4e48\u610f\u601d": 7176,
  "\u2581\u6c92\u4eba": 7177,
  "\u4e5f\u80fd": 7178,
  "\u542f\u52a8": 7179,
  "\u2581\u611b": 7180,
  "sk": 7181,
  "\u4f4f\u4e86": 7182,
  "\u6b8b": 7183,
  "\u7b49\u6211": 7184,
  "\u8bb8": 7185,
  "\u5999": 7186,
  "\u7684\u65e5\u5b50": 7187,
  "\u77f3\u6cb9": 7188,
  "\u2581Kate": 7189,
  "\u2581kannte": 7190,
  "\u56de\u4f86\u4e86": 7191,
  "\u82f1\u91cc": 7192,
  "fnSim": 7193,
  "\u2581rauf": 7194,
  "\u2581Klingt": 7195,
  "\u5feb\u6a02": 7196,
  "\u4e0d\u559c\u6b61": 7197,
  "\u6349": 7198,
  "\u654c\u4eba": 7199,
  "\u8ddf\u8e2a": 7200,
  "rsitzung": 7201,
  "\u2581\u3014": 7202,
  "\u2581Ohren": 7203,
  "\u2581rief": 7204,
  "\u2581\u53d7": 7205,
  "43": 7206,
  "\u2581l\u00e0": 7207,
  "\u2581Code": 7208,
  "\u2581Wozu": 7209,
  "\u2581Lehrer": 7210,
  "\u2581\u4f2f": 7211,
  "\u4e5f\u4e0d\u80fd": 7212,
  "com": 7213,
  "\u2581Loch": 7214,
  "\u2581unseres": 7215,
  "\u2581Berichte": 7216,
  "\u2581behandelt": 7217,
  "\u2581fair": 7218,
  "\u4e3e\u884c\u7684": 7219,
  "\u8054\u90a6": 7220,
  "\u2581Knast": 7221,
  "\u2581gespielt": 7222,
  "\u730e": 7223,
  "tan": 7224,
  "\u2581bewaffnet": 7225,
  "\u5438\u5f15": 7226,
  "\u7d42": 7227,
  "\u95fb": 7228,
  "cy": 7229,
  "\u5750\u4e0b": 7230,
  "\u2581Sarah": 7231,
  "\u2581seltsam": 7232,
  "\u54cd": 7233,
  "\u58c1": 7234,
  "\u2581gleiche": 7235,
  "\u5c3c\u514b": 7236,
  "\u2581\u4e0d\u662f\u5417": 7237,
  "\u534f\u5546": 7238,
  "\u4e49": 7239,
  "tal": 7240,
  "\u2581Ju": 7241,
  "\u571f\u8033\u5176": 7242,
  "\u3082": 7243,
  "\u95ee\u6211": 7244,
  "\u2581Cha": 7245,
  "\u2581aufzunehmen": 7246,
  "\u2581gingen": 7247,
  "\u2581verdienen": 7248,
  "\u2581\u7b2c\u4e8c": 7249,
  "\u5230\u5904": 7250,
  "AL": 7251,
  "ass": 7252,
  "\u2581Norden": 7253,
  "unit": 7254,
  "\u2581dienen": 7255,
  "\u2581w\u00fcsste": 7256,
  "\u6279": 7257,
  "\u75be\u75c5": 7258,
  "\u7f8e\u56fd\u4eba": 7259,
  "\u2581Beeil": 7260,
  "\u2581\u01d0": 7261,
  "\u6c64": 7262,
  "it\u00e4t": 7263,
  "\u2581Beschluss": 7264,
  "\u2581Terrorismus": 7265,
  "\u2581erlaubt": 7266,
  "\u2581falschen": 7267,
  "\u53db": 7268,
  "ute": 7269,
  "\u2581gleichzeitig": 7270,
  "\u4fdd\u5b58": 7271,
  "\u8dd1\u4e86": 7272,
  "{": 7273,
  "\u7684\u8840": 7274,
  "\u0442": 7275,
  "\u2581\u4e54": 7276,
  "programm": 7277,
  "\u2581\u800c\u4e14\u6211": 7278,
  "\u4ed8\u51fa": 7279,
  "\u4f1a\u88ab": 7280,
  "\u500b\u4eba": 7281,
  "ins": 7282,
  "\u2581irre": 7283,
  "\u7bad": 7284,
  "har": 7285,
  "\u53ea\u4f1a": 7286,
  "\u2581aussieht": 7287,
  "\u4e0a\u6b21": 7288,
  "44": 7289,
  "ag": 7290,
  "\u6c42\u4f60": 7291,
  "\u9700\u6c42": 7292,
  "\u258128": 7293,
  "\u2581verbessern": 7294,
  "\u6709\u4e00": 7295,
  "\u2581Fluss": 7296,
  "\u2581en": 7297,
  "\u2581\u6211\u5011\u53ef\u4ee5": 7298,
  "\u5403\u996d": 7299,
  "\u5404\u81ea": 7300,
  "\u706b\u8f66": 7301,
  "\u75f7": 7302,
  "\u96bb": 7303,
  "serv": 7304,
  "\u2581gesamte": 7305,
  "\u52a8\u4f5c": 7306,
  "\u5916\u4ea4": 7307,
  "\u2581werfen": 7308,
  "\u2581\u9023": 7309,
  "\u5e79\u4ec0\u9ebc": 7310,
  "vis": 7311,
  "\u2581Bombe": 7312,
  "\u2581\u9f13\u52b1": 7313,
  "\u2581mehrere": 7314,
  "\u2581\u5728\u8fd9\u91cc": 7315,
  "\u653e\u4e86": 7316,
  "\u90fd\u53ef\u4ee5": 7317,
  "\u2581W\u00fcrden": 7318,
  "\u2581reichen": 7319,
  "\u53ea\u662f\u4e2a": 7320,
  "\u6709\u4f55": 7321,
  "tisch": 7322,
  "\u2581gezeigt": 7323,
  "\u53d8\u5316": 7324,
  "\u61f7": 7325,
  "\u652f\u4ed8": 7326,
  "\u2581B\u00fcrger": 7327,
  "\u2581\u9ed1": 7328,
  "\u5f88\u6e05\u695a": 7329,
  "\u2581Anna": 7330,
  "\u53c3": 7331,
  "\u5de8\u5927\u7684": 7332,
  "\u8eab\u8fb9": 7333,
  "\u2581Erinnerung": 7334,
  "\u2581schauen": 7335,
  "\u2581verschiedenen": 7336,
  "\u7435": 7337,
  "\u77e5\u9053\u7684": 7338,
  "\u7c97": 7339,
  "\u91ab\u9662": 7340,
  "\u2581starten": 7341,
  "\u611f\u8c22": 7342,
  "\u2581\u6211\u559c\u6b61": 7343,
  "\u5206\u5b50": 7344,
  "\u2581\u798f": 7345,
  "\u2581Verstehst": 7346,
  "\u2581angezeigt": 7347,
  "\u8b93\u5979": 7348,
  "\u653b\u64ca": 7349,
  "IM": 7350,
  "\u2581Gas": 7351,
  "\u2581co": 7352,
  "\u2581\u65e0\u8bba": 7353,
  "\u2581\u8ba9\u4ed6": 7354,
  "punkt": 7355,
  "\u2581gesetzt": 7356,
  "\u541b": 7357,
  "\u2581\u4ed6\u6709": 7358,
  "\u7a97\u53e3": 7359,
  "\u9053\u5fb7": 7360,
  "\u505a\u8fc7": 7361,
  "\u2581helfe": 7362,
  "\u7684\u6743\u5229": 7363,
  "IP": 7364,
  "LE": 7365,
  "\u2581Inc": 7366,
  "\u2581entgegen": 7367,
  "\u5185\u5bb9": 7368,
  "this": 7369,
  "\u2581gewartet": 7370,
  "\u2581vorzulegen": 7371,
  "\u2581\u90a3\u91cc": 7372,
  "\u2581geb": 7373,
  "\u2581\u5401": 7374,
  "\u4e0d\u7b97": 7375,
  "\u4e3a\u6211": 7376,
  "\u6587\u5b57": 7377,
  "\u8bed\u8a00": 7378,
  "ez": 7379,
  "\u6c7d\u8f66": 7380,
  "\u2581\u5e0c": 7381,
  "\u662f\u70ba\u4e86": 7382,
  "\u8f15": 7383,
  "\u9084\u8981": 7384,
  "65": 7385,
  "\u6709\u4e86": 7386,
  "5)": 7387,
  "code": 7388,
  "\u51fa\u6765\u7684": 7389,
  "\u2581Freunden": 7390,
  "\u2581Mami": 7391,
  "\u5728\u54ea\u5152": 7392,
  "\u6050\u60e7": 7393,
  "Le": 7394,
  "\u2581Handel": 7395,
  "\u2581Sha": 7396,
  "\u2581Wollt": 7397,
  "\u2581\u627e\u5230": 7398,
  "\u5cbf": 7399,
  "\u2581Haufen": 7400,
  "\u4e5f\u6703": 7401,
  "\u627e\u51fa": 7402,
  "tagung": 7403,
  "\u2581echte": 7404,
  "\u2581gen": 7405,
  "\u2581\u3071": 7406,
  "\u4e00\u5927": 7407,
  "\u5979\u5011": 7408,
  "\u5b89\u5a1c": 7409,
  "\u989c\u8272": 7410,
  "\u5927\u91cf": 7411,
  "\u90e8\u957f": 7412,
  "\u2581Kurs": 7413,
  "\u2581erstatten": 7414,
  "\u6574\u500b": 7415,
  "\u795e\u79d8": 7416,
  "\u8231": 7417,
  "\u2581Beine": 7418,
  "\u2581Sport": 7419,
  "\u2581wette": 7420,
  "\u2581Richard": 7421,
  "\u2581geplant": 7422,
  "\u50b7\u5bb3": 7423,
  "\u5ba2\u4eba": 7424,
  "\u2581Dorf": 7425,
  "\u2581Schul": 7426,
  "ID": 7427,
  "\u5c31\u4e0d\u4f1a": 7428,
  "\u901a\u5e38": 7429,
  "\u7136\u5f8c": 7430,
  "\u7684\u56fd\u9645": 7431,
  "\u901a\u904e": 7432,
  "\u4fdd\u969c": 7433,
  "\u2581St\u00e4rkung": 7434,
  "\u2581\u8056": 7435,
  "\u2581Pause": 7436,
  "\u2581Schatten": 7437,
  "\u2581\u5750\u4e0b": 7438,
  "\u2581Kernwaffen": 7439,
  "\u6fc0": 7440,
  "\u2581Planeten": 7441,
  "\u2581Schrift": 7442,
  "\u2581\u6211\u6b63\u5728": 7443,
  "\u5b66\u4e60": 7444,
  "\u7ed3\u6784": 7445,
  "\u865a": 7446,
  "\u98ef": 7447,
  "way": 7448,
  "\u2581Ri": 7449,
  "\u6700\u5927": 7450,
  "\u9ad8\u5ea6": 7451,
  "\u2581Majest\u00e4t": 7452,
  "\u2581\u516d": 7453,
  "\u2581\u9580": 7454,
  "\u2581\u592b\u4eba": 7455,
  "\u2581Fahren": 7456,
  "\u2581into": 7457,
  "\u2581\u5927\u6982": 7458,
  "\u7684\u91cd\u8981\u6027": 7459,
  "\u2581Gast": 7460,
  "\u2581Johnny": 7461,
  "\u4e86\u6211\u7684": 7462,
  "\u62bc": 7463,
  "\u2581Kugel": 7464,
  "\u2581entfernen": 7465,
  "\u2581\u4f60\u81ea\u5df1": 7466,
  "\u2581\u6211\u8aaa": 7467,
  "\u2581even": 7468,
  "\u2581\u00d6ffentlichkeit": 7469,
  "\u6b50": 7470,
  "\u8001\u9f20": 7471,
  "37": 7472,
  "\u2581\u5374": 7473,
  "\u60f3\u8d77": 7474,
  "\u674e": 7475,
  "\u2581\u4f60\u53bb": 7476,
  "\u2581\u4f60\u8ba4\u4e3a": 7477,
  "\u559d\u4e00\u676f": 7478,
  "\u2581Stell": 7479,
  "\u2581mindestens": 7480,
  "\u2581\u0442": 7481,
  "\u600e\u9ebc\u8fa6": 7482,
  "\u820a": 7483,
  "\u2581Stand": 7484,
  "\u307f": 7485,
  "\u6bcf\u5e74": 7486,
  "\u9644": 7487,
  "\u2581\u6211\u88ab": 7488,
  "\u51fa\u73fe": 7489,
  "\u5de5\u4f5c\u7684": 7490,
  "\u66fe\u7d93": 7491,
  "\u6876": 7492,
  "\u7801": 7493,
  "bringen": 7494,
  "\u4e0d\u8db3": 7495,
  "\u93ae": 7496,
  "\u2581Club": 7497,
  "\u2581Pr\u00fcfung": 7498,
  "\u2581ausge": 7499,
  "\u2581feststellen": 7500,
  "bs": 7501,
  "\u2581gew\u00e4hren": 7502,
  "\u56de\u5bb6\u4e86": 7503,
  "\u72f1": 7504,
  "\u8b93\u6211\u5011": 7505,
  "\u61c9\u7576": 7506,
  "\u2581other": 7507,
  "\u2581\u597d\u597d": 7508,
  "\u2581\u91cd": 7509,
  "\u5091": 7510,
  "\u662f\u5bf9\u7684": 7511,
  "\u7b49\u4f60": 7512,
  "\u7ebf\u7d22": 7513,
  "\u9664\u4e86": 7514,
  "\u2581Such": 7515,
  "weg": 7516,
  "\u2581gewusst": 7517,
  "\u2581new": 7518,
  "haben": 7519,
  "\u2581Rechnung": 7520,
  "\u2581jungen": 7521,
  "\u2581verhaftet": 7522,
  "\u7684\u4fe1\u606f": 7523,
  "\u99ac\u4e0a": 7524,
  "\u2581Besser": 7525,
  "\u2581Karten": 7526,
  "\u2581\u6211\u4e0d\u660e\u767d": 7527,
  "\u635f\u5931": 7528,
  "\u2581\u266a": 7529,
  "\u4fdd\u7559": 7530,
  "\u8001\u5a46": 7531,
  "\u2581lebendig": 7532,
  "\u2581offensichtlich": 7533,
  "\u4e08\u592b": 7534,
  "\u845b": 7535,
  "\u2581V\u00f6lker": 7536,
  "\u6b63\u786e": 7537,
  "\u7434": 7538,
  "\u9986": 7539,
  "set": 7540,
  "\u53ef\u80fd\u6703": 7541,
  "\u8d44\u672c": 7542,
  "title": 7543,
  "\u904d": 7544,
  "ku": 7545,
  "\u2581\u9a6c\u4e0a": 7546,
  "ult": 7547,
  "\u2581keinem": 7548,
  "\u5f15\u8d77": 7549,
  "\u2581Zweifel": 7550,
  "\u62ff\u8d70": 7551,
  "\u2581Banken": 7552,
  "\u2581H\u00f6rst": 7553,
  "\u52fe": 7554,
  "\u81ea\u52a8": 7555,
  "\u4ee5\u5f8c": 7556,
  "\u2581Sergeant": 7557,
  "\u2581Ehemann": 7558,
  "\u2581\u53ef\u80fd\u662f": 7559,
  "\u5de6\u53f3": 7560,
  "\u4eba\u4e86": 7561,
  "pal\u00e4stinensische": 7562,
  "\u2581Frei": 7563,
  "\u2581magst": 7564,
  "\u4e16\u754c\u4e0a": 7565,
  "\u6b7b\u4eba": 7566,
  "\u2581Anti": 7567,
  "\u2581F\u00fchrer": 7568,
  "\u6602": 7569,
  "\u6ca1\u95ee\u9898": 7570,
  "sche": 7571,
  "schlag": 7572,
  "\u2581Ihres": 7573,
  "\u2581Krise": 7574,
  "\u2581chinesische": 7575,
  "\u620f": 7576,
  "\u67d0\u79cd": 7577,
  "\u8266": 7578,
  "\u8a31\u591a": 7579,
  "\u2581Ost": 7580,
  "\u2581dankbar": 7581,
  "\u4e26\u4e0d": 7582,
  "\u5712": 7583,
  "\u5f71\u50cf": 7584,
  "\u6027\u611f": 7585,
  "\u632f": 7586,
  "\u2581M\u00f6glichkeiten": 7587,
  "\u2581dachten": 7588,
  "\u8001\u5144": 7589,
  "\u80fd\u627e\u5230": 7590,
  "\u2581sahen": 7591,
  "\u2581Willen": 7592,
  "\u64b0": 7593,
  "\u6642\u5019": 7594,
  "\u6bba\u4eba": 7595,
  "77": 7596,
  "\u2581\u6211\u4eec\u8d70": 7597,
  "\u2581\u8a71": 7598,
  "\u30ce": 7599,
  "\u4ef7\u503c": 7600,
  "\u538b\u529b": 7601,
  "\u60a3": 7602,
  "\u6301": 7603,
  "\u2581Erfahrung": 7604,
  "\u4e0a\u6821": 7605,
  "\u706d": 7606,
  "\u78e8": 7607,
  "\u2581\u5979\u4eec": 7608,
  "\u5468\u672b": 7609,
  "\u5ba3": 7610,
  "\u2581\u4f60\u53c8": 7611,
  "\u56fd\u9645\u6cd5": 7612,
  "\u5927\u90e8\u5206": 7613,
  "\u662f\u8fd9\u6837": 7614,
  "\u8bf7\u4f60": 7615,
  "\u2581Lieblings": 7616,
  "\u6e9c": 7617,
  "\u8d62\u4e86": 7618,
  "\u958b\u5fc3": 7619,
  "\u2581Wunsch": 7620,
  "\u2581\u6c42\u6c42\u4f60": 7621,
  "\u2581\u7a0b": 7622,
  "\u4e0d\u8d77": 7623,
  "\u2581Washington": 7624,
  "\u2581seht": 7625,
  "bra": 7626,
  "tic": 7627,
  "\u4e8b\u5be6": 7628,
  "\u6709\u4e00\u5929": 7629,
  "\u5bf6\u8c9d": 7630,
  "\u60e0": 7631,
  "\u2581vollst\u00e4ndig": 7632,
  "\u5de7": 7633,
  "\u2581\u9762": 7634,
  "\u62c6": 7635,
  "\u9577\u5b98": 7636,
  "\u2581Fr": 7637,
  "\u2581Kultur": 7638,
  "\u2581betrunken": 7639,
  "\u5f53\u5730": 7640,
  "ric": 7641,
  "\u2581Bringen": 7642,
  "\u2581\u7a2e": 7643,
  "\u5355\u5143": 7644,
  "\u51f1": 7645,
  "hp": 7646,
  "\u2581\u8fde": 7647,
  "\u6746": 7648,
  "\u2581Lande": 7649,
  "\u2581\u51fa\u53bb": 7650,
  "\u600e\u9ebc\u4e86": 7651,
  "\u544a\u8bc9\u5979": 7652,
  "\u78c1": 7653,
  "\u7d1a": 7654,
  "\u2581May": 7655,
  "\u2581letztes": 7656,
  "hin": 7657,
  "\u2581Arme": 7658,
  "\u2581\u4f60\u786e\u5b9a": 7659,
  "\u540c\u6837": 7660,
  "\u751f\u65e5": 7661,
  "\u7b06": 7662,
  "\u80d6": 7663,
  "\u2044": 7664,
  "\u2581Information": 7665,
  "\u2581\u8981\u6211": 7666,
  "gesellschaft": 7667,
  "\u8c22": 7668,
  "\u2581danken": 7669,
  "\u2581gesund": 7670,
  "\u4f18": 7671,
  "\u9635": 7672,
  "\u5f97\u597d": 7673,
  "\u2581M\u00e4rz": 7674,
  "\u2581\u00fcberzeugt": 7675,
  "\u2581\u7b49\u6211": 7676,
  "\u4f86\u81ea": 7677,
  "\u516c\u5f00": 7678,
  "\u525b\u525b": 7679,
  "\u8d5a": 7680,
  "\u901a\u8fc7\u7684": 7681,
  "\u2581bestehende": 7682,
  "\u2581\u4f60\u5c31\u662f": 7683,
  "\u4e00\u5468": 7684,
  "\u94a5\u5319": 7685,
  "\u2581\u7e7c\u7e8c": 7686,
  "\u4e89": 7687,
  "\u6108": 7688,
  "\u2581verfolgt": 7689,
  "\u2581\u4f46\u5979": 7690,
  "\u2581\u5152\u5b50": 7691,
  "\u5c24": 7692,
  "\u2581Deutschen": 7693,
  "\u2581\u51b3\u5b9a": 7694,
  "\u5ead": 7695,
  "\u770b\u4e86": 7696,
  "\u2581Auswahl": 7697,
  "\u2581\u5149": 7698,
  "\u2581\u533b\u751f": 7699,
  "\u62df": 7700,
  "\u661f\u7403": 7701,
  "\u898b\u5230": 7702,
  "\u2581\u5c31\u8fd9\u6837": 7703,
  "\u9f13": 7704,
  "\u2581Gegen": 7705,
  "\u2581Ms": 7706,
  "\u2581\u770b\u8d77\u6765": 7707,
  "\u8a18\u5f97": 7708,
  "\u9a7b": 7709,
  "\u2581CD": 7710,
  "\u2581\u4ee5\u524d": 7711,
  "\u2581\u6770": 7712,
  "\u63aa": 7713,
  "\u7368": 7714,
  "\u8aaa\u4ec0\u9ebc": 7715,
  "que": 7716,
  "\u2581Fa": 7717,
  "\u2581zuf\u00e4llig": 7718,
  "\u6232": 7719,
  "ini": 7720,
  "\u2581\u4f5c\u4e3a": 7721,
  "don": 7722,
  "kr\u00e4ftig": 7723,
  "\u2581Pl\u00e4ne": 7724,
  "\u4f60\u6703": 7725,
  "\u2581Nie": 7726,
  "fahren": 7727,
  "\u2581Why": 7728,
  "\u8bd5\u7740": 7729,
  "\u2581Sheriff": 7730,
  "\u5229\u7387": 7731,
  "\u7684\u6837\u5b50": 7732,
  "\u864e": 7733,
  "val": 7734,
  "\u5389\u5bb3": 7735,
  "\u8001\u5927": 7736,
  "innen": 7737,
  "rin": 7738,
  "\u2581erster": 7739,
  "\u2581hm": 7740,
  "\u6211\u53ea\u662f": 7741,
  "\u63a2\u5458": 7742,
  "\u653e\u68c4": 7743,
  "tle": 7744,
  "\u6298\u78e8": 7745,
  "\u2581Kennen": 7746,
  "\u5ba1": 7747,
  "\u6211\u4e0d\u662f": 7748,
  "\u6a13": 7749,
  "ib": 7750,
  "\u2581k\u00fcmmert": 7751,
  "\u2581\u737a": 7752,
  "\u5c31\u884c\u4e86": 7753,
  "\u2581Anerkennung": 7754,
  "\u2581Status": 7755,
  "\u624b\u6307": 7756,
  "\u65af\u57fa": 7757,
  "\u96a8": 7758,
  "\u2581Abschluss": 7759,
  "\u2581Blumen": 7760,
  "\u2581melden": 7761,
  "\u2581Westen": 7762,
  "\u2581title": 7763,
  "\u627f\u62c5": 7764,
  "\u7531\u4e8e": 7765,
  "\u2581enth\u00e4lt": 7766,
  "\u2581\u6211\u5011\u7684": 7767,
  "\u547c\u53eb": 7768,
  "\u5b97": 7769,
  "\u5bab": 7770,
  "\u91cd\u70b9": 7771,
  "\u2581Richtige": 7772,
  "\u4e0d\u51c6": 7773,
  "\u4e0d\u5bf9": 7774,
  "\u5728\u90a3\u88e1": 7775,
  "\u2581ebenso": 7776,
  "\u5e73\u8861": 7777,
  "\u885b": 7778,
  "\u2581CIA": 7779,
  "\u2581Truppen": 7780,
  "\u2581Witze": 7781,
  "\u5728\u627e": 7782,
  "zone": 7783,
  "\u2581Einrichtung": 7784,
  "\u2581fanden": 7785,
  "\u2581\u591f\u4e86": 7786,
  "key": 7787,
  "32": 7788,
  "ros": 7789,
  "\u5f15\u64ce": 7790,
  "\u627e\u5230\u4ed6": 7791,
  "\u90a3\u5929": 7792,
  "\u2581mitten": 7793,
  "\u2581\u4e5f\u662f": 7794,
  "\u2581\u8be5\u6b7b\u7684": 7795,
  "\u7f69": 7796,
  "\u96fb\u8996": 7797,
  "ari": 7798,
  "\u2581Black": 7799,
  "\u2581Sprich": 7800,
  "\u2581beendet": 7801,
  "\u2581\u5176\u4e2d": 7802,
  "\u2581po": 7803,
  "\u2581\u6211\u4eec\u5c31": 7804,
  "\u2581II": 7805,
  "\u2581Milch": 7806,
  "\u2581lasst": 7807,
  "\u672c\u5730": 7808,
  "39": 7809,
  "\u2581Kapitel": 7810,
  "\u2581\u4e0d\u6703": 7811,
  "\u82b1\u4e86": 7812,
  "\u2581doing": 7813,
  "\u2581l\u00f6schen": 7814,
  "\u5f7b\u5e95": 7815,
  "\u7684\u9879\u76ee": 7816,
  "\u2581irgendetwas": 7817,
  "\u2581l\u00e4cherlich": 7818,
  "\u2581\u4f60\u60f3\u8981": 7819,
  "\u2581\u4f60\u662f\u4e0d\u662f": 7820,
  "\u2581\u4f60\u8fd8\u597d\u5417": 7821,
  "\u4ec0\u9ebc\u6642\u5019": 7822,
  "\u7d10\u7d04": 7823,
  "\u2581\u544a\u8a34\u6211": 7824,
  "\u7f6a\u72af": 7825,
  "\u8bef": 7826,
  ")...": 7827,
  "\u2581sorry": 7828,
  "\u2581Untersuchung": 7829,
  "\u2581\u5df2\u7d93": 7830,
  "\u8a93": 7831,
  "\u2581Ton": 7832,
  "\u2581gr\u00f6\u00dften": 7833,
  "\u5e78\u8fd0": 7834,
  "\u6001": 7835,
  "\u80ce": 7836,
  "\u00f6s": 7837,
  "\u4e9a\u6d32": 7838,
  "\u5e94\u7528": 7839,
  "\u5f88\u9ad8\u5174": 7840,
  "\u7f55": 7841,
  "\u2581feiern": 7842,
  "\u2581wunderbar": 7843,
  "\u4e73": 7844,
  "\u2581Demokratie": 7845,
  "\u2581drinnen": 7846,
  "\u2581\u5c71": 7847,
  "\u533b": 7848,
  "\u6bcf\u5929": 7849,
  "\u2581Bringt": 7850,
  "\u2581Manche": 7851,
  "\u2581set": 7852,
  "\u2581\u5b83\u662f": 7853,
  "\u536b\u751f": 7854,
  "\u9b54\u9b3c": 7855,
  "\u2581\u3015": 7856,
  "\u4e0d\u4ecb\u610f": 7857,
  "\u727a\u7272": 7858,
  "\u4ebf\u7f8e\u5143": 7859,
  "\u5a66": 7860,
  "\u2581Per": 7861,
  "\u2581Wieder": 7862,
  "\u2581\u65e2\u7136": 7863,
  "\u4e00\u5757": 7864,
  "\u4e0d\u80fd\u518d": 7865,
  "\u5b87\u5b99": 7866,
  "\u2581Chris": 7867,
  "\u2581Sch\u00e4tzchen": 7868,
  "\u2581Sub": 7869,
  "\u2581\u516c": 7870,
  "\u4ecb": 7871,
  "\u554f\u4f60": 7872,
  "\u6ef4": 7873,
  "\u7c21\u55ae": 7874,
  "\u2581Laut": 7875,
  "\u65e5\u5b50": 7876,
  "\u2581Fernsehen": 7877,
  "\u2581Lager": 7878,
  "\u2581Meinen": 7879,
  "\u2581voraus": 7880,
  "\u66ff\u6211": 7881,
  "\u767d\u4eba": 7882,
  "\u8fd4\u56de": 7883,
  "\u2581call": 7884,
  "\u7684\u6267\u884c": 7885,
  "\u9001\u5230": 7886,
  "\u2581Let": 7887,
  "\u2581geschlagen": 7888,
  "\u4e92": 7889,
  "\u622a": 7890,
  "\u8db3\u591f": 7891,
  "02": 7892,
  "\u8ab2": 7893,
  "\u5728\u4ed6": 7894,
  "\u6bd4\u8cfd": 7895,
  "satz": 7896,
  "\u2581Hinsicht": 7897,
  "\u2581Rache": 7898,
  "\u2581Sand": 7899,
  "\u2581furchtbar": 7900,
  "\u2581Ober": 7901,
  "\u786e": 7902,
  "\u2581Fick": 7903,
  "\u2581\u51c6\u5907": 7904,
  "\u2581Held": 7905,
  "\u53eb\u505a": 7906,
  "\u7b49\u8457": 7907,
  "\u88d4": 7908,
  "\u8d3e": 7909,
  "\u2581daraus": 7910,
  "\u2581gew\u00e4hlt": 7911,
  "\u2581ungef\u00e4hr": 7912,
  "\u2581\u767d": 7913,
  "\u4e7e": 7914,
  "\u50f9": 7915,
  "\u6211\u5f97": 7916,
  "\u8ba1\u7b97": 7917,
  "ee": 7918,
  "\u5f97\u591a": 7919,
  "\u975c": 7920,
  "\u2581300": 7921,
  "\u2581Fuck": 7922,
  "\u2581Str": 7923,
  "\u5c0d\u5427": 7924,
  "Und": 7925,
  "\u2581ha": 7926,
  "\u2581zumindest": 7927,
  "\u624d\u4f1a": 7928,
  "\u77e5\u9053\u4ed6": 7929,
  "\u8eab\u9ad4": 7930,
  "\u2581Sechs": 7931,
  "<": 7932,
  "\u2581Zeitung": 7933,
  "\u91cd\u5efa": 7934,
  "\u2581ra": 7935,
  "\u4eba\u5bb6": 7936,
  "\u6f14\u51fa": 7937,
  "\u00f4": 7938,
  "\u2581Martin": 7939,
  "\u2581Regional": 7940,
  "\u2581au\u00dferhalb": 7941,
  "\u8bb0\u8005": 7942,
  "stein": 7943,
  "\u2581abzu": 7944,
  "\u2581lhre": 7945,
  "\u2581\u00e4hnlich": 7946,
  "\u2581fassen": 7947,
  "\u2581\u6211\u81ea\u5df1": 7948,
  "\u6388\u6743": 7949,
  "\u8bf4\u6211": 7950,
  "\u2581singen": 7951,
  "\u2581\u8a72\u6b7b": 7952,
  "\u4e0b\u7684": 7953,
  "\u9700": 7954,
  "\u59d3": 7955,
  "\u90a3\u4f4d": 7956,
  "\u2581\u7d04\u7ff0": 7957,
  "lock": 7958,
  "press": 7959,
  "\u2581Tatsache": 7960,
  "\u2581bekomme": 7961,
  "\u2581fiel": 7962,
  "\u53cc\u65b9": 7963,
  "\u570b\u5bb6": 7964,
  "\u8868\u8fbe": 7965,
  "\u2581Basis": 7966,
  "\u2581\u00fcberlebt": 7967,
  "\u5efa\u8b70": 7968,
  "\u2581\u4f60\u600e\u9ebc": 7969,
  "\u6050\u6016\u4e3b\u4e49": 7970,
  "\u8070\u660e": 7971,
  "\u00c4": 7972,
  "\u2581Grenze": 7973,
  "\u2581K\u00fcche": 7974,
  "\u2581Leider": 7975,
  "\u2581\u76f4": 7976,
  "\u2581\u796d": 7977,
  "\u5929\u5802": 7978,
  "\u6f0f": 7979,
  "\u2581Iran": 7980,
  "\u6bcf\u5929\u90fd": 7981,
  "leben": 7982,
  "\u2581wohnt": 7983,
  "\u8f6f": 7984,
  "\u2581Rot": 7985,
  "\u2581eingeladen": 7986,
  "\u6012": 7987,
  "\u770b\u5230\u7684": 7988,
  "\u8d0f": 7989,
  "\u5728\u5bb6": 7990,
  "\u5730\u70b9": 7991,
  "\u8303\u56f4\u5185": 7992,
  "\u831c": 7993,
  "politik": 7994,
  "\u2581\u6211\u4ee5\u524d": 7995,
  "\u51fa\u6765\u4e86": 7996,
  "\u5411\u6211": 7997,
  "\u4e0d\u6e05\u695a": 7998,
  "\u53e6\u5916": 7999,
  "\u6076\u9b54": 8000,
  "\u6dfb\u52a0": 8001,
  "ons": 8002,
  "rick": 8003,
  "\u722d": 8004,
  "day": 8005,
  "\u1ea5": 8006,
  "\u8b66\u65b9": 8007,
  "\u2581\u660e\u767d": 8008,
  "\u5247": 8009,
  "\u5728\u6211\u7684": 8010,
  "\u7279\u6b8a": 8011,
  "\u9488": 8012,
  "\u2581Waren": 8013,
  "\u2581erf\u00fcllt": 8014,
  "\u2581sc": 8015,
  "\u7ed1": 8016,
  "\u52e2": 8017,
  "\u544a\u8bc9\u6211\u4eec": 8018,
  "\u63a5\u89e6": 8019,
  "hy": 8020,
  "\u2581brechen": 8021,
  "\u963f\u62c9\u4f2f": 8022,
  "\u5e72\u51c0": 8023,
  "\u68c4": 8024,
  "\u8b77": 8025,
  "\u4e4e": 8026,
  "\u5929\u554a": 8027,
  "\u592a\u591a\u4e86": 8028,
  "\u2581m\u00f6chtest": 8029,
  "\u3073": 8030,
  "\u5c38": 8031,
  "\u65e5\u5728": 8032,
  "\u8fdf": 8033,
  "buch": 8034,
  "\u2581Gesundheit": 8035,
  "\u2581reich": 8036,
  "\u2581woher": 8037,
  "\u952e": 8038,
  "\u2581zufrieden": 8039,
  "\u770b\u4e0d\u5230": 8040,
  "\u8d26\u6237": 8041,
  "\u6070": 8042,
  "\u6700\u5f8c": 8043,
  "\u7b7e\u7f72": 8044,
  "\u4e13\u5458": 8045,
  "\u2581\u8fd9\u4e00": 8046,
  "\u4e13\u4e1a": 8047,
  "\u7b2c\u4e00\u4e2a": 8048,
  "US": 8049,
  "\u2581Abendessen": 8050,
  "\u8bf4\u4ed6": 8051,
  "\u78ba\u5be6": 8052,
  "\u2581\u4e01": 8053,
  "\u4fd7": 8054,
  "\u5373\u5c06": 8055,
  "\u55b7": 8056,
  "\u958b\u73a9\u7b11": 8057,
  "\u2581Gu": 8058,
  "\u2581Labor": 8059,
  "\u2581Paar": 8060,
  "\u2581kostet": 8061,
  "\u53c8\u4e0d\u662f": 8062,
  "\u7761\u89ba": 8063,
  "\u79fb\u6c11": 8064,
  "\u2581Tr\u00e4ume": 8065,
  "\u2581why": 8066,
  "\u2581\u6211\u9700\u8981\u4f60": 8067,
  "\u627f": 8068,
  "zeichen": 8069,
  "\u2581F\u00fchrung": 8070,
  "\u2581\u6240\u6709\u7684": 8071,
  "\u5dee\u70b9": 8072,
  "\u4e94\u5341": 8073,
  "\u7de8": 8074,
  "\u8ffd\u8e2a": 8075,
  "\u2581Gro\u00df": 8076,
  "\u6bc1": 8077,
  "\u2581manche": 8078,
  "\u4e95": 8079,
  "\u75af\u5b50": 8080,
  "\u7ecf\u8d39": 8081,
  "\u8d5e\u8d4f": 8082,
  "\u2581Kunden": 8083,
  "\u2581spreche": 8084,
  "\u7236\u89aa": 8085,
  "\u841d": 8086,
  "\u8b1d": 8087,
  "\u2581Fo": 8088,
  "\u2581erzielt": 8089,
  "\u5e9f": 8090,
  "\u2581freue": 8091,
  "\u51fa\u53d1": 8092,
  "\u570b\u738b": 8093,
  "\u592e": 8094,
  "\u7684\u611f\u89c9": 8095,
  "\u76ee\u6a19": 8096,
  "\u2581\u6ca1\u6709\u4eba": 8097,
  "\u710a": 8098,
  "get": 8099,
  "\u2581Jahres": 8100,
  "\u627f\u53d7": 8101,
  "\u2581file": 8102,
  "\u2581\u6050\u6015": 8103,
  "\u4f60\u4e5f": 8104,
  "\u6ca1\u5173\u7cfb": 8105,
  "\u8587": 8106,
  "bereich": 8107,
  "fa": 8108,
  "\u2581einander": 8109,
  "\u5dee\u4e0d\u591a": 8110,
  "\u64ad\u653e": 8111,
  "\u6709\u52a9\u4e8e": 8112,
  "What": 8113,
  "\u2581behandeln": 8114,
  "\u2581europ\u00e4ische": 8115,
  "\u2581\u4ed6\u6703": 8116,
  "\u2581\u4f60\u559c\u6b22": 8117,
  "\u2581\u5e15": 8118,
  "\u9ad8\u4e2d": 8119,
  "\u2581ange": 8120,
  "si": 8121,
  "\u4e0d\u5c11": 8122,
  "\u5269": 8123,
  "\u80a1": 8124,
  "wirtschaft": 8125,
  "\u533b\u7597": 8126,
  "arr": 8127,
  "handel": 8128,
  "ino": 8129,
  "plan": 8130,
  "\u2581Pre": 8131,
  "\u2581Sagt": 8132,
  "\u2581interessant": 8133,
  "\u2581willen": 8134,
  "\u2581\u6211\u4eec\u73b0\u5728": 8135,
  "\u2581\u8dd1": 8136,
  "\u9634": 8137,
  "\u2581Leichen": 8138,
  "mittel": 8139,
  "\u2581Erinnerst": 8140,
  "\u2581gewi\u00df": 8141,
  "\u542c\u6211\u8bf4": 8142,
  "\u59ec": 8143,
  "\u6c92\u4eba": 8144,
  "\u7169": 8145,
  "\u904e\u4e86": 8146,
  "BAR": 8147,
  "lar": 8148,
  "\u2581Bedingungen": 8149,
  "\u2581notwendig": 8150,
  "\u90fd\u77e5\u9053": 8151,
  "eck": 8152,
  "enfalls": 8153,
  "\u2581Schnee": 8154,
  "\u2581bieten": 8155,
  "\u2581kh\u00f4ng": 8156,
  "\u2581\u5bf9\u5417": 8157,
  "\u2581\u6551\u547d": 8158,
  "\u2581\u96e2": 8159,
  "\u4f60\u4e0d\u80fd": 8160,
  "\u7a3f": 8161,
  "And": 8162,
  "lang": 8163,
  "\u2581herausfinden": 8164,
  "\u2581\u4f60\u5df2\u7ecf": 8165,
  "\u2581\u5bf9\u4e86": 8166,
  "\u4f1f\u5927\u7684": 8167,
  "\u7684\u8863\u670d": 8168,
  "CT": 8169,
  "bild": 8170,
  "\u2581l\u00e4ngst": 8171,
  "\u770b\u904e": 8172,
  "sy": 8173,
  "\u2581Pi": 8174,
  "\u535c": 8175,
  "\u6216\u662f": 8176,
  "staatliche": 8177,
  "\u2581Come": 8178,
  "\u2581Frankreich": 8179,
  "\u2581Hoheitsgebiet": 8180,
  "\u2581einge": 8181,
  "\u2581\u4f60\u662f\u8c01": 8182,
  "\u7684\u60f3\u6cd5": 8183,
  "\u2581Kap": 8184,
  "\u2581erschaffen": 8185,
  "\u2581\u5f8c": 8186,
  "\u5662": 8187,
  "\u8ba4\u8bc6\u5230": 8188,
  "51": 8189,
  "\u2581Knie": 8190,
  "\u2581Runde": 8191,
  "\u2581h\u00e4ngen": 8192,
  "\u2581\u5982\u679c\u4f60\u60f3": 8193,
  "\u2581Mc": 8194,
  "\u2581Quatsch": 8195,
  "\u2581dauern": 8196,
  "0.": 8197,
  "\u2581erfolgreich": 8198,
  "\u2581\u4e00\u76f4": 8199,
  "\u5fcd": 8200,
  "\u8d56": 8201,
  "\u2581\u54c8\u5229": 8202,
  "\u65f6\u4ee3": 8203,
  "\u7684\u6642\u9593": 8204,
  "UN": 8205,
  "\u2581Bildung": 8206,
  "\u2581OF": 8207,
  "\u2581qu": 8208,
  "\u2581\u6c99": 8209,
  "\u4e0d\u662f\u5417": 8210,
  "\u53bb\u54ea": 8211,
  "\u58f0\u660e": 8212,
  "\u2581\u5973": 8213,
  "ischer": 8214,
  "\u2581leiden": 8215,
  "\u2581much": 8216,
  "\u2581st\u00e4rken": 8217,
  "\u5f97\u4e86": 8218,
  "\u7efc\u5408": 8219,
  "\u0623": 8220,
  "\u4fdd\u8b49": 8221,
  "\u2581Bedrohung": 8222,
  "\u2581Date": 8223,
  "\u2581fragte": 8224,
  "\u2581verabschiedet": 8225,
  "teil": 8226,
  "\u0223": 8227,
  "\u2581k\u00fcmmere": 8228,
  "\u2581schei\u00df": 8229,
  "\u2581\u5230\u5e95": 8230,
  "\u53a8": 8231,
  "\u5f8b\u5e2b": 8232,
  "\u2581unterhalten": 8233,
  "\u2581\u79d1": 8234,
  "\u770b\u8457": 8235,
  "\u2581krieg": 8236,
  "\u4e00\u689d": 8237,
  "\u6293\u5230": 8238,
  "\u7ed9\u4e88": 8239,
  "esordnungspunkt": 8240,
  "\u062f": 8241,
  "\u2581Anzug": 8242,
  "\u734e": 8243,
  "\u2581sonstige": 8244,
  "\u4e8b\u9879": 8245,
  "\u56fd\u5bb6\u548c": 8246,
  "\u770b\u6211": 8247,
  "schw": 8248,
  "\u5bf9\u6211\u4eec": 8249,
  "\u5c1a": 8250,
  "\u2581einzigen": 8251,
  "\u6c61": 8252,
  "\u8d21\u732e": 8253,
  "\u541e": 8254,
  "\u628a\u6211\u4eec": 8255,
  "\u9a97": 8256,
  "\u2581gibst": 8257,
  "\u4efb\u52d9": 8258,
  "\u5f03": 8259,
  "\u2581Rose": 8260,
  "\u2581folgenden": 8261,
  "\u2581\u4ed6\u4eec\u662f": 8262,
  "\u4f53\u7cfb": 8263,
  "\u66ff\u4f60": 8264,
  "\u672f": 8265,
  "\u6ca1\u6cd5": 8266,
  "\u2581Han": 8267,
  "\u2581traf": 8268,
  "\u4e0d\u53ef\u4ee5": 8269,
  "\u670d\u52d9": 8270,
  "\u2581\u5439": 8271,
  "\u5973\u738b": 8272,
  "\u79ef": 8273,
  "Schaffung": 8274,
  "\u2581Gr": 8275,
  "\u2581sh": 8276,
  "\u2581\u56e0\u70ba\u4f60": 8277,
  "\u574f\u4e86": 8278,
  "\u9edb": 8279,
  "\u2581Kennst": 8280,
  "\u2581Werte": 8281,
  "\u2581gemeint": 8282,
  "\u539a": 8283,
  "treffen": 8284,
  "\u2581lie\u00dfen": 8285,
  "\u4f26\u6566": 8286,
  "\u540d\u79f0": 8287,
  "\u6848\u4ef6": 8288,
  "\u2581Deckung": 8289,
  "\u2581Robert": 8290,
  "\u2581t\u00f4i": 8291,
  "\u5c3d\u5feb": 8292,
  "\u6f6e": 8293,
  "\u7edf\u4e00": 8294,
  "\u2581\u4f60\u6ca1\u6709": 8295,
  "\u63a5\u5230": 8296,
  "\u672c\u56fd": 8297,
  "\u2581Bad": 8298,
  "\u2581Dreh": 8299,
  "\u2581Oma": 8300,
  "\u4f50": 8301,
  "\u5fc5\u8981\u7684": 8302,
  "\u6253\u958b": 8303,
  "\u963f\u5c14": 8304,
  "\u2581Grab": 8305,
  "\u2581hinzuf\u00fcgen": 8306,
  "\u2581vermutlich": 8307,
  "\u7684\u78ba": 8308,
  "fenster": 8309,
  "\u2581gem\u00e4\u00df": 8310,
  "\u4e00\u7247": 8311,
  "\u5168\u90fd": 8312,
  "\u2581Au\u00dfer": 8313,
  "\u2581S\u00fcd": 8314,
  "\u2581\u65e9": 8315,
  "\u521b": 8316,
  "73": 8317,
  "\u2581Abschnitt": 8318,
  "\u2581erwachsen": 8319,
  "\u2581\u662f\u4ed6": 8320,
  "\u5199\u7684": 8321,
  "\u5fcd\u53d7": 8322,
  "\u6076\u5fc3": 8323,
  "\u9057": 8324,
  "\u2581Cor": 8325,
  "stelle": 8326,
  "\u600e\u4e48\u56de\u4e8b": 8327,
  "\u9280\u884c": 8328,
  "vin": 8329,
  "\u2581Garten": 8330,
  "\u836f\u7269": 8331,
  "\u96be\u4ee5": 8332,
  "ln": 8333,
  "\u2581Sieg": 8334,
  "\u6247": 8335,
  "\u9009\u4e2d": 8336,
  "weather": 8337,
  "\u2581Lieber": 8338,
  "ere": 8339,
  "legen": 8340,
  "\u01ce": 8341,
  "\u2581ausw\u00e4hlen": 8342,
  "\u2581erstellen": 8343,
  "\u2581\u6709\u4e2a": 8344,
  "\u2581City": 8345,
  "\u2581drehen": 8346,
  "\u2581sprachen": 8347,
  "\u76d2": 8348,
  "\u2581Monsieur": 8349,
  "\u2581Papier": 8350,
  "\u2581Schritte": 8351,
  "\u505a\u5f97": 8352,
  "\u6709\u591a\u5c11": 8353,
  "\u516c\u4f17": 8354,
  "\u6210\u679c": 8355,
  "Mo": 8356,
  "\u8fd0\u884c": 8357,
  "ool": 8358,
  "\u2581Cool": 8359,
  "\u4e0d\u80af": 8360,
  "\u5152\u5b50": 8361,
  "\u8ddf\u6211\u4eec": 8362,
  "\u8fc7\u7a0b": 8363,
  "qu": 8364,
  "\u2581Datenbank": 8365,
  "\u5730\u72f1": 8366,
  "\u6551\u4e86": 8367,
  "OF": 8368,
  "ski": 8369,
  "\u2581K\u00f6nnten": 8370,
  "\u2581Lily": 8371,
  "\u5e72\u6389": 8372,
  "\u5e76\u975e": 8373,
  "elt": 8374,
  "tra": 8375,
  "\u2581\u597d\u5566": 8376,
  "\u2581\u8a72": 8377,
  "4}": 8378,
  "fr": 8379,
  "\u2581\u4fbf": 8380,
  "\u4ec1": 8381,
  "\u8fa6\u6cd5": 8382,
  "\u8fc7\u6e21": 8383,
  "gang": 8384,
  "\u00ed": 8385,
  "\u518d\u898b": 8386,
  "2009": 8387,
  "van": 8388,
  "\u2581Absicht": 8389,
  "\u2581herein": 8390,
  "\u2581\u6700\u597d": 8391,
  "\u638c\u63e1": 8392,
  "\u6f58": 8393,
  "\u73b0\u573a": 8394,
  "\u7684\u4e3b": 8395,
  "\u2581Deutschland": 8396,
  "\u6709\u6c92\u6709": 8397,
  "\u771f\u4e3b\u7684": 8398,
  "\u7d50\u5a5a": 8399,
  "\u7f13": 8400,
  "rad": 8401,
  "\u2581nimmst": 8402,
  "\u2581\u8fd9\u662f\u6211\u7684": 8403,
  "\u4e0b\u4e86": 8404,
  "\u6436": 8405,
  "\u660f": 8406,
  "\u7f3a\u4e4f": 8407,
  "\u2581Fr\u00fchst\u00fcck": 8408,
  "\u2581funktionieren": 8409,
  "\u2581than": 8410,
  "\u2581\u4ed6\u60f3": 8411,
  "\u2581\u73b0\u5728\u6211": 8412,
  "\u624b\u672f": 8413,
  "\u9636\u6bb5": 8414,
  "\u2581wovon": 8415,
  "\u2581God": 8416,
  "\u4e49\u52a1": 8417,
  "\u6211\u5f88": 8418,
  "\u4ece\u6ca1": 8419,
  "\u51b3\u7b56": 8420,
  "\u521a\u679c": 8421,
  "\u597d\u6d88\u606f": 8422,
  "\u67dc": 8423,
  "\u2581Doc": 8424,
  "\u2581Kreuz": 8425,
  "\u2581abgehalten": 8426,
  "\u2581\u4e0a\u9762": 8427,
  "\u6740\u624b": 8428,
  "\u6750": 8429,
  "\u2581Fertig": 8430,
  "\u2581Kohle": 8431,
  "\u7740\u6211": 8432,
  "ES": 8433,
  "\u2581very": 8434,
  "\u4f3c\u7684": 8435,
  "\u5a29": 8436,
  "\u2581Danny": 8437,
  "\u2581Wal": 8438,
  "\u56db\u4e2a": 8439,
  "\u8ddf\u7740": 8440,
  "\u2581Pflicht": 8441,
  "\u2581\u4ed6\u4eec\u8bf4": 8442,
  "\u2581\u5168\u90e8": 8443,
  "\u4e5f\u6c92": 8444,
  "\u5e05": 8445,
  "\u611f\u60c5": 8446,
  "sehen": 8447,
  "\u2581Beh\u00f6rden": 8448,
  "\u5168\u662f": 8449,
  "\u7948\u7977": 8450,
  "cher": 8451,
  "\u2581\u6211\u4eec\u5df2\u7ecf": 8452,
  "\u2581\u884c\u4e86": 8453,
  "\u2581first": 8454,
  "\u308c": 8455,
  "\u6bd5": 8456,
  "\u767e\u4e07": 8457,
  "\u91cd\u8981\u7684": 8458,
  "\u2581\u5176\u5be6": 8459,
  "\u2581Strategie": 8460,
  "\u2581Wachstum": 8461,
  "\u2581ph": 8462,
  "\u4e00\u6bb5": 8463,
  "\u2581mitnehmen": 8464,
  "\u5a5a\u793c": 8465,
  "\u5f88\u6709\u8da3": 8466,
  "\u653b": 8467,
  "\u7a33": 8468,
  "\u2581wahre": 8469,
  "\u5cb8": 8470,
  "\u90fd\u6c92": 8471,
  "\u96c7": 8472,
  "\u5835": 8473,
  "\u6f54": 8474,
  "\u2581entkommen": 8475,
[...]
