{
  "</s>": 0,
  "<unk>": 1,
  ".": 2,
  ",": 3,
  "?": 4,
  "\u2581-": 5,
  "\u2581": 6,
  "!": 7,
  "\u2581Ich": 8,
  "\u2581ist": 9,
  "\u2581ich": 10,
  "\u2581Sie": 11,
  "\u2581nicht": 12,
  "...": 13,
  "\u7684": 14,
  "\u2581du": 15,
  "\u2581das": 16,
  "\u2581die": 17,
  "\u4e86": 18,
  "\u2581es": 19,
  "\u2581und": 20,
  "\u2581zu": 21,
  "s": 22,
  "\u2581der": 23,
  "\u2581sie": 24,
  "\u2581Das": 25,
  "\u2581ein": 26,
  "\u2581\u6211": 27,
  "\u2581in": 28,
  "\u2581wir": 29,
  "\u2581mir": 30,
  "\u2581\u4f60": 31,
  "\u3002": 32,
  "\u2581Was": 33,
  "\u2581Du": 34,
  "\u6211": 35,
  "\u2581mit": 36,
  "\u2581mich": 37,
  "\u2581was": 38,
  "\u4f60": 39,
  "\u2581den": 40,
  "\u2581auf": 41,
  "\u2581dass": 42,
  "en": 43,
  "\u2581er": 44,
  "\u2581Und": 45,
  "\u2581dich": 46,
  "\u2581Wir": 47,
  "\u2581hat": 48,
  "\u2581sind": 49,
  "\u2581Es": 50,
  "\u2581eine": 51,
  "\u2581so": 52,
  "e": 53,
  "'": 54,
  "\u2581haben": 55,
  "\u2581war": 56,
  "\u2581f\u00fcr": 57,
  "\u2581an": 58,
  "\u5417": 59,
  "\u2581hier": 60,
  "\u2581von": 61,
  "\u2581Er": 62,
  "\u2581bin": 63,
  "\u2581dir": 64,
  "\u2581habe": 65,
  "n": 66,
  "\u2581wie": 67,
  "\u2581Nein": 68,
  "\u2581Ja": 69,
  "\u2581\"": 70,
  "\u2581uns": 71,
  "\u2581noch": 72,
  "-": 73,
  "\u2581Die": 74,
  "\u2581sich": 75,
  "\u2581einen": 76,
  "\"": 77,
  "\u2581nur": 78,
  "\u662f": 79,
  "\u5427": 80,
  "\u2581aus": 81,
  "\u2581da": 82,
  "\u5728": 83,
  "\u2581ihn": 84,
  "\u2581dem": 85,
  "\u2581hast": 86,
  "\u4ed6": 87,
  "\u2581\u4ed6": 88,
  "\u2581ihr": 89,
  "\u2581Aber": 90,
  "\u2581schon": 91,
  "\u2581auch": 92,
  "\u2581sein": 93,
  "\u2581Wie": 94,
  "\u2581kann": 95,
  "t": 96,
  "\u2581aber": 97,
  "\u2581wenn": 98,
  "\u2581um": 99,
  "\u2581mal": 100,
  "\u2581wird": 101,
  "\u2581gut": 102,
  "\u2581bist": 103,
  ":": 104,
  "\u2581als": 105,
  "\u2581\u4e0d": 106,
  "\u2581wei\u00df": 107,
  "\u55ce": 108,
  "\u2581im": 109,
  "er": 110,
  "\u2581meine": 111,
  "\u2581\u6211\u4eec": 112,
  "\u2581jetzt": 113,
  "\u2581doch": 114,
  "\u554a": 115,
  "\u4e0d": 116,
  "\u6709": 117,
  "\u2581nach": 118,
  "\u5462": 119,
  "\u548c": 120,
  "\u5979": 121,
  "\u2581ja": 122,
  "\u2581will": 123,
  "\u2581Wenn": 124,
  "\u2581mein": 125,
  "\u2581Der": 126,
  "\u2581oder": 127,
  "\u4eba": 128,
  "\u2581werden": 129,
  "\u2581hab": 130,
  "\u2581muss": 131,
  "\u2581\u5979": 132,
  "\u2581geht": 133,
  "\u2581Ihr": 134,
  "\u2581alles": 135,
  "\u2581mehr": 136,
  "\u2581dann": 137,
  "\u2581nichts": 138,
  "st": 139,
  "\u6211\u4eec": 140,
  "\u53bb": 141,
  "\u2581keine": 142,
  "\u4e0a": 143,
  "\u2581Oh": 144,
  "\u2581etwas": 145,
  "\u2581immer": 146,
  "\u2581vor": 147,
  "\u2581wieder": 148,
  "\u2581bei": 149,
  ")": 150,
  "\u5230": 151,
  "\u2581man": 152,
  "\u2581Ist": 153,
  "\u2581Mann": 154,
  "\u2581Ihnen": 155,
  "\u2581tun": 156,
  "\u8981": 157,
  "\u2581sagen": 158,
  "\u2581ihm": 159,
  "\u2581k\u00f6nnen": 160,
  "\u2581machen": 161,
  "\u2581zum": 162,
  "\u2581\u00fcber": 163,
  "\u2581Ein": 164,
  "\u5c31": 165,
  "\u2581denn": 166,
  "\u2581einem": 167,
  "\u2581\u662f": 168,
  "\u2581sehen": 169,
  "\u2581Warum": 170,
  "\u2581m\u00fcssen": 171,
  "\u2581los": 172,
  "\u90fd": 173,
  "\u2581alle": 174,
  "\u6765": 175,
  "\u2581nie": 176,
  "\u2581euch": 177,
  "\u4f1a": 178,
  "\u2581sehr": 179,
  "\u2581gehen": 180,
  "\u2581Wo": 181,
  "\u2581einer": 182,
  "\u2581gibt": 183,
  "\u2581(": 184,
  "\u597d": 185,
  "\u2581\u6211\u5011": 186,
  "\u8bf4": 187,
  "\u2581deine": 188,
  "\u2581werde": 189,
  "\u2581Komm": 190,
  "\u2581So": 191,
  "\u7684\u4eba": 192,
  "\u2581soll": 193,
  "\u4ec0\u4e48": 194,
  "\u2581'": 195,
  "\u2581Hey": 196,
  "\u2581Da": 197,
  "\u2581wissen": 198,
  "\u91cc": 199,
  "\u2581bitte": 200,
  "\u2581\u90a3": 201,
  "\u2581einfach": 202,
  "\u2581Also": 203,
  "\u2581\u8fd9": 204,
  "\u4ed6\u4eec": 205,
  "\u2581w\u00fcrde": 206,
  "\u2581viel": 207,
  "\u2581Danke": 208,
  "\u2581Dann": 209,
  "\u90a3": 210,
  "\u2581gesagt": 211,
  "\u5927": 212,
  "\u2581des": 213,
  "\u4e00": 214,
  "\u2581\u4ed6\u4eec": 215,
  "\u2581hatte": 216,
  "\u2581\u4f46": 217,
  "\u2581ab": 218,
  "\u2581diese": 219,
  "\u2581\u662f\u7684": 220,
  "\u2581Zeit": 221,
  "\u88ab": 222,
  "\u2581Gott": 223,
  "\u2581zur\u00fcck": 224,
  "\u2581\u5728": 225,
  "\u2581In": 226,
  "\u2581Nicht": 227,
  "\u2581Wer": 228,
  "\u2581Hier": 229,
  "\u505a": 230,
  "\u5f97": 231,
  "\u5148\u751f": 232,
  "\u2581\u597d": 233,
  "\u2581am": 234,
  "\u2581kein": 235,
  "\u2581Na": 236,
  "\u8fd9": 237,
  "\u2581wirklich": 238,
  "\u2581Leben": 239,
  "\u4f60\u7684": 240,
  "\u2581\u597d\u5427": 241,
  "\u2581wollte": 242,
  "\u6211\u5011": 243,
  "\u2581dein": 244,
  "\u80fd": 245,
  "\u5b83": 246,
  "\u2581w\u00e4re": 247,
  "es": 248,
  "\u60f3": 249,
  "\u2581Frau": 250,
  "\u2581weg": 251,
  "\u2581wollen": 252,
  "\u2581wo": 253,
  "\u2581wurde": 254,
  "\u2581\u54e6": 255,
  "\u2581damit": 256,
  "\u2581meinen": 257,
  "\u2581Ihre": 258,
  "\u2581Okay": 259,
  "\u2581Mein": 260,
  "\u2581heute": 261,
  "\u4e5f": 262,
  "\u628a": 263,
  "\u4e00\u4e2a": 264,
  "\u2581willst": 265,
  "\u81ea\u5df1": 266,
  "\u2581leid": 267,
  "\u2581kommen": 268,
  "r": 269,
  "\u2581sicher": 270,
  "\u2581kommt": 271,
  "\u5f88": 272,
  "\u2581Jetzt": 273,
  "\u00b7": 274,
  "\u2581Alles": 275,
  "\u2581ganz": 276,
  "\u2581kannst": 277,
  "\u7528": 278,
  "\u2581\u6211\u8981": 279,
  "\u2581Bitte": 280,
  "\u2581\u4ec0\u4e48": 281,
  "\u0438": 282,
  "\u8d70": 283,
  "\u2581tut": 284,
  "\u2581\u6211\u662f": 285,
  "\u65af": 286,
  "\u4e2d": 287,
  "\u2581Hast": 288,
  "\u2581I": 289,
  "\u2581\u8fd9\u662f": 290,
  "y": 291,
  "\u2581\u6211\u60f3": 292,
  "\u2581h\u00e4tte": 293,
  "\u2581Vater": 294,
  "\u2581Leute": 295,
  "\u4e0b": 296,
  "\u2581\u0438": 297,
  "\u6211\u7684": 298,
  "\u2581Gut": 299,
  "m": 300,
  "\u8fd9\u4e2a": 301,
  "\u5730": 302,
  "\u2581Mr": 303,
  "d": 304,
  "\u8fc7": 305,
  "\u2581Geld": 306,
  "\u53ef\u4ee5": 307,
  "\u2581\u4f60\u4eec": 308,
  "\u2581waren": 309,
  ".\"": 310,
  "\u4f60\u4eec": 311,
  "\u2581her": 312,
  "\u2581raus": 313,
  "\ue019": 314,
  "\u4f86": 315,
  "\u2581nein": 316,
  "\u8aaa": 317,
  "\u2581durch": 318,
  "\u2581zur": 319,
  "\u6703": 320,
  "\u2581\u563f": 321,
  "\u2581also": 322,
  "\u2581Vielleicht": 323,
  "\u2581Hallo": 324,
  "\u2581Sir": 325,
  "\u591a": 326,
  "\u6ca1\u6709": 327,
  "\u2581zwei": 328,
  "\u2581glaube": 329,
  "\u2581macht": 330,
  "\u2581Eine": 331,
  "\u2581bis": 332,
  "\u2581Tag": 333,
  "\u2581...": 334,
  "\u2581lassen": 335,
  "\u2581gesehen": 336,
  "\u2581seine": 337,
  "\u51fa": 338,
  "ne": 339,
  "\u2581klar": 340,
  "\u65f6": 341,
  "\u2581\u4f46\u662f": 342,
  "\u770b": 343,
  "\u2581k\u00f6nnte": 344,
  "\u5b50": 345,
  "\u2581\u6709": 346,
  "\u2581gerade": 347,
  "\u70b9": 348,
  "\u4e0d\u662f": 349,
  "\u2581dieser": 350,
  "\u2581\u6211\u77e5\u9053": 351,
  "\u5c0f": 352,
  "\u2581weil": 353,
  "\u2581passiert": 354,
  "\u2581wohl": 355,
  "\u2581gemacht": 356,
  "\u2581\u73b0\u5728": 357,
  "\u2581keinen": 358,
  "\u2581Meine": 359,
  "\u2581hin": 360,
  "\u2581geh\u00f6rt": 361,
  "\u2581sagte": 362,
  "\u2581musst": 363,
  "\u2581Keine": 364,
  "\u6253": 365,
  "\u2581wei\u00dft": 366,
  "\u2581Auf": 367,
  "\u2581Mutter": 368,
  "\u2581Nacht": 369,
  "in": 370,
  "\u2581vielleicht": 371,
  "\u2581Los": 372,
  "\u8ddf": 373,
  "\u2581dachte": 374,
  "\u2581\u9019": 375,
  "\u2581reden": 376,
  "\u4e2a": 377,
  "\u2581\u5feb": 378,
  "\u5bb6": 379,
  "\u7279": 380,
  "\u7684\u4e8b": 381,
  "\u2581Lass": 382,
  "\u5c31\u662f": 383,
  "\u2581Schei\u00dfe": 384,
  "\u5de5\u4f5c": 385,
  "\u2581sollte": 386,
  "\u2581Nur": 387,
  "\u540e": 388,
  "\u2581\u5c31": 389,
  "\u2581\u522b": 390,
  "\u2581\u4e0d\u8981": 391,
  "\u2581ihre": 392,
  "\u2581ob": 393,
  "\u2581anderen": 394,
  "\u2581m\u00f6chte": 395,
  "\u2581\u6ca1\u6709": 396,
  "\u2581meiner": 397,
  "\u4ed6\u5011": 398,
  "\u2581meinem": 399,
  "\u2581besser": 400,
  "\u5fb7": 401,
  "\u2581helfen": 402,
  "\u2581Mal": 403,
  "\u62c9": 404,
  "\u2581\u6211\u4e0d\u77e5\u9053": 405,
  "\u6ca1": 406,
  "\u524d": 407,
  "\u2581selbst": 408,
  "\u2581rein": 409,
  "\u6b7b": 410,
  "\u2581wirst": 411,
  "\u6bd4": 412,
  "\u2581\u597d\u7684": 413,
  "\u5bf9": 414,
  "\u2581finden": 415,
  "\u2581weiter": 416,
  "\u2581paar": 417,
  "\u2581unsere": 418,
  "\u4e00\u4e0b": 419,
  "\u2581lange": 420,
  "\u2581\u8c22\u8c22": 421,
  "\u518d": 422,
  "\u9019": 423,
  "\u2581\u6240\u4ee5": 424,
  "\u2581Nun": 425,
  "\u2581\u5bf9": 426,
  "\u2581ins": 427,
  "\u2581diesen": 428,
  "\u2581Ordnung": 429,
  "\u5feb": 430,
  "\u2581Wieso": 431,
  "\u77e5\u9053": 432,
  "\u2581\u4e0d\u662f": 433,
  "\u2581sch\u00f6n": 434,
  "\u2581{\\": 435,
  "\u2581\u4ed6\u5011": 436,
  "\u2581jemand": 437,
  "\u2581Welt": 438,
  "\ue4c7": 439,
  "\u2581gar": 440,
  "\u2581Hause": 441,
  "\u5403": 442,
  "\u2581Freund": 443,
  "\u2581Tut": 444,
  "\u53c8": 445,
  "\u3001": 446,
  "\u2581Haus": 447,
  "\u2581genau": 448,
  "\u2581Weg": 449,
  "\u2581wer": 450,
  "\u2581Menschen": 451,
  "\u2581deinen": 452,
  "\u2581zusammen": 453,
  "\u2581M\u00e4dchen": 454,
  "\u2581sagt": 455,
  "\u2581Ach": 456,
  "\u2581ihnen": 457,
  "\u2581gleich": 458,
  "\u2581\u662f\u554a": 459,
  "\u2581\u6211\u7684": 460,
  "\u2581H\u00f6r": 461,
  "\u2581Man": 462,
  "\u2581\u597d\u4e86": 463,
  "\u2581Mit": 464,
  "\u2581tot": 465,
  "o": 466,
  "\u2581Angst": 467,
  "\u624b": 468,
  "\u2581unter": 469,
  "\u7740": 470,
  "\u514b": 471,
  "\u2581\u5982\u679c": 472,
  "\u2581davon": 473,
  "\u2581\u55ef": 474,
  "\u56de": 475,
  "3": 476,
  "\u2581vom": 477,
  "\u2581Kinder": 478,
  "\u2581diesem": 479,
  "\u2581Ok": 480,
  "\u2581Abend": 481,
  "\u2581getan": 482,
  "\u2581Haben": 483,
  "\u7684\u65f6\u5019": 484,
  "\u4e00\u6837": 485,
  "\u592a": 486,
  "\u4e3a": 487,
  "\u53ef": 488,
  "\ue5ec": 489,
  "\u2581ohne": 490,
  "\u5566": 491,
  "\u2581machst": 492,
  "\u2581warum": 493,
  "\u5e74": 494,
  "\u2581dieses": 495,
  "\u2581Als": 496,
  "\ue4ce": 497,
  "\u2581\u4f60\u5011": 498,
  "\u2581sollten": 499,
  "\u73b0\u5728": 500,
  "\u2581okay": 501,
  "\u2581viele": 502,
  "2": 503,
  "a": 504,
  "\u2581F\u00fcr": 505,
  "\u2581Mach": 506,
  "\u2581you": 507,
  "\u2581ver": 508,
  "\u2581\u4f60\u662f": 509,
  "\u7684\u8bdd": 510,
  "\u2581Bist": 511,
  "\u5fc3": 512,
  "\u2581\u4f60\u77e5\u9053": 513,
  "\u4e8b": 514,
  "\u2581\u6211\u4f1a": 515,
  "\u2581dort": 516,
  "\u4ec0\u9ebc": 517,
  "\u2581sollen": 518,
  "\u90a3\u4e9b": 519,
  "re": 520,
  "\u5934": 521,
  "\u4f60\u5011": 522,
  "\u2581\u4f60\u7684": 523,
  "\u2581brauchen": 524,
  "\u2581Wei\u00dft": 525,
  "\u4e4b": 526,
  "\u2581Weil": 527,
  "\u9ede": 528,
  "\u2581denke": 529,
  "\u2581liebe": 530,
  "\u53eb": 531,
  "i": 532,
  "\u2581\u5b83": 533,
  "\u2581\u8981": 534,
  "\u740c": 535,
  "\u5440": 536,
  "\u2581\u4f60\u8981": 537,
  "\u7ed9\u6211": 538,
  "\u50cf": 539,
  "\u90a3\u4e2a": 540,
  "\u2581Moment": 541,
  "\u2581richtig": 542,
  "\u62ff": 543,
  "\u8005": 544,
  "\u2581\u4f46\u6211": 545,
  "S": 546,
  "\u2581Sag": 547,
  "\u5229": 548,
  "\u6c34": 549,
  "\u2581hei\u00dft": 550,
  "cH": 551,
  "\u4ece": 552,
  "\u5929": 553,
  "\u2581bleiben": 554,
  "(": 555,
  "\u2581Oder": 556,
  "\u2581geben": 557,
  "\u2581\u4e3a\u4ec0\u4e48": 558,
  "\u2581Arbeit": 559,
  "\u2581\u62b1\u6b49": 560,
  "T": 561,
  "\u5f00": 562,
  "\u8fd8": 563,
  "\u2581Familie": 564,
  "\u2581komm": 565,
  "\u2581\u8fd8\u6709": 566,
  "\u2581Jahre": 567,
  "\u751f": 568,
  "\u800c": 569,
  "\u4e4b\u524d": 570,
  "\u2581drei": 571,
  "\u2581sieht": 572,
  "\u8fd9\u6837": 573,
  "\u2581Bruder": 574,
  "\u2581Sohn": 575,
  "\u624d": 576,
  "\ue707": 577,
  "\u2581andere": 578,
  "\u2581daf\u00fcr": 579,
  "\u2581be": 580,
  "\u4f4f": 581,
  "\u2581brauche": 582,
  "\u2581Sind": 583,
  "\u4ed6\u7684": 584,
  "\u2581\u90a3\u662f": 585,
  "\u2581genug": 586,
  "\u7ed9": 587,
  "\u2581\u5662": 588,
  "\u2581h\u00f6ren": 589,
  "\u2581wegen": 590,
  "\u2581steht": 591,
  "\u8f66": 592,
  "\u2581gegen": 593,
  "\u4e86\u5417": 594,
  "\u2581S": 595,
  "\u6700": 596,
  "\u5df2\u7ecf": 597,
  "\u2581\u7b49\u7b49": 598,
  "\u2581Dad": 599,
  "\u2581Hilfe": 600,
  "\u25812": 601,
  "\u4e0d\u80fd": 602,
  "\u522b": 603,
  "\u2581ganze": 604,
  "\u2581Junge": 605,
  "\u2581wahr": 606,
  "\u2581Willst": 607,
  "\u2581Hat": 608,
  "\u2581bringen": 609,
  "\".": 610,
  "F": 611,
  "\u2581seit": 612,
  "\u2581Morgen": 613,
  "\u60a8": 614,
  "\u2581dabei": 615,
  "\u2581habt": 616,
  "\u8fd9\u4e9b": 617,
  "\u4e0d\u8981": 618,
  "\u6c92\u6709": 619,
  "\u2581seid": 620,
  "\u2581schnell": 621,
  "\u771f": 622,
  "\u2581\u628a": 623,
  "\u66f4": 624,
  "\u2581\u7136\u540e": 625,
  "\u2581unser": 626,
  "\u2581\u4f60\u597d": 627,
  "\u2581sei": 628,
  "\u5c3c": 629,
  "\u5361": 630,
  "\u2581\ue707": 631,
  "\u94b1": 632,
  "\u2581a": 633,
  "\u2581eines": 634,
  "\u2581allein": 635,
  "\u9700\u8981": 636,
  "1": 637,
  "\u2581\u5bf9\u4e0d\u8d77": 638,
  "\u2581gefunden": 639,
  "\u51fa\u53bb": 640,
  "\u2581Kann": 641,
  "\u25811": 642,
  "\u2581Doch": 643,
  "\u2581\u5982\u679c\u4f60": 644,
  "\u2581\u6211\u5728": 645,
  "\u5206": 646,
  "\u904e": 647,
  "B": 648,
  "\u9ad8": 649,
  "\u2581erst": 650,
  "\u2581\u5f88\u597d": 651,
  "ung": 652,
  "\u627e": 653,
  "\u2581Jahren": 654,
  "\u2581deiner": 655,
  "\u2581Problem": 656,
  "\u2581Diese": 657,
  "A": 658,
  "\u2581Sache": 659,
  "\u2581Mir": 660,
  "\u2581konnte": 661,
  "\u2581M\u00e4nner": 662,
  "\u653e": 663,
  "\u2581\u55e8": 664,
  "\u6b7b\u4e86": 665,
  "\u2581morgen": 666,
  "\u5b69\u5b50": 667,
  "\u8001": 668,
  "\u6216": 669,
  "\u2581wusste": 670,
  "\u6c92": 671,
  "\u8d77": 672,
  "\u5f00\u59cb": 673,
  "\u2581He": 674,
  "\u2581deinem": 675,
  "\u2581\u4f60\u60f3": 676,
  "\u2581Kopf": 677,
  "\u2581Geh": 678,
  "\u2581sehe": 679,
  "\u2581Nat\u00fcrlich": 680,
  "\u2581Stadt": 681,
  "\u90fd\u662f": 682,
  "\u6210": 683,
  "I": 684,
  "\u6240": 685,
  "k": 686,
  "\u79bb\u5f00": 687,
  "\u2581Kind": 688,
  "\u897f": 689,
  "\u2581\u4e00": 690,
  "\u5148": 691,
  "\u2581nehmen": 692,
  "\u2581Namen": 693,
  "\u2581Herr": 694,
  "\u2581Im": 695,
  "\u65e0": 696,
  "\u2581gern": 697,
  "\u2581\u9019\u662f": 698,
  "\u2581hatten": 699,
  "\u2581mag": 700,
  "\u2581fertig": 701,
  "\u2581the": 702,
  "\u771f\u7684": 703,
  "\u2581glauben": 704,
  "\u2581Warte": 705,
  "\u56de\u6765": 706,
  "\u529b": 707,
  "te": 708,
  "\u627e\u5230": 709,
  "\u2581Genau": 710,
  "\u2581Augen": 711,
  "\u2581Baby": 712,
  "\u2581\u5c31\u662f": 713,
  "\u4e00\u4e9b": 714,
  "\u4e00\u500b": 715,
  "\u5e26": 716,
  "\u2581Nichts": 717,
  "\u6765\u4e86": 718,
  "\u03a4": 719,
  "\u2581Halt": 720,
  "\u2581seinen": 721,
  "\u2581kam": 722,
  "E": 723,
  "\u2581An": 724,
  "\u59b3": 725,
  "\u2581beide": 726,
  "\u2581sofort": 727,
  "\u2581komme": 728,
  "\u2581Ahnung": 729,
  "\u2581sage": 730,
  "\u2581einmal": 731,
  "\u2581sprechen": 732,
  "\u4e00\u8d77": 733,
  "\u2581\u8bf7": 734,
  "\u8fd8\u662f": 735,
  "\ue6c8": 736,
  "b": 737,
  "\u2581runter": 738,
  "\u2581\u53bb": 739,
  "\u2581Freunde": 740,
  "\u2581Fall": 741,
  "\u8def": 742,
  "\u2581to": 743,
  "\u2581B": 744,
  "\u2581mach": 745,
  "\u9019\u500b": 746,
  "\u2581sonst": 747,
  "\u2581bevor": 748,
  "\u2581t\u00f6ten": 749,
  "\u91cd": 750,
  "\u2581K": 751,
  "\u2581Wirklich": 752,
  "\u2581\u5f53\u7136": 753,
  "\u8fd9\u4e48": 754,
  "\u2581Jungs": 755,
  "\u4e0d\u4f1a": 756,
  "\u2581warst": 757,
  "\u2581Alle": 758,
  "\u2581\u771f\u7684": 759,
  "\u2581Ende": 760,
  "\u2581echt": 761,
  "\u2581Minuten": 762,
  "\u2581\u4ec0\u9ebc": 763,
  "\u683c": 764,
  "\u9a6c": 765,
  "\u2581dazu": 766,
  "\u7231": 767,
  "\u2581\u548c": 768,
  "\u2581mache": 769,
  "\u2581Teufel": 770,
  "\u2581ok": 771,
  "\u2581sterben": 772,
  "\u2581Uhr": 773,
  "\u2581halten": 774,
  "\u2581War": 775,
  "\u52a0": 776,
  "\u2581beim": 777,
  "\u95e8": 778,
  "\u2581recht": 779,
  "\u2581\u53ea\u662f": 780,
  "\u6027": 781,
  "\u2581dran": 782,
  "\u2581jeden": 783,
  "\u2581nun": 784,
  "C": 785,
  "\u2581gehe": 786,
  "\u2581Gl\u00fcck": 787,
  "\u5728\u8fd9\u91cc": 788,
  "\u2581A": 789,
  "\u2581Wasser": 790,
  "\u2581daran": 791,
  "\u8457": 792,
  "\u2581\u800c\u4e14": 793,
  "\u884c": 794,
  "\u2581\u4f60\u53ef\u4ee5": 795,
  "\u5c14": 796,
  "\u8ba9\u6211": 797,
  "\u706b": 798,
  "ge": 799,
  "\u2581verstehe": 800,
  "\u2581Euch": 801,
  "\u51fa\u6765": 802,
  "\u540d": 803,
  "\u2581Polizei": 804,
  "\u2581Auto": 805,
  "\u670b\u53cb": 806,
  "\u2581all": 807,
  "\u2581stimmt": 808,
  "\u30fb": 809,
  "\u957f": 810,
  "\u53ea\u662f": 811,
  "\u4e09": 812,
  "\u2581\u8fd9\u4e2a": 813,
  "\u53ef\u80fd": 814,
  "\u7ed9\u4f60": 815,
  "\u2581drin": 816,
  "\u2581Von": 817,
  "\u2581Schon": 818,
  "le": 819,
  "\u2581Sieh": 820,
  "\u5982\u4f55": 821,
  "\u2581\u4f60\u5728": 822,
  "\u2581vorbei": 823,
  "\u2581dar\u00fcber": 824,
  "\u2581Gib": 825,
  "\u2581Um": 826,
  "\u82b1": 827,
  "l": 828,
  "\u2581weit": 829,
  "\u5e72": 830,
  "\u2581\u5929\u554a": 831,
  "\u53f7": 832,
  "\u7684\u5730\u65b9": 833,
  "\u2581Dr": 834,
  "\u2581bisschen": 835,
  "\u4f46": 836,
  "\u5f53": 837,
  "\u2581vergessen": 838,
  "\u2581Ganz": 839,
  "\u2581Den": 840,
  "\u53d1": 841,
  "\u2581\u56e0\u4e3a": 842,
  "\u65f6\u95f4": 843,
  "\u2581\u770b": 844,
  "\u2581gute": 845,
  "\u2581Mom": 846,
  "\u56de\u5bb6": 847,
  "\u8c01": 848,
  "\u2581warten": 849,
  "\u2581Dinge": 850,
  "\u2581\u6211\u53ef\u4ee5": 851,
  "de": 852,
  "\u2581gab": 853,
  "\u2581T": 854,
  "\u2581Sehr": 855,
  "\u2581Geht": 856,
  "\u2581Hand": 857,
  "K": 858,
  "\u975e\u5e38": 859,
  "\u2581Dank": 860,
  "\u2581drau\u00dfen": 861,
  "\u56de\u53bb": 862,
  "an": 863,
  "\u770b\u5230": 864,
  "\u2581\u5c0d": 865,
  "\u597d\u4e86": 866,
  "\u5c06": 867,
  "\u5c0f\u59d0": 868,
  "\u2581verr\u00fcckt": 869,
  "\u73a9": 870,
  "\u561b": 871,
  "\u65b0": 872,
  "\u2581Job": 873,
  "\u2581\u6c92\u6709": 874,
  "\u2581O": 875,
  "\u2581Name": 876,
  "\u2581Noch": 877,
  "\u2581hoch": 878,
  "\u2581Dein": 879,
  "\u5f88\u597d": 880,
  "ing": 881,
  "\u2581\u5148\u751f": 882,
  "\u5012": 883,
  "\u4e8e": 884,
  "\ue145": 885,
  "\u4e00\u6b21": 886,
  "h": 887,
  "\u6709\u4eba": 888,
  "\u5b89": 889,
  "\u2581Guten": 890,
  "\u2581\u8c01": 891,
  "\u76fe": 892,
  "\u4e00\u70b9": 893,
  "\u4e48": 894,
  "\u2581\u60a8": 895,
  "\u544a\u8bc9\u6211": 896,
  "\u4eec": 897,
  "\u2581Gute": 898,
  "\u2581\u800c": 899,
  "\u2581denken": 900,
  "\u5973\u4eba": 901,
  "\u2581w\u00fcrden": 902,
  "\u2581Liebe": 903,
  "\u2581kennen": 904,
  "\u65e5": 905,
  "\u8eab": 906,
  "\u5e38": 907,
  "\u2581hinter": 908,
  "\u2581Vor": 909,
  "\u500b": 910,
  "\u2581k\u00f6nnten": 911,
  "\u5c0d": 912,
  "\u2581lieber": 913,
  "\u2581Aus": 914,
  "\u2581\u90a3\u4e48": 915,
  "\u2581bekommen": 916,
  "\u53ea": 917,
  "\u4f5c": 918,
  "\u2581ihren": 919,
  "\u88e1": 920,
  "al": 921,
  "\u2581egal": 922,
  "\u7684\u4e1c\u897f": 923,
  "\u2581\u7238\u7238": 924,
  "\u2581Schei\u00df": 925,
  "\u2581stehen": 926,
  "\u600e\u4e48": 927,
  "\u2581Kein": 928,
  "\u3113": 929,
  "\u2581Bei": 930,
  "D": 931,
  "\u63d0": 932,
  "\u4e0e": 933,
  "\u2581\u4e00\u4e2a": 934,
  "\u2581\u6ca1\u9519": 935,
  "\u2581verloren": 936,
  "\u2581\u6211\u5c31": 937,
  "\u2581Grund": 938,
  "\u8dd1": 939,
  "\u91d1": 940,
  "\u5982\u6b64": 941,
  "\u9053": 942,
  "\u2581sp\u00e4t": 943,
  "\u8fc7\u6765": 944,
  "\u5411": 945,
  "\u8fd9\u91cc": 946,
  "\u2581Land": 947,
  "\u5149": 948,
  "\u662f\u8c01": 949,
  "\u2581\u5582": 950,
  "\u2581\u6211\u4e5f": 951,
  "\u4ee5": 952,
  "\u672c": 953,
  "\u81ea": 954,
  "\u2581fahren": 955,
  "\u2581sag": 956,
  "\u7c73": 957,
  "\u2581Leid": 958,
  "\u2581kenne": 959,
  "\u2581danke": 960,
  "\u7b49": 961,
  "\u2581bald": 962,
  "\u2581\u771f": 963,
  "\u2581Deine": 964,
  "\u2581darf": 965,
  "\u2581\u59b3": 966,
  "\u2581Nach": 967,
  "\u8bf7": 968,
  "\u6b63": 969,
  "\u2581T\u00fcr": 970,
  "\u2581Macht": 971,
  "\u2581seiner": 972,
  "\u2581Tochter": 973,
  "\u2581\u4ed6\u662f": 974,
  "\u6211\u8981": 975,
  "\u2581Kommt": 976,
  "\u2581ruhig": 977,
  "g": 978,
  "\u25813": 979,
  "\u9152": 980,
  "\u2581\u53ef\u4ee5": 981,
  "\u5168": 982,
  "\u8fdb": 983,
  "\u8ba9": 984,
  "\u2581C": 985,
  "\u2581siehst": 986,
  "\u6211\u662f": 987,
  "\u2581Gehen": 988,
  "\u2581lang": 989,
  "\u2581sp\u00e4ter": 990,
  "\u2581Ihren": 991,
  "\u2581h\u00e4tten": 992,
  "\u2581Bis": 993,
  "\u2581leben": 994,
  "\u963f": 995,
  "\u2581geh": 996,
  "\u2581toll": 997,
  "\u2581\u90fd": 998,
  "\u2581oben": 999,
  "\u2581\u4e0d\u8fc7": 1000,
  "\u8fea": 1001,
  "\u2581Zu": 1002,
  "\u597d\u5417": 1003,
  "\u2581\u5c0f": 1004,
  "\u2581F": 1005,
  "\u5df2": 1006,
  "\u2581Kommen": 1007,
  "be": 1008,
  "\u2581Recht": 1009,
  "\u4eca\u5929": 1010,
  "\u2581essen": 1011,
  "\u2581kurz": 1012,
  "\u7238\u7238": 1013,
  "\u5f97\u5230": 1014,
  "\u641e": 1015,
  "\u4e9b": 1016,
  "\u2581Arsch": 1017,
  "\u2581letzte": 1018,
  "R": 1019,
  "\u2581Art": 1020,
  "\u2581meinst": 1021,
  "\u4e00\u6a23": 1022,
  "\u6069": 1023,
  "\u2581jemanden": 1024,
  "\u2581braucht": 1025,
  "\u2581darauf": 1026,
  "\u2581Schwester": 1027,
  "\u2581\u6211\u53ea\u662f": 1028,
  "\u2581lass": 1029,
  "\u63a5": 1030,
  "\u2581Kerl": 1031,
  "\u89c1": 1032,
  "\u770b\u770b": 1033,
  "\u2581Frauen": 1034,
  "\u2581\u518d": 1035,
  "\u6c14": 1036,
  "\u2581Hab": 1037,
  "M": 1038,
  "\u795e": 1039,
  "\u2581ganzen": 1040,
  "\u8b66\u5bdf": 1041,
  "\ue5e6": 1042,
  "\u2581Jahr": 1043,
  "\u2581je": 1044,
  "\u2581\u90a3\u4f60": 1045,
  "\u2581Schatz": 1046,
  "\u723e": 1047,
  "\u8fd9\u662f": 1048,
  "\u258120": 1049,
  "\u2581sah": 1050,
  "\u8fd8\u6709": 1051,
  "\u2581Einen": 1052,
  "\u2581\u600e\u4e48\u4e86": 1053,
  "\u6cd5": 1054,
  "\u7a7f": 1055,
  "\u2581solltest": 1056,
  "\u2581ge": 1057,
  "\u2581\u6765": 1058,
  "\u2581liegt": 1059,
  "\u5f04": 1060,
  "\u2581Idee": 1061,
  "\u2581wurden": 1062,
  "\u5750": 1063,
  "\u2581Tod": 1064,
  "\u2581\u542c\u7740": 1065,
  "\u2581Spiel": 1066,
  "\u2581\u5feb\u70b9": 1067,
  "H": 1068,
  "z": 1069,
  "\u2581arbeiten": 1070,
  "\u2581\u6211\u4e0d\u60f3": 1071,
  "\u2581Ma": 1072,
  "\u2581Blut": 1073,
  "L": 1074,
  "\u2581Hi": 1075,
  "\u2581John": 1076,
  "\u2581Ruhe": 1077,
  "\u5916": 1078,
  "\u52a8": 1079,
  "\u2581\u6211\u6709": 1080,
  "\u2581drauf": 1081,
  "\u2581fast": 1082,
  "\u2581eigentlich": 1083,
  "\u9762": 1084,
  "\u2581bereit": 1085,
  "\u7684\u662f": 1086,
  "\u2581Mama": 1087,
  "\u2581kleine": 1088,
  "\u2581\u6211\u6703": 1089,
  "\u4fe1": 1090,
  "\u5854": 1091,
  "ie": 1092,
  "\u2581OK": 1093,
  "\u5c71": 1094,
  "\u2581ging": 1095,
  "\u2581Essen": 1096,
  "\u68ee": 1097,
  "\u7537\u4eba": 1098,
  "\u2581erz\u00e4hlt": 1099,
  "\u6211\u60f3": 1100,
  "\u74b6": 1101,
  "\u673a": 1102,
  "\u7f8e": 1103,
  "\u559d": 1104,
  "\u2581Wissen": 1105,
  "\u2581Verdammt": 1106,
  "\u2581l\u00e4uft": 1107,
  "\u2581Wahrheit": 1108,
  "\u4e00\u5207": 1109,
  "\u2581\u4f46\u4f60": 1110,
  "\u9322": 1111,
  "\u72d7": 1112,
  "\u6587": 1113,
  "\u5e0c\u671b": 1114,
  "\u2581Woher": 1115,
  "\u2581Ver": 1116,
  "\u5df2\u7d93": 1117,
  "\u5e94\u8be5": 1118,
  "\u95ee\u9898": 1119,
  "\u516c\u53f8": 1120,
  "\u2581Frage": 1121,
  "\u2581\u4f60\u6709": 1122,
  "\u9019\u6a23": 1123,
  "\u2581suchen": 1124,
  "\u662f\u4e2a": 1125,
  "4": 1126,
  "\u95ee": 1127,
  "\u5728\u4e00\u8d77": 1128,
  "Ich": 1129,
  "\u2581Seite": 1130,
  "\u2581Geschichte": 1131,
  "\u2581\u5225": 1132,
  "\u2581it": 1133,
  "\u7403": 1134,
  "\u6240\u6709": 1135,
  "\u60f3\u8981": 1136,
  "\u2581K\u00f6nnen": 1137,
  "\u2581\u6765\u5427": 1138,
  "\u25815": 1139,
  "us": 1140,
  "\u2581\u00fcberhaupt": 1141,
  "\u7eb3": 1142,
  "\u2581Ort": 1143,
  "\u2581fragen": 1144,
  "P": 1145,
  "\u6d3e": 1146,
  "\u2581neue": 1147,
  "\u2581\u6211\u80fd": 1148,
  "\u2581anders": 1149,
  "\u592a\u592a": 1150,
  "\u2581sagst": 1151,
  "on": 1152,
  "\u2581E": 1153,
  "\u2581jeder": 1154,
  "\u2581seinem": 1155,
  "\u513f": 1156,
  "ed": 1157,
  "\u2581Soll": 1158,
  "\u2581Bett": 1159,
  "\u2581ziemlich": 1160,
  "\u53ea\u6709": 1161,
  "\u5728\u54ea": 1162,
  "\u2581gewesen": 1163,
  "nen": 1164,
  "\u6709\u70b9": 1165,
  "\u2581hoffe": 1166,
  "\u5185": 1167,
  "\u662f\u7684": 1168,
  "\u2581get\u00f6tet": 1169,
  "\u2581nat\u00fcrlich": 1170,
  "\u8ba9\u4f60": 1171,
  "5": 1172,
  "\u5979\u7684": 1173,
  "\u662f\u6211": 1174,
  "\u2581bedeutet": 1175,
  "\u2581gekommen": 1176,
  "\u5668": 1177,
  "\u5f9e": 1178,
  "\u5165": 1179,
  "\u90a3\u4e48": 1180,
  "\u2581Spa\u00df": 1181,
  "\u542c": 1182,
  "\u53e3": 1183,
  "\u2581Typ": 1184,
  "\u2581schwer": 1185,
  "\u505a\u7684": 1186,
  "\u4e00\u76f4": 1187,
  "\u5230\u4e86": 1188,
  "\u2581Woche": 1189,
  "\u7842": 1190,
  "\u4e86\u55ce": 1191,
  "\u2581Entschuldigung": 1192,
  "\u2581letzten": 1193,
  "\u2581finde": 1194,
  "\u2581musste": 1195,
  "\u5e03": 1196,
  "\u8482": 1197,
  "\u2581spielen": 1198,
  "\u2581\u90a3\u4e2a": 1199,
  "em": 1200,
  "\u4e4b\u540e": 1201,
  "\u2581Zimmer": 1202,
  "\u2581\u8c22\u8c22\u4f60": 1203,
  "G": 1204,
  "\u2581Jack": 1205,
  "\u2581Nimm": 1206,
  "\u2581Sch\u00f6n": 1207,
  "el": 1208,
  "\u2581\u4ece": 1209,
  "\u2581Ding": 1210,
  "\u258110": 1211,
  "\u9ed1": 1212,
  "\u2581gerne": 1213,
  "\u76f8\u4fe1": 1214,
  "\u5a1c": 1215,
  "\u2581Be": 1216,
  "am": 1217,
  "\u5947": 1218,
  "\u8239": 1219,
  "\u2581Krieg": 1220,
  "\u4e3a\u4ec0\u4e48": 1221,
  "\u66fc": 1222,
  "\u8fc7\u53bb": 1223,
  "\u2581Miss": 1224,
  "\u2581l\u00e4sst": 1225,
  "\u2581\u6211\u4e0d\u662f": 1226,
  "\u2581Herz": 1227,
  "\u2581Dass": 1228,
  "\u7ba1": 1229,
  "ig": 1230,
  "\u982d": 1231,
  "\u533b\u751f": 1232,
  "\u2581\u4eca\u5929": 1233,
  "\u7f57": 1234,
  "\u8d77\u6765": 1235,
  "\u2581Ihrer": 1236,
  "\u6211\u4f1a": 1237,
  "O": 1238,
  "\u6d77": 1239,
  "\u662f\u4ec0\u4e48": 1240,
  "\u548c\u6211": 1241,
  "\u54e6": 1242,
  "\u5728\u54ea\u91cc": 1243,
  "\u5973": 1244,
  "\u2581frei": 1245,
  "\u2581Wort": 1246,
  "\u8d70\u4e86": 1247,
  "\u2581\u80fd": 1248,
  "\u60c5": 1249,
  "\u6389": 1250,
  "\u2581etwa": 1251,
  "\u67aa": 1252,
  "\u5df4": 1253,
  "\u6797": 1254,
  "\u2581eins": 1255,
  "\u2581Freundin": 1256,
  "\u6211\u4eec\u7684": 1257,
  "\u2581\u4f60\u4f1a": 1258,
  "\u2581Klar": 1259,
  "\u2581verstehen": 1260,
  "\u2581\u6211\u77e5\u9053\u4f60": 1261,
  "\u2581denen": 1262,
  "\u2581\u963f": 1263,
  "\u2581\u8fd9\u91cc": 1264,
  "\u70ba": 1265,
  "\u2581\u4f60\u80fd": 1266,
  "\u2581Gesicht": 1267,
  "\u2581nehme": 1268,
  "\u2581unserer": 1269,
  "\u2581\u6709\u4eba": 1270,
  "\u6642": 1271,
  "\u2581unten": 1272,
  "\u600e\u4e48\u6837": 1273,
  "\u597d\u7684": 1274,
  "\u6ce2": 1275,
  "\u559c\u6b22": 1276,
  "\u2581\u6211\u4e0d\u80fd": 1277,
  "\u8ddf\u6211": 1278,
  "\u53d7": 1279,
  "\u7761": 1280,
  "\u2581\u4eb2\u7231\u7684": 1281,
  "\u2581gro\u00dfe": 1282,
  "\u2581P": 1283,
  "\u2581verdammt": 1284,
  "\u8ddf\u4f60": 1285,
  "\u7a31": 1286,
  "\u2581niemand": 1287,
  "\u4e0d\u4e86": 1288,
  "\u2581\u90a3\u5c31": 1289,
  "\u2581L": 1290,
  "\u2581Dieser": 1291,
  "\u2581fest": 1292,
  "c": 1293,
  "\u4e5f\u662f": 1294,
  "\u767c": 1295,
  "\u2581\u5c31\u50cf": 1296,
  "\u2581versucht": 1297,
  "\u573a": 1298,
  "\u2581\u5982\u679c\u6211": 1299,
  "\u2581Kannst": 1300,
  "\u2581blo\u00df": 1301,
  "\u2581\u73fe\u5728": 1302,
  "\u98ce": 1303,
  "\u2581kommst": 1304,
  "\u767d": 1305,
  "ar": 1306,
  "\u2581Waffe": 1307,
  "ver": 1308,
  "\u5199": 1309,
  "\u592b": 1310,
  "\u2581\u4e5f": 1311,
  "\u2581Stunden": 1312,
  "\u76ae": 1313,
  "\u2581wollten": 1314,
  "\u7576": 1315,
  "\u2581\u4e0d\u77e5\u9053": 1316,
  "\u9b3c": 1317,
  "\u2581wenig": 1318,
  "\u773c": 1319,
  "\u9019\u4e9b": 1320,
  "\u2581\u6211\u4e0d": 1321,
  "\u8bdd": 1322,
  "\u2581tust": 1323,
  "\u6559": 1324,
  "\u7a66": 1325,
  "\u2581\u60f3": 1326,
  "\u2581Lassen": 1327,
  "\u2581Niemand": 1328,
  "\u2581nett": 1329,
  "\ue14c": 1330,
  "\u4e70": 1331,
  "\u2581ersten": 1332,
  "\u2581\u4e0d\u884c": 1333,
  "\u4efb\u4f55": 1334,
  "\u56de\u4f86": 1335,
  "\u2581alt": 1336,
  "\u958b": 1337,
  "\u5927\u5bb6": 1338,
  "\u9001": 1339,
  "\u8840": 1340,
  "\u2581Tage": 1341,
  "\u2581holen": 1342,
  "ten": 1343,
  "\u2581warte": 1344,
  "\u2581Sagen": 1345,
  "\u2581\u662f\u6211": 1346,
  "\u2581D": 1347,
  "\u2581f\u00fcnf": 1348,
  "\u2581anderes": 1349,
  "ri": 1350,
  "\u2581M": 1351,
  "\u8c08": 1352,
  "\u4e3b": 1353,
  "\u2581treffen": 1354,
  "\ue4d1": 1355,
  "\u4e0d\u597d": 1356,
  "\"?": 1357,
  "man": 1358,
  "\u90a3\u6837": 1359,
  "\u2581eben": 1360,
  "ste": 1361,
  "\u2581kriegen": 1362,
  "\u2581Darf": 1363,
  "\u4e0d\u77e5\u9053": 1364,
  "p": 1365,
  "\u2581sogar": 1366,
  "\u8bf4\u8bdd": 1367,
  "\u2581bestimmt": 1368,
  "\u2581Chance": 1369,
  "\u8fbe": 1370,
  "\u7ee7\u7eed": 1371,
  "\u800c\u5df2": 1372,
  "\u300d": 1373,
  "\u2581Wann": 1374,
  "den": 1375,
  "\u2581verlassen": 1376,
  "\u2581Feuer": 1377,
  "\u2581\u6211\u5f97": 1378,
  "\u4e00\u4e2a\u4eba": 1379,
  "\u2581!": 1380,
  "\u73fe\u5728": 1381,
  "\u2581wichtig": 1382,
  "\u2581\u6ca1": 1383,
  "\u2581Mrs": 1384,
  "\ue5ee": 1385,
  "\u2581Sei": 1386,
  "\u2581\u4f60\u770b": 1387,
  "\u7a7a": 1388,
  "\u2581einzige": 1389,
  "\u2581Mensch": 1390,
  "\u9084": 1391,
  "\u2581Nummer": 1392,
  "\u2581gehst": 1393,
  "\u6708": 1394,
  "\u7684\u4e8b\u60c5": 1395,
  "ra": 1396,
  "\u2581w\u00e4ren": 1397,
  "\u5988\u5988": 1398,
  "\u5225": 1399,
  "\u2581Schule": 1400,
  "\u54e5": 1401,
  "N": 1402,
  "\u2581Sachen": 1403,
  "\u2581Heute": 1404,
  "\u2581bringt": 1405,
  "\u2581Ab": 1406,
  "\u2581\u771f\u662f": 1407,
  "der": 1408,
  "\u2581\u90a3\u4e9b": 1409,
  "\u751f\u6d3b": 1410,
  "\u2581gedacht": 1411,
  "\u2581schlecht": 1412,
  "\u90a3\u91cc": 1413,
  "\u2581\u662f\u5417": 1414,
  "ner": 1415,
  "or": 1416,
  "\u2581Sehen": 1417,
  "\u2581Schuld": 1418,
  "u": 1419,
  "\u7d66\u6211": 1420,
  "\u2581zeigen": 1421,
  "ur": 1422,
  "\u2581\u53ea\u6709": 1423,
  "ll": 1424,
  "\u2581Eltern": 1425,
  "\u2581allen": 1426,
  "\u2581\u53ef": 1427,
  "\u53bb\u4e86": 1428,
  "\u8be5": 1429,
  "sch": 1430,
  "\u2581\u5443": 1431,
  "\u2581h\u00e4ttest": 1432,
  "\u2581retten": 1433,
  "\u5f27": 1434,
  "\u2581Sorgen": 1435,
  "\u2581\u6211\u4eec\u8981": 1436,
  "chen": 1437,
  "\u2581schlafen": 1438,
  "\u2581G": 1439,
  "\u2581Plan": 1440,
  "\u81ea\u5df1\u7684": 1441,
  "\u6709\u4e2a": 1442,
  "\u2581Am": 1443,
  "\u51b3\u5b9a": 1444,
  "\u2581Wagen": 1445,
  "\u2581Papa": 1446,
  "\u2581Zwei": 1447,
  "\u2581voll": 1448,
  "\u2581h\u00f6r": 1449,
  "\u540c": 1450,
  "\u2581\u6216\u8005": 1451,
  "\u2581\u8fd9\u6837": 1452,
  "\u7ad9": 1453,
  "\u00e4": 1454,
  "\u2581gestern": 1455,
  "\u79d1": 1456,
  "\u2581ihrer": 1457,
  "\u2581vier": 1458,
  "\u2581Sam": 1459,
  "\u4e0d\u884c": 1460,
  "\u2581H\u00f6ren": 1461,
  "\u4e1c\u897f": 1462,
  "\u56db": 1463,
  "%": 1464,
  "\u7b97": 1465,
  "\u662f\u4e0d\u662f": 1466,
  "\u6536": 1467,
  "\u2581keiner": 1468,
  "\u2581erste": 1469,
  "\u2581Teil": 1470,
  "\u807d": 1471,
  "\u6211\u77e5\u9053": 1472,
  "\u2581endlich": 1473,
  "\u2581\u5c0d\u4e0d\u8d77": 1474,
  "\u300b": 1475,
  "\u6d1b": 1476,
  "\u8df3": 1477,
  "\u2581Dollar": 1478,
  "et": 1479,
  "\u6d41": 1480,
  "\u5e36": 1481,
  "\u4e8b\u60c5": 1482,
  "\u592b\u4eba": 1483,
  "\ue652": 1484,
  "\u2581\u4f60\u5f97": 1485,
  "\u2581\u8d70\u5427": 1486,
  "\u5973\u5b69": 1487,
  "\u2581Denn": 1488,
  "\u2581\u4e5f\u8bb8": 1489,
  "\u96f7": 1490,
  "\u7535\u8bdd": 1491,
  "\u2581w\u00e4r": 1492,
  "\u7269": 1493,
  "\u2581niemals": 1494,
  "\u2581\u53ef\u662f": 1495,
  "\u2581me": 1496,
  "\u4e0b\u53bb": 1497,
  "\u2581Wollen": 1498,
  "\u2581bleibt": 1499,
  "\u2581\u62dc\u6258": 1500,
  "\u2581You": 1501,
  "\u544a\u8bc9\u4f60": 1502,
  "\u2581\u7b49\u4e00\u4e0b": 1503,
  "\u2581Tu": 1504,
  "\u57ce": 1505,
  "202020}": 1506,
  "\u8ba1\u5212": 1507,
  "\u2581Frank": 1508,
  "\u5b9a": 1509,
  "\u522b\u4eba": 1510,
  "\u505a\u4ec0\u4e48": 1511,
  "10": 1512,
  "\u2581R": 1513,
  "\u2581oft": 1514,
  "\u88c5": 1515,
  "\u2581:": 1516,
  "\u2581guter": 1517,
  "\u2581reicht": 1518,
  "\u2581kleinen": 1519,
  "\u6211\u5c31": 1520,
  "\u4eca\u665a": 1521,
  "\u2581Ge": 1522,
  "\u89c9\u5f97": 1523,
  "\u2581darum": 1524,
  "\u2581gl\u00fccklich": 1525,
  "\u2581\u4f60\u4e0d\u80fd": 1526,
  "\u6d3b": 1527,
  "\u2581eure": 1528,
  "\u628a\u6211": 1529,
  "\u2581\u53ea\u8981": 1530,
  "\u2581unseren": 1531,
  "\u2581beiden": 1532,
  "\u2581Platz": 1533,
  "\u2581gef\u00e4llt": 1534,
  "\u666e": 1535,
  "la": 1536,
  "\u2581versuchen": 1537,
  "\u4e0d\u6703": 1538,
  "\u2581\u7528": 1539,
  "\u5b8c\u5168": 1540,
  "\u4f86\u4e86": 1541,
  "\u8389": 1542,
  "\u2581w\u00fcrdest": 1543,
  "\u5982\u679c": 1544,
  "ter": 1545,
  "\u63a5\u53d7": 1546,
  "\u258130": 1547,
  "\u4e16\u754c": 1548,
  "\u628a\u4f60": 1549,
  "\u2581zwischen": 1550,
  "\u5ea6": 1551,
  "\u2581Luft": 1552,
  "\u8fdb\u53bb": 1553,
  "\u5409": 1554,
  "\u8bb2": 1555,
  "\u2581Waffen": 1556,
  "\u5144\u5f1f": 1557,
  "\u5b89\u5168": 1558,
  "\u8b93\u6211": 1559,
  "\u662f\u4f60": 1560,
  "\u2581\u7ed9\u6211": 1561,
  "\u610f": 1562,
  "\u2581\u600e\u4e48": 1563,
  "\u2581da\u00df": 1564,
  "ch": 1565,
  "\u2581\u8fd8": 1566,
  "\u2581erz\u00e4hlen": 1567,
  "\u4e00\u9ede": 1568,
  "\u2581denkst": 1569,
  "\u73ed": 1570,
  "\u00fc": 1571,
  "\u4e24": 1572,
  "\u628a\u4ed6": 1573,
  "\u51c6\u5907": 1574,
  "\u76f8": 1575,
  "\u628a\u5b83": 1576,
  "\u2581Ihrem": 1577,
  "\u8c22\u8c22": 1578,
  "\u5305": 1579,
  "\u54c8": 1580,
  "\u5b66": 1581,
  "\u57fa": 1582,
  "\u624d\u80fd": 1583,
  "\u2581fr\u00fch": 1584,
  "\u52d2": 1585,
  "\u961f": 1586,
  "\u2581Kumpel": 1587,
  "\u2581ihrem": 1588,
  "\u2581\u56e0\u4e3a\u6211": 1589,
  "\u5f80": 1590,
  "\u2581W": 1591,
  "\u2581\u8fd8\u662f": 1592,
  "\u2581\u5927": 1593,
  "\u2581\u8d70": 1594,
  "\u80af\u5b9a": 1595,
  "\u2581Lasst": 1596,
  "\u771f\u662f": 1597,
  "\u2581\u70ba\u4ec0\u9ebc": 1598,
  "\u2581Stimmt": 1599,
  "\u5f88\u591a": 1600,
  "\u611b": 1601,
  "\u5fd9": 1602,
  "\u2581neuen": 1603,
  "\u2581H\u00e4nde": 1604,
  "\u53d1\u73b0": 1605,
  "\u51fa\u4f86": 1606,
  "\u2581trinken": 1607,
  "\u2581Sorge": 1608,
  "il": 1609,
  "\u6709\u4ec0\u4e48": 1610,
  "\u8fd9\u79cd": 1611,
  "\u2581\u592a": 1612,
  "\u5730\u65b9": 1613,
  "f": 1614,
  "\u2581\u8ba9\u6211": 1615,
  "\u2581Siehst": 1616,
  "\u2581Alter": 1617,
  "\u2581Bin": 1618,
  "W": 1619,
  "\u6765\u7684": 1620,
  "\u53d8": 1621,
  "\u2581\u8fd9\u4e9b": 1622,
  "\u2581meines": 1623,
  "\u4e0b\u6765": 1624,
  "\u2581is": 1625,
  "\u2581B\u00fcro": 1626,
  "\u7406": 1627,
  "\u2581hierher": 1628,
  "\u7684\u8a71": 1629,
  "ve": 1630,
  "\u53d6": 1631,
  "na": 1632,
  "\u4f60\u8981": 1633,
  "\u300a": 1634,
  "\u2581Eure": 1635,
  "\u2581tue": 1636,
  "..": 1637,
  "\u2581Fehler": 1638,
  "\u65e9": 1639,
  "\u660e\u767d": 1640,
  "\u25816": 1641,
  "\u5904": 1642,
  "\u90e8": 1643,
  "\u258115": 1644,
  "\u4ea4": 1645,
  "\ue4cf": 1646,
  "\\": 1647,
  "\u4e8c": 1648,
  "um": 1649,
  "\u2581m\u00f6glich": 1650,
  "\u5728\u90a3\u91cc": 1651,
  "\u98de": 1652,
  "\u4e86\u89e3": 1653,
  "\u2581&": 1654,
  "\u4f0a": 1655,
  "\u2581Sicher": 1656,
  "\u2581brauchst": 1657,
  "son": 1658,
  "\u5176": 1659,
  "\u7ebf": 1660,
  "\u661f": 1661,
  "th": 1662,
  "\u2581falsch": 1663,
  "\u2581Damit": 1664,
  "\u5c31\u4f1a": 1665,
  "\u5f8c": 1666,
  "\u2581Buch": 1667,
  "\u534a": 1668,
  "\u58eb": 1669,
  "\u2581\u5927\u5bb6": 1670,
  "\u6b63\u5728": 1671,
  "w": 1672,
  "\u5374": 1673,
  "\u2581Fragen": 1674,
  "\u2581sondern": 1675,
  "\u5b8c": 1676,
  "\u2581rum": 1677,
  "\u7121": 1678,
  "\u4e94": 1679,
  "se": 1680,
  "\u8eca": 1681,
  "\u633a": 1682,
  "\u2581d\u00fcrfen": 1683,
  "6": 1684,
  "\u90a3\u500b": 1685,
  "\u59c6": 1686,
  "\u2581\u6211\u89c9\u5f97": 1687,
  "\u5982": 1688,
  "\u2581allem": 1689,
  "\u4e0d\u60f3": 1690,
  "\u2581\u4eca\u665a": 1691,
  "\u2581\u5988\u5988": 1692,
  "\u25814": 1693,
  "\u505a\u4e86": 1694,
  "\u5bb3\u6015": 1695,
  "\u4e00\u5b9a": 1696,
  "\u548c\u4f60": 1697,
  "\u2581Zum": 1698,
  "\u7559": 1699,
  "\u2581\u6211\u6ca1\u6709": 1700,
  "\u4e07": 1701,
  "\u2581Vielen": 1702,
  "\u2581schaffen": 1703,
  "\u7684\u6642\u5019": 1704,
  "\u9084\u662f": 1705,
  "\u2581gegeben": 1706,
  "\u2581Bleib": 1707,
  "\u4ee5\u524d": 1708,
  "\u2581No": 1709,
  "\u4e66": 1710,
  "\u2581kaum": 1711,
  "\u2581\u518d\u89c1": 1712,
  "20": 1713,
  "ieren": 1714,
  "\u2581geworden": 1715,
  "\u600e\u6837": 1716,
  "\u2581\u6211\u5df2\u7ecf": 1717,
  "\u6551": 1718,
  "\u4e0a\u5e1d": 1719,
  "\u5c0f\u5b69": 1720,
  "\u6839": 1721,
  "\u5170": 1722,
  "\u2581Jeder": 1723,
  "\u2581\u00dcber": 1724,
  "\u2581\u9084\u6709": 1725,
  "\u2581Bring": 1726,
  "\u300c": 1727,
  "\u2581Kaffee": 1728,
  "\u5316": 1729,
  "\u2581\u6240\u4ee5\u6211": 1730,
  "\u4ed6\u5988\u7684": 1731,
  "\u2581Euer": 1732,
  "\u5408": 1733,
  "\u5439": 1734,
  "\u2581\u4f60\u5c31": 1735,
  "\u884c\u52a8": 1736,
  "lich": 1737,
  "\u2581wann": 1738,
  "\u2581of": 1739,
  "\u2581\u770b\u770b": 1740,
  "\u62cd": 1741,
  "\u258119": 1742,
  "\u2581H\u00f6lle": 1743,
  "\u63a7\u5236": 1744,
  "\u8bfa": 1745,
  "\u7247": 1746,
  "\u2581Licht": 1747,
  "\u5728\u8fd9": 1748,
  "\u2581Pass": 1749,
  "\u8fde": 1750,
  "\u600e\u4e48\u4e86": 1751,
  "\u2581that": 1752,
  "\u2581\u7576\u7136": 1753,
  "\ue7cf": 1754,
  "\u2581Auch": 1755,
  "\u2581Seit": 1756,
  "\u2581gebe": 1757,
  "\u4f60\u662f": 1758,
  "\u96be": 1759,
  "\u6b21": 1760,
  "\u2581guten": 1761,
  "is": 1762,
  "\u2581kleiner": 1763,
  "\u2581Schl\u00fcssel": 1764,
  "\u2581Hund": 1765,
  "\u6258": 1766,
  "\u2581Ah": 1767,
  "\u745e": 1768,
  "\u2581bereits": 1769,
  "\u4fbf": 1770,
  "\u58f0": 1771,
  "\u2581\u50cf": 1772,
  "?\"": 1773,
  "\u623f\u5b50": 1774,
  "\u99ac": 1775,
  "\u2581New": 1776,
  "\u4e0d\u53ef\u80fd": 1777,
  "\u602a": 1778,
  "\u516c": 1779,
  "\u2581besten": 1780,
  "\u2581\u8ddf": 1781,
  "\u2581Menge": 1782,
  "\ue5fd": 1783,
  "\u5175": 1784,
  "}": 1785,
  "\u2581Typen": 1786,
  "\u547d": 1787,
  "\u2581lieben": 1788,
  "\u7b35": 1789,
  "\u2581Jemand": 1790,
  "\u2581w\u00e4hrend": 1791,
  "\u5077": 1792,
  "\u8089": 1793,
  "\u2581\u53c8": 1794,
  "\u2581Schau": 1795,
  "\u5011": 1796,
  "\u5c31\u50cf": 1797,
  "\u6570": 1798,
  "\u7d22": 1799,
  "\u6253\u7b97": 1800,
  "\u2581Wochen": 1801,
  "\u7b11": 1802,
  "\u2581irgendwas": 1803,
  "\u2581\u662f\u4f60": 1804,
  "\u7167": 1805,
  "\u2581Film": 1806,
  "\u90a3\u662f": 1807,
  "\u67e5": 1808,
  "\u2581scheint": 1809,
  "\u2581we": 1810,
  "\u2581gefallen": 1811,
  "\u2581Boss": 1812,
  "\u2581alten": 1813,
  "\u865f": 1814,
  "\u533a": 1815,
  "\u65b9": 1816,
  "\u2581un": 1817,
  "\u6307": 1818,
  "\u2581\u4e3a\u4e86": 1819,
  "ia": 1820,
  "\u2581\u5feb\u9ede": 1821,
  "\u2581geschafft": 1822,
  "\u5bf9\u6211": 1823,
  "\u2581Arschloch": 1824,
  "\u2581\u4f46\u662f\u6211": 1825,
  "\u5e97": 1826,
  "\u2581Mist": 1827,
  "\u591a\u5c11": 1828,
  "\u53d1\u751f": 1829,
  "\u2581verlieren": 1830,
  "\u2581ehrlich": 1831,
  "\u623f": 1832,
  "\u2581\u5979\u662f": 1833,
  "\u660e": 1834,
  "\u56de\u5230": 1835,
  "\u70ed": 1836,
  "\u7559\u4e0b": 1837,
  "\u2581K\u00f6nig": 1838,
  "\u2581\u4ed6\u5728": 1839,
  "\u2581\u6211\u9700\u8981": 1840,
  "\u5c40": 1841,
  "\u2581Telefon": 1842,
  "\u6740\u4e86": 1843,
  "\u9019\u662f": 1844,
  "\u2581gro\u00df": 1845,
  "\u2581Wahl": 1846,
  "\u2581v\u00f6llig": 1847,
  "\u2581wieso": 1848,
  "\u6740": 1849,
  "\u2581\u6211\u53bb": 1850,
  "\u2581Viel": 1851,
  "\u2581weh": 1852,
  "\u6c23": 1853,
  "\u5973\u58eb": 1854,
  "\u22bf": 1855,
  "\u4f24": 1856,
  "\u2581\u6211\u4e0d\u4f1a": 1857,
  "\u8fb9": 1858,
  "\u5de5": 1859,
  "\u5356": 1860,
  "x": 1861,
  "\u6240\u6709\u7684": 1862,
  "\u7d66\u4f60": 1863,
  "\u5dde": 1864,
  "\u6df1": 1865,
  "\u2581gro\u00dfen": 1866,
  "\u2581zehn": 1867,
  "\u559c\u6b61": 1868,
  "\u2581Himmel": 1869,
  "\u2581Stunde": 1870,
  "\u2581irgendwie": 1871,
  "\u6d17": 1872,
  "\u2581Tja": 1873,
  "\u5176\u4ed6": 1874,
  "\u4e86\u5427": 1875,
  "\u2581n\u00e4chsten": 1876,
  "\u5728\u9019\u88e1": 1877,
  "\u8ba9\u4ed6": 1878,
  "ly": 1879,
  "\u2581Sieht": 1880,
  "\u54ea": 1881,
  "\u5531": 1882,
  "\u540d\u5b57": 1883,
  "\u53eb\u6211": 1884,
  "\u611f\u89c9": 1885,
  "\u738b": 1886,
  "\u2581\u5929\u54ea": 1887,
  "iert": 1888,
  "\u2581Hol": 1889,
  "\u9019\u9ebc": 1890,
  "\u2581K\u00f6rper": 1891,
  "\u51e0": 1892,
  "\u2581Rest": 1893,
  "\u2581fr\u00fcher": 1894,
  "\u2581Sicherheit": 1895,
  "\u4f46\u662f": 1896,
  "ton": 1897,
  "\u2581\u4f60\u4e0d\u662f": 1898,
  "\u2581\u4e0d\u7528": 1899,
  "\u00ea": 1900,
  "\u2581Selbst": 1901,
  "\u2581wollt": 1902,
  "\u2581direkt": 1903,
  "\u7b41": 1904,
  "\u2581\u665a\u5b89": 1905,
  "\u836f": 1906,
  "\u5230\u5e95": 1907,
  "\u8857": 1908,
  "\u75c5": 1909,
  "\u83ab": 1910,
  "sten": 1911,
  "1\\": 1912,
  "\u7f8e\u56fd": 1913,
  "\u6218": 1914,
  "\u2581Onkel": 1915,
  "\u4e1d": 1916,
  "\u2581wolltest": 1917,
  "\u7ef4": 1918,
  "\u585e": 1919,
  "\u2581verstanden": 1920,
  "\u2581\u6211\u662f\u8bf4": 1921,
  "\u5965": 1922,
  "\u2581krank": 1923,
  "\u611f\u5230": 1924,
  "\u59ae": 1925,
  "\u600e\u4e48\u529e": 1926,
  "\u7684\u670b\u53cb": 1927,
  "\u2581zwar": 1928,
  "\u2581Willkommen": 1929,
  "\u2581eigenen": 1930,
  "\u9009": 1931,
  "\u2581\u88ab": 1932,
  "\u4efb\u4f55\u4eba": 1933,
  "\u2581dr\u00fcben": 1934,
  "\u9580": 1935,
  "\u5b57": 1936,
  "\u2581\u5c0f\u5fc3": 1937,
  "\u6545\u4e8b": 1938,
  "\u6bdb": 1939,
  "\u2581Unsere": 1940,
  "\u7834": 1941,
  "\u6b66\u5668": 1942,
  "\u2581Ohne": 1943,
  "\u4e34": 1944,
  "\u2581and": 1945,
  "\u5c81": 1946,
  "\u4f2f": 1947,
  "ro": 1948,
  "\u2581St\u00fcck": 1949,
  "\u2581nennen": 1950,
  "\u2581ernst": 1951,
  "\u6848": 1952,
  "\u2581Seine": 1953,
  "\u7a0b": 1954,
  "\u2581Zukunft": 1955,
  "\u5bf9\u4f60": 1956,
  "\u6015": 1957,
  "\u9760": 1958,
  "\u2581Lebens": 1959,
  "\u2581Boden": 1960,
  "\u2581\u54c7": 1961,
  "\u65af\u7279": 1962,
  "\u2581alte": 1963,
  "\u2581sechs": 1964,
  "\u53f0": 1965,
  "\u56e0\u4e3a": 1966,
  "\u4f4d": 1967,
  "\u2581h\u00f6rt": 1968,
  "\u2581Gef\u00fchl": 1969,
  "\u2581lernen": 1970,
  "\u65e0\u6cd5": 1971,
  "\u5047": 1972,
  "\u5e76\u4e0d": 1973,
  "\u2581\u4f86": 1974,
  "\u5c31\u80fd": 1975,
  "\u6697": 1976,
  "\u2581jede": 1977,
  "\u2581glaubst": 1978,
  "\u9577": 1979,
  "\u5b8c\u6210": 1980,
  "\u2581\u00fcberall": 1981,
  "\u2581\u5594": 1982,
  "\u2581Sex": 1983,
  "\u4e0d\u9519": 1984,
  "\u2581\u957f\u5b98": 1985,
  "\u2581funktioniert": 1986,
  "\u2581Millionen": 1987,
  "\u2581laufen": 1988,
  "\u2581Deshalb": 1989,
  "\u5e2e": 1990,
  "ab": 1991,
  "\u2581Party": 1992,
  "\u5931": 1993,
  "\u5c07": 1994,
  "\u8bf4\u7684": 1995,
  "\u3043": 1996,
  "\u2581hattest": 1997,
  "\u2581stellen": 1998,
  "\u2581\u53ef\u80fd": 1999,
  "\u2581Stra\u00dfe": 2000,
  "\u2581Mund": 2001,
  "ta": 2002,
  "\u8a00": 2003,
  "\u4f53": 2004,
  "\u519b": 2005,
  "zu": 2006,
  "\u9519": 2007,
  "\u2581N": 2008,
  "\u8981\u6c42": 2009,
  "\u2581Machen": 2010,
  "\u53ef\u662f": 2011,
  "\u2581unserem": 2012,
  "\u2581We": 2013,
  "\u2581\u5f88": 2014,
  "\u74e6": 2015,
  "\u4ee5\u540e": 2016,
  "\u2581leicht": 2017,
  "\u901a": 2018,
  "\u54c1": 2019,
  "\u898b": 2020,
  "\ue6d4": 2021,
  "\u8ba4\u4e3a": 2022,
  "\u2581Dieses": 2023,
  "\u2581Daddy": 2024,
  "\u2581\u56e0\u70ba": 2025,
  "\u2581\u4e0d\u80fd": 2026,
  "\u5ba4": 2027,
  "\u2581\u591a": 2028,
  "\u597d\u50cf": 2029,
  "8": 2030,
  "\u2581fand": 2031,
  "12": 2032,
  "\u2581\u6c92\u932f": 2033,
  "\u6b64": 2034,
  "\u6e05": 2035,
  "\u9009\u62e9": 2036,
  "\u6cb9": 2037,
  "\u4e0d\u7528": 2038,
  "\u613f\u610f": 2039,
  "\u660e\u5929": 2040,
  "\u2581\u6211\u4eec\u4f1a": 2041,
  "\u5b83\u4eec": 2042,
  "\u2581H\u00f6rt": 2043,
  "\u2581beste": 2044,
  "\u6392": 2045,
  "\u5173": 2046,
  "\u2581froh": 2047,
  "\u5c11": 2048,
  "\u2581k\u00f6nnt": 2049,
  "\u2581langsam": 2050,
  "\u2581\u6211\u73b0\u5728": 2051,
  "\u8f6c": 2052,
  "\u535a\u58eb": 2053,
  "\u7ff4": 2054,
  "\u2581Jungen": 2055,
  "\u544a\u8a34\u6211": 2056,
  "\u597d\u55ce": 2057,
  "\u8d77\u4f86": 2058,
  "\u5200": 2059,
  "\u5fc5\u987b": 2060,
  "\u2581Sein": 2061,
  "\u548c\u4ed6": 2062,
  "\u2581H": 2063,
  "\u2581total": 2064,
  "\u2581\u4f60\u4e0d": 2065,
  "ul": 2066,
  "\u2581gebracht": 2067,
  "ke": 2068,
  "\u4e9a": 2069,
  "\u987f": 2070,
  "\u2581heraus": 2071,
  "\u7d66": 2072,
  "\u2581\u6211\u6ca1": 2073,
  "\u2581herum": 2074,
  "\u75db": 2075,
  "\ue66e": 2076,
  "\u6234": 2077,
  "\u2581\u4ed6\u7684": 2078,
  "\u5931\u53bb": 2079,
  "\u8036": 2080,
  "\u789e": 2081,
  "\u904e\u4f86": 2082,
  "\u2581genommen": 2083,
  "\u4e71": 2084,
  "7": 2085,
  "\u56e0": 2086,
  "\u4e0a\u7684": 2087,
  "\",": 2088,
  "\u2581St": 2089,
  "\u2581\u6211\u53eb": 2090,
  "\u6709\u591a": 2091,
  "\u7ed9\u4ed6": 2092,
  "\u2581\u4f60\u4e5f": 2093,
  "\u5e72\u4ec0\u4e48": 2094,
  "\u2581Unser": 2095,
  "\u2581gefragt": 2096,
  "\u2581\u662f\u4e0d\u662f": 2097,
  "\u2581Mike": 2098,
  "\u2581sitzen": 2099,
  "\u2581Kampf": 2100,
  "\u6709\u9ede": 2101,
  "\u2581\u6211\u4e5f\u662f": 2102,
  "\u5e2e\u6211": 2103,
  "\u8b93": 2104,
  "\u6446": 2105,
  "\u9c7c": 2106,
  "\u8d8a": 2107,
  "\u2581Probleme": 2108,
  "\u4fee": 2109,
  "\u5152": 2110,
  "\u2581Etwas": 2111,
  "\u662f\u8ab0": 2112,
  "\u5458": 2113,
  "\u56fd": 2114,
  "\u2581Arzt": 2115,
  "\u2581\u5f53": 2116,
  "\u8fdb\u6765": 2117,
  "\u2581Habe": 2118,
  "\u2581Entschuldigen": 2119,
  "\u5dee": 2120,
  "\u2581f\u00fchle": 2121,
  "\u2581Wow": 2122,
  "\u505c": 2123,
  "\u2581Max": 2124,
  "ad": 2125,
  "\u2581Sinn": 2126,
  "\u52d5": 2127,
  "\u2581Tages": 2128,
  "\u53f2": 2129,
  "\u2581\u597d\u5417": 2130,
  "\u2581Tagen": 2131,
  "\u4e01": 2132,
  "\u6ee1": 2133,
  "\u8b93\u4f60": 2134,
  "\u5e72\u561b": 2135,
  "\u5f85": 2136,
  "\u600e\u9ebc": 2137,
  "\u6211\u4e0d\u77e5\u9053": 2138,
  "\u6b7b\u4ea1": 2139,
  "\u2581Team": 2140,
  "li": 2141,
  "\u2581still": 2142,
  "\u603b\u662f": 2143,
  "\u2581\u6240\u6709": 2144,
  "\u811a": 2145,
  "\u753b": 2146,
  "\u91cf": 2147,
  "\u2581kleines": 2148,
  "\u798f": 2149,
  "\u4f5b": 2150,
  "\u7522": 2151,
  "\u9032": 2152,
  "\u2581h\u00e4lt": 2153,
  "\u8fd9\u4e48\u505a": 2154,
  "\u8eab\u4e0a": 2155,
  "\u2581J": 2156,
  "\u8868": 2157,
  "\u6700\u597d": 2158,
  "\u5a01": 2159,
  "\u8863\u670d": 2160,
  "\u2581lasse": 2161,
  "\u665a\u4e0a": 2162,
  "\u2581ziehen": 2163,
  "\u2581Musik": 2164,
  "\u2581k\u00e4mpfen": 2165,
  "\u2581Ziel": 2166,
  "\u2581\u8fc7\u6765": 2167,
  "\u2581Schiff": 2168,
  "\u8c03\u67e5": 2169,
  "\u2581Verzeihung": 2170,
  "\u77f3": 2171,
  "\u2581verletzt": 2172,
  "\u4e3d": 2173,
  "\u8fdb\u884c": 2174,
  "\u2581getroffen": 2175,
  "\u662f\u5426": 2176,
  "\u767b": 2177,
  "\u2581Dir": 2178,
  "\u2581Ernst": 2179,
  "\u843d": 2180,
  "\u5c31\u8981": 2181,
  "ich": 2182,
  "\u83dc": 2183,
  "\u2581\u81f3\u5c11": 2184,
  "\u4e0d\u5230": 2185,
  "\u2581Bar": 2186,
  "\u2581Schnell": 2187,
  "\u6a5f": 2188,
  "\u6cb3": 2189,
  "\u2581bringe": 2190,
  "\u5143": 2191,
  "\u2581kennst": 2192,
  "\u79bb": 2193,
  "it": 2194,
  "\u671f": 2195,
  "\u81ea\u7531": 2196,
  "\u2581passieren": 2197,
  "\u2581Habt": 2198,
  "\u2581lebt": 2199,
  "\u4ed8": 2200,
  "\ue01d": 2201,
  "\u2581Raus": 2202,
  "\u5e73": 2203,
  "\u724c": 2204,
  "\u2581\u5b69\u5b50": 2205,
  "\u2581\u8981\u662f": 2206,
  "\u2581sagten": 2207,
  "\u4e9e": 2208,
  "\u6709\u4e9b": 2209,
  "\u8ab0": 2210,
  "\u2581\u4e0d\u597d\u610f\u601d": 2211,
  "\u2581hei\u00dfen": 2212,
  "\u2581interessiert": 2213,
  "\u2581umbringen": 2214,
  "\u8c03": 2215,
  "\u8272": 2216,
  "\u6539\u53d8": 2217,
  "\u4f60\u77e5\u9053": 2218,
  "\u2581klingt": 2219,
  "\u53bb\u627e": 2220,
  "\u2581welche": 2221,
  "\u4f4e": 2222,
  "\u7684\u5973\u4eba": 2223,
  "\u2581erinnern": 2224,
  "\u6c99": 2225,
  "\u653f\u5e9c": 2226,
  "\u2581Gibt": 2227,
  "\u2581Nachricht": 2228,
  "\u2581\u5148": 2229,
  "\u2581\u660e\u5929": 2230,
  "\u5b78": 2231,
  "\u2581\u8ba9": 2232,
  "\u62ff\u5230": 2233,
  "\u8981\u53bb": 2234,
  "\u81f3": 2235,
  "\u2581zuerst": 2236,
  "\u52aa\u529b": 2237,
  "\u2581cool": 2238,
  "\u7714": 2239,
  "\u2581\u592a\u597d\u4e86": 2240,
  "\u2581wem": 2241,
  "\u597d\u597d": 2242,
  "Ja": 2243,
  "\u2581know": 2244,
  "\u2581Traum": 2245,
  "\u2581einige": 2246,
  "\u2581alleine": 2247,
  "\u516d": 2248,
  "\u542c\u5230": 2249,
  "\u4f26": 2250,
  "\u6761": 2251,
  "\u54ed": 2252,
  "\u4e00\u5929": 2253,
  "\u4e0d\u540c": 2254,
  "\u79cd": 2255,
  "\u2581nochmal": 2256,
  "da": 2257,
  "\u7ed3\u675f": 2258,
  "\u5e1d": 2259,
  "\u5f3a": 2260,
  "\u2581Tom": 2261,
  "\u5728\u8fd9\u513f": 2262,
  "\u6211\u5011\u7684": 2263,
  "\u9ad4": 2264,
  "\u2581n\u00e4chste": 2265,
  "\u5feb\u70b9": 2266,
  "\u5634": 2267,
  "\u662f\u500b": 2268,
  "\u7f85": 2269,
  "\u7968": 2270,
  "\u8d27": 2271,
  "\u62c5\u5fc3": 2272,
  "\u8d85": 2273,
  "\u2581\u4f46\u4ed6": 2274,
  "\u2581~": 2275,
  "Y": 2276,
  "\u6210\u529f": 2277,
  "\u2581Meister": 2278,
  "\u2581denkt": 2279,
  "\u2581he": 2280,
  "\u2581de": 2281,
  "\u53cd": 2282,
  "\u2581gerettet": 2283,
  "\u2581Sonst": 2284,
  "\u2581au\u00dfer": 2285,
  "\u2581\u4ee5": 2286,
  "\u2581\u6211\u4eec\u5f97": 2287,
  "\u2581Mehr": 2288,
  "\u2581Gef\u00e4ngnis": 2289,
  "\u6362": 2290,
  "\u6765\u8fd9\u91cc": 2291,
  "15": 2292,
  "\u2581\u6211\u4eec\u53ef\u4ee5": 2293,
  "\u597d\u5427": 2294,
  "\u65bc": 2295,
  "\u2581h\u00f6re": 2296,
  "\u63a8": 2297,
  "\u25817": 2298,
  "\u2581Zeug": 2299,
  "\u2581\u8fd9\u4e0d\u662f": 2300,
  "\u2581Un": 2301,
  "\u2581\u8acb": 2302,
  "\u6210\u4e3a": 2303,
  "\u6df7\u86cb": 2304,
  "\u2581Idiot": 2305,
  "\u2581Entschuldige": 2306,
  "\u2581Immer": 2307,
  "\u2581weniger": 2308,
  "\u2581Klappe": 2309,
  "\u2581gestorben": 2310,
  "\u90fd\u6709": 2311,
  "\u2581Michael": 2312,
  "\u7acb": 2313,
  "\u2581De": 2314,
  "\u4eb2\u7231\u7684": 2315,
  "ce": 2316,
  "\u2581Wohin": 2317,
  "\u2581\u4f86\u5427": 2318,
  "\u89e3": 2319,
  "\u6211\u5728": 2320,
  "\u258150": 2321,
  "\u2581Herren": 2322,
  "\u2581Seht": 2323,
  "\u2581\u6211\u559c\u6b22": 2324,
  "ka": 2325,
  "\u2581Krankenhaus": 2326,
  "\u2581Warten": 2327,
  "\u2581vorstellen": 2328,
  "\u4f86\u7684": 2329,
  "\u8d70\u5427": 2330,
  "\u554f": 2331,
  "\u5904\u7406": 2332,
  "\u2581Tisch": 2333,
  "ru": 2334,
  "\u2581wert": 2335,
  "\u2581gegangen": 2336,
  "\u2581Al": 2337,
  "\u258112": 2338,
  "\u2581\u4f60\u8bf4": 2339,
  "\u2581\u5feb\u8d70": 2340,
  "\u5f39": 2341,
  "\u2581redest": 2342,
  "\u6539": 2343,
  "\u25818": 2344,
  "\u2581erfahren": 2345,
  "\u4f60\u4f1a": 2346,
  "\u2581erkl\u00e4ren": 2347,
  "\u2581sollst": 2348,
  "\u7535": 2349,
  "\u89ba\u5f97": 2350,
  "\u2581Wohnung": 2351,
  "\u91ab\u751f": 2352,
  "\u5f53\u7136": 2353,
  "at": 2354,
  "\u2581\u00e4ndern": 2355,
  "\u2581\u90a3\u6211": 2356,
  "\u591a\u4e45": 2357,
  "\u2581Leuten": 2358,
  "\u2581Erde": 2359,
  "\u827e": 2360,
  "\u4f60\u597d": 2361,
  "\u9084\u6709": 2362,
  "\u2581b": 2363,
  "\u6c42": 2364,
  "ma": 2365,
  "\u4ed6\u4eec\u7684": 2366,
  "\u544a\u8a34\u4f60": 2367,
  "\u7b49\u7b49": 2368,
  "\u2581General": 2369,
  "\u5167": 2370,
  "\u2581versuche": 2371,
  "\u7cfb\u7edf": 2372,
  "\u534e": 2373,
  "\u662f\u6211\u7684": 2374,
  "\u69cd": 2375,
  "\u2581do": 2376,
  "\u2581Charlie": 2377,
  "\u90a3\u6a23": 2378,
  "\u2581Wei\u00df": 2379,
  "\u7ed3\u5a5a": 2380,
  "\u2581\u8fd9\u5c31\u662f": 2381,
  "\u2581\u300c": 2382,
  "\u7684\u5b69\u5b50": 2383,
  "\u2581Will": 2384,
  "\u6216\u8005": 2385,
  "50": 2386,
  "\u2581kennt": 2387,
  "\u5abd\u5abd": 2388,
  "19": 2389,
  "\u662f\u5728": 2390,
  "\u2581aufs": 2391,
  "\u2581tragen": 2392,
  "\u2581w\u00e4rst": 2393,
  "\u2581k\u00f6nntest": 2394,
  "\u2581wartet": 2395,
  "\u2581Ben": 2396,
  "\u6211\u53ef\u4ee5": 2397,
  "\u2581\u544a\u8bc9\u6211": 2398,
  "\u4f60\u5728": 2399,
  "\u2581hasse": 2400,
  "\u62bd": 2401,
  "fn": 2402,
  "ster": 2403,
  "\u2581rede": 2404,
  "\u4ee4": 2405,
  "\u4e50": 2406,
  "\u2581Bild": 2407,
  "\u2581Doktor": 2408,
  "\u2581Drei": 2409,
  "\u8fd1": 2410,
  "\u2581U": 2411,
  "\u4e16": 2412,
  "\u2581\u4f60\u6703": 2413,
  "\u5757": 2414,
  "\u4e0d\u5728": 2415,
  "\u88dd": 2416,
  "\u9054": 2417,
  "\u2581Falls": 2418,
  "\u2581irgendwo": 2419,
  "\u79d8\u5bc6": 2420,
  "\u2581\u6211\u8bf4": 2421,
  "\u7684\u751f\u6d3b": 2422,
  "\u2581Richtig": 2423,
  "\u2581*": 2424,
  "\u5217": 2425,
  "\u2581stolz": 2426,
  "\u2581tu": 2427,
  "\u2581\u6ca1\u4e8b": 2428,
  "\u6f14": 2429,
  "\u2581heiraten": 2430,
  "J": 2431,
  "\u5c04": 2432,
  "\u77e5": 2433,
  "\u8173": 2434,
  "\u6e38": 2435,
  "\u7684\u539f\u56e0": 2436,
  "\u8d1f\u8d23": 2437,
  "\u5496\u5561": 2438,
  "\u6ce8\u610f": 2439,
  "\u95f4": 2440,
  "\u591f": 2441,
  "\u2581\u5404\u4f4d": 2442,
  "\u5341": 2443,
  "\u4efd": 2444,
  "\u2581\u5b9d\u8d1d": 2445,
  "\u2581\u9019\u6a23": 2446,
  "\u2581on": 2447,
  "\u2581\u5bf9\u5427": 2448,
  "\u2581n\u00f6tig": 2449,
  "\u5728\u6211": 2450,
  "V": 2451,
  "\u2581Welche": 2452,
  "\u2581hinten": 2453,
  "\u2581Dich": 2454,
  "\u98df": 2455,
  "\u6765\u8bf4": 2456,
  "Was": 2457,
  "\u2581Fenster": 2458,
  "\u4e5f\u8bb8": 2459,
  "\u2581\u4f60\u600e\u4e48": 2460,
  "\u2581\u8ba9\u6211\u4eec": 2461,
  "\u7d0d": 2462,
  "\u521a": 2463,
  "\u2581spricht": 2464,
  "\u8d5b": 2465,
  "\u2581halt": 2466,
  "di": 2467,
  "\u2581verdient": 2468,
  "\u2581erwartet": 2469,
  "\u7ea6": 2470,
  "9": 2471,
  "\u2581arbeite": 2472,
  "\u2581angerufen": 2473,
  "lo": 2474,
  "\u5408\u4f5c": 2475,
  "\u745f": 2476,
  "\u627e\u5230\u4e86": 2477,
  "\u8ddf\u4ed6": 2478,
  "\u4e3a\u4e86": 2479,
  "\u2581Zug": 2480,
  "\u2581kaufen": 2481,
  "\u7814\u7a76": 2482,
  "\u2581aufh\u00f6ren": 2483,
  "\u5728\u54ea\u513f": 2484,
  "\u6d88\u606f": 2485,
  "\u2581l\u00e4nger": 2486,
  "\u9f99": 2487,
  "\u2581\u6211\u5f88": 2488,
  "\u2581gesprochen": 2489,
  "\u2581Opfer": 2490,
  "\u2581glaub": 2491,
  "\u2581\ue652": 2492,
  "\u2581\u4ed6\u8bf4": 2493,
  "\u4ef6": 2494,
  "\u6e05\u695a": 2495,
  "ir": 2496,
  "\u2581setzen": 2497,
  "\u975e": 2498,
  "\u6b65": 2499,
  "Z": 2500,
  "\u2581meisten": 2501,
  "\u4f20": 2502,
  "\u2581Schluss": 2503,
  "\u5fd8\u4e86": 2504,
  "\u2581pro": 2505,
  "\u7136\u540e": 2506,
  "\u8a71": 2507,
  "\u8bc1\u660e": 2508,
  "\u2581\u800c\u6211": 2509,
  "\u51b0": 2510,
  "\u8fdc": 2511,
  "\u6562": 2512,
  "\u2581Meinung": 2513,
  "\u2581my": 2514,
  "ern": 2515,
  "\u2581vielen": 2516,
  "\u2581\u62c9": 2517,
  "\u4e24\u4e2a": 2518,
  "\u5169": 2519,
  "\u2581findet": 2520,
  "\u2581\u6c92": 2521,
  "\u2581wahrscheinlich": 2522,
  "\ue099": 2523,
  "\u8fd9\u6837\u505a": 2524,
  "\u2581umgebracht": 2525,
  "\u7531": 2526,
  "\u4f7f": 2527,
  "\u5176\u4ed6\u4eba": 2528,
  "\ue2c9": 2529,
  "\u2581[": 2530,
  "\u53d4\u53d4": 2531,
  "\u2581\u6211\u5f88\u62b1\u6b49": 2532,
  "\u6211\u4e5f": 2533,
  "\u5b89\u6392": 2534,
  "\u2581Gesch\u00e4ft": 2535,
  "\u2581Nehmen": 2536,
  "\u2581trotzdem": 2537,
  "\u2581wen": 2538,
  "\u8054\u7cfb": 2539,
  "\u2581\u4e0d\u7ba1": 2540,
  "\u591c": 2541,
  "ic": 2542,
  "\u8d39": 2543,
  "ol": 2544,
  "\u2581Glaubst": 2545,
  "\u4fdd": 2546,
  "\u2581\u53ea": 2547,
  "\u2581\u6211\u771f\u7684": 2548,
  "\u2581\u7136\u5f8c": 2549,
  "Das": 2550,
  "\u2581genauso": 2551,
  "\u2581k\u00fcmmern": 2552,
  "\u2581\u5e76": 2553,
  "\u5b66\u6821": 2554,
  "\u5ff5": 2555,
  "\u2581Peter": 2556,
  "\u2581Bewegung": 2557,
  "\u5f00\u67aa": 2558,
  "\u957f\u5b98": 2559,
  "ja": 2560,
  "\u2581Gold": 2561,
  "\u9732": 2562,
  "\u603b": 2563,
  "\u2581f\u00fchren": 2564,
  "\u2581\u4e09": 2565,
  "\u8df3\u821e": 2566,
  "\u958b\u59cb": 2567,
  "fs": 2568,
  "\u2581manchmal": 2569,
  "\u8207": 2570,
  "\u6771\u897f": 2571,
  "\u5179": 2572,
  "\u8ba4\u8bc6": 2573,
  "\u91cc\u9762": 2574,
  "\u89e3\u91ca": 2575,
  "\u5207": 2576,
  "\u904e\u53bb": 2577,
  "\u2581Auge": 2578,
  "\u2581worden": 2579,
  "\u537b": 2580,
  "\u5beb": 2581,
  "\u2581geschehen": 2582,
  "\u4fdd\u62a4": 2583,
  "\u6770": 2584,
  "\u7684\u5de5\u4f5c": 2585,
  "ler": 2586,
  "\u51b7": 2587,
  "\u540c\u610f": 2588,
  "\u838e": 2589,
  "\u4efb": 2590,
  "as": 2591,
  "\u8fd8\u5728": 2592,
  "\u8fd8\u6ca1": 2593,
  "im": 2594,
  "\u8bfb": 2595,
  "\u2581verschwinden": 2596,
  "\u725b": 2597,
  "\u2581\u6211\u5e0c\u671b": 2598,
  "\u4f7f\u7528": 2599,
  "\u2581lustig": 2600,
  "\u5e02": 2601,
  "\u2581\u4f60\u5e94\u8be5": 2602,
  "\u5ba2": 2603,
  "\u4f60\u81ea\u5df1": 2604,
  "\u2581\u807d\u8457": 2605,
  "\u7684\u6545\u4e8b": 2606,
  "\u5c3d": 2607,
  "\u2581\u6211\u60f3\u4f60": 2608,
  "\u8fd9\u513f": 2609,
  "\u5bb6\u5ead": 2610,
  "\u6728": 2611,
  "\u6253\u7535\u8bdd": 2612,
  "\u4f60\u53ef\u4ee5": 2613,
  "\u2581\u8ab0": 2614,
  "\u2581hart": 2615,
  "\u2581neu": 2616,
  "\u529e": 2617,
  "\u2581Geben": 2618,
  "\u7684\u5c0f": 2619,
  "\u2581Eins": 2620,
  "\u5f20": 2621,
  "\u2581\u4f60\u77e5\u9053\u6211": 2622,
  "\u2581danach": 2623,
  "\u2581\u9019\u500b": 2624,
  "\u5e15": 2625,
  "\u2581Finger": 2626,
  "\u8349": 2627,
  "\u2581Ruf": 2628,
  "\u2581f\u00e4llt": 2629,
  "\u2581\u5929": 2630,
  "\u4ee3\u8868": 2631,
  "\u2581\u4e0a\u5e1d": 2632,
  "\u539f\u56e0": 2633,
  "\u5c31\u6703": 2634,
  "\u8c08\u8c08": 2635,
  "\u96c5": 2636,
  "\u4f60\u60f3": 2637,
  "\u4e0a\u4e86": 2638,
  "\u2581\u662f\u55ce": 2639,
  "\u2581Beste": 2640,
  "!\"": 2641,
  "\u7b2c\u4e00\u6b21": 2642,
  "\u8428": 2643,
  "\u96ea": 2644,
  "\u5e8a": 2645,
  "\u7684\u6771\u897f": 2646,
  "\u8f49": 2647,
  "\u2581Darum": 2648,
  "\u2581Laden": 2649,
  "\u56fe": 2650,
  "\u7ea2": 2651,
  "\u2581\u6211\u548c": 2652,
  "\u2581gef\u00e4hrlich": 2653,
  "\u6574\u4e2a": 2654,
  "\u5bb6\u4eba": 2655,
  "\u574f": 2656,
  "\u2581\u56e0\u4e3a\u4f60": 2657,
  "\u544a\u8bc9": 2658,
  "\u8fdb\u5165": 2659,
  "\u539f": 2660,
  "\u5355": 2661,
  "\u65b0\u7684": 2662,
  "\u2581\u7b49": 2663,
  "\u7167\u7247": 2664,
  "\u8ffd": 2665,
  "\u2581Daf\u00fcr": 2666,
  "\u8acb": 2667,
  "\u9019\u88e1": 2668,
  "ha": 2669,
  "\u6700\u597d\u7684": 2670,
  "\u771f\u76f8": 2671,
  "\u2581\u7238": 2672,
  "\u2581not": 2673,
  "\u91cd\u8981": 2674,
  "\u600e\u6a23": 2675,
  "\u6240\u4ee5": 2676,
  "\u78b0": 2677,
  "\u89e3\u51b3": 2678,
  "\u70ba\u4ec0\u9ebc": 2679,
  "\u4e00\u4f4d": 2680,
  "\u2581fliegen": 2681,
  "\u7ec4\u7ec7": 2682,
  "\u4e3a\u4f60": 2683,
  "\u56de\u7b54": 2684,
  "\u6211\u6703": 2685,
  "\u80af": 2686,
  "\u2581La": 2687,
  "\u8655": 2688,
  "und": 2689,
  "\u6811": 2690,
  "30": 2691,
  "\u2581for": 2692,
  "\u98de\u673a": 2693,
  "\u2581Drogen": 2694,
  "\u2581Wird": 2695,
  "\u4eba\u7c7b": 2696,
  "\u2581bring": 2697,
  "\u2581spielt": 2698,
  "\u61c9\u8a72": 2699,
  "\u6ca1\u4e8b": 2700,
  "\u2581bezahlt": 2701,
  "\u62b1\u6b49": 2702,
  "pos": 2703,
  "\u2581\u8be5\u6b7b": 2704,
  "\u817f": 2705,
  "\u2581\u5361": 2706,
  "\u623f\u95f4": 2707,
  "\u2581Alex": 2708,
  "\u53e4": 2709,
  "\u5e0c": 2710,
  "\u66fe": 2711,
  "\u2581Antwort": 2712,
  "\u2581ran": 2713,
  "\u3106": 2714,
  "\u4eb2": 2715,
  "\u2581FBI": 2716,
  "\u2581eher": 2717,
  "\u2581vorher": 2718,
  "\u2581Re": 2719,
  "\u5bc6": 2720,
  "U": 2721,
  "\u2581jedes": 2722,
  "\u5173\u7cfb": 2723,
  "\u2581r\u00fcber": 2724,
  "\u2581k": 2725,
  "\u6295": 2726,
  "\u6309": 2727,
  "\u540e\u9762": 2728,
  "\u2581\u6211\u5011\u8981": 2729,
  "\u2581\u7842": 2730,
  "\u2581fallen": 2731,
  "\u2581\u4ed6\u4f1a": 2732,
  "\u2581\u6211\u8981\u4f60": 2733,
  "\u5bf9\u5427": 2734,
  "\u4e0d\u8fc7": 2735,
  "\u86cb": 2736,
  "\u2581Manchmal": 2737,
  "\u547d\u4ee4": 2738,
  "\u2581this": 2739,
  "\u670d": 2740,
  "\u2581schlimm": 2741,
  "\u2581\u5e0c\u671b": 2742,
  "\u9053\u6b49": 2743,
  "\u2581solche": 2744,
  "\u2581geschickt": 2745,
  "\u8aaa\u8a71": 2746,
  "\u5e2e\u52a9": 2747,
  "\u2581\u975e\u5e38": 2748,
  "\u2581schreiben": 2749,
  "\u8bed": 2750,
  "\u2581Unter": 2751,
  "un": 2752,
  "\u2581stark": 2753,
  "\u5e76": 2754,
  "\u7259": 2755,
  "\u7684\u65f6\u95f4": 2756,
  "\u7684\u95ee\u9898": 2757,
  "\u4e5f\u4e0d": 2758,
  "\u2581Harry": 2759,
  "\u2581starb": 2760,
  "\u2581\u5927\u5bb6\u90fd": 2761,
  "\u5357": 2762,
  "\u611f": 2763,
  "\u2581Wiedersehen": 2764,
  "\u2581vorsichtig": 2765,
  "\u81ed": 2766,
  "\u610f\u5916": 2767,
  "\u8138": 2768,
  "\u8bf4\u8fc7": 2769,
  "\u2581\u76f4\u5230": 2770,
  "\u2581halte": 2771,
  "\u2581liebt": 2772,
  "\u25819": 2773,
  "\u2581Gedanken": 2774,
  "\ue215": 2775,
  "\u4fdd\u6301": 2776,
  "\u5171": 2777,
  "\u5e2e\u5fd9": 2778,
  "\u5f8b\u5e08": 2779,
  "\ue612": 2780,
  "\u2581Hotel": 2781,
  "\u548c\u5979": 2782,
  "\u672a": 2783,
  "\u7f6a": 2784,
  "\u2581Person": 2785,
  "\u4e0a\u53bb": 2786,
  "\u52a0\u5165": 2787,
  "\u89d2": 2788,
  "\u6709\u4e00\u4e2a": 2789,
  "\u90a3\u8fb9": 2790,
  "\u2581Ha": 2791,
  "\u601d": 2792,
  "\u8499": 2793,
  "\u2581All": 2794,
  "\u2581jedem": 2795,
  "\u2581--": 2796,
  "\u56de\u6765\u4e86": 2797,
  "\u5979\u4eec": 2798,
  "\u90fd\u4f1a": 2799,
  "\u2581liegen": 2800,
  "\u76f4": 2801,
  "\u8863": 2802,
  "\u8fd9\u4e48\u8bf4": 2803,
  "bo": 2804,
  "\u2581werdet": 2805,
  "mo": 2806,
  "\u2581gewinnen": 2807,
  "\u5468": 2808,
  "\u2581anrufen": 2809,
  "\u4ea4\u6613": 2810,
  "\u2581\u4f60\u771f": 2811,
  "\u2581Partner": 2812,
  "\u2581damals": 2813,
  "\u2581\u6240\u4ee5\u4f60": 2814,
  "\u2581Stelle": 2815,
  "\u7e7c\u7e8c": 2816,
  "\u2581Bier": 2817,
  "\u6885": 2818,
  "\u6b4c": 2819,
  "\u4e0d\u53ef": 2820,
  "\u2581\u6211\u5c31\u662f": 2821,
  "\u6293": 2822,
  "\u2581Mord": 2823,
  "\u2581arbeitet": 2824,
  "\u2581Keiner": 2825,
  "\u2581\u6bd4": 2826,
  "\u53d8\u6210": 2827,
  "\u501f": 2828,
  "\ue610": 2829,
  "\u2581kalt": 2830,
  "\u2581Eis": 2831,
  "\u5c31\u597d": 2832,
  "\u2581ent": 2833,
  "\u4e00\u4efd": 2834,
  "\u624d\u662f": 2835,
  "\u6025": 2836,
  "\u6c38\u8fdc": 2837,
  "\u2581hole": 2838,
  "\u2581fort": 2839,
  "\u2581\u6211\u4eec\u7684": 2840,
  "\u2581It": 2841,
  "\u2581Sekunden": 2842,
  "\u2581\u800c\u4f60": 2843,
  "\u2581h\u00f6rte": 2844,
  "\u2581Glauben": 2845,
  "\u2581falls": 2846,
  "\u5446": 2847,
  "\u9632": 2848,
  "ho": 2849,
  "\u62a5\u544a": 2850,
  "\u2581N\u00e4he": 2851,
  "\u662f\u4e00\u4e2a": 2852,
  "\u2581Worte": 2853,
  "\u6bd2": 2854,
  "\u751f\u547d": 2855,
  "\u2581m\u00f6gen": 2856,
  "\u2581offen": 2857,
  "\u62a5": 2858,
  "\u76f4\u63a5": 2859,
  "\u2581tat": 2860,
  "\u2581\u9664\u4e86": 2861,
  "\u2581Agent": 2862,
  "\u2581Vorsicht": 2863,
  "\u51fa\u73b0": 2864,
  "\u5723": 2865,
  "\u665a": 2866,
  "\u2581Echt": 2867,
  "\u4e03": 2868,
  "\u2581erinnere": 2869,
  "\u2581jemals": 2870,
  "\u9000": 2871,
  "\u85cf": 2872,
  "\u2581f\u00fchlen": 2873,
  "\u2581\u5f9e": 2874,
  "\u2581deshalb": 2875,
  "\u6b72": 2876,
  "\u2581Augenblick": 2877,
  "\u2581David": 2878,
  "\u8ba9\u6211\u4eec": 2879,
  "\u6e38\u620f": 2880,
  "\u2581\u8b93\u6211": 2881,
  "\u2581stand": 2882,
  "\u4e2a\u4eba": 2883,
  "\u6230": 2884,
  "\u2581can": 2885,
  "\u5b8c\u4e86": 2886,
  "\u2581V": 2887,
  "\u5565": 2888,
  "\u2581York": 2889,
  "\u2581lesen": 2890,
  "\u2581\u77e5\u9053": 2891,
  "\u514b\u65af": 2892,
  "\u4fdd\u8bc1": 2893,
  "\u2581Mo": 2894,
  "\u80fd\u591f": 2895,
  "\u2581\u6ca1\u5173\u7cfb": 2896,
  "\u82e6": 2897,
  "\u2581\u5b83\u4eec": 2898,
  "\u4e0d\u518d": 2899,
  "\u9a6c\u4e0a": 2900,
  "ut": 2901,
  "\u53ca": 2902,
  "\u5b88": 2903,
  "\u2581gro\u00dfer": 2904,
  "\u2581\u4f19\u8ba1": 2905,
  "\u8ac7": 2906,
  "\u2581dumm": 2907,
  "\u51b2": 2908,
  "\u4f11\u606f": 2909,
  "\u83f2": 2910,
  "mal": 2911,
  "\u600e\u9ebc\u6a23": 2912,
  "\u2581\u2013": 2913,
  "\u6208": 2914,
  "\u8fd9\u4ef6\u4e8b": 2915,
  "\u53c2\u52a0": 2916,
  "\u2581behalten": 2917,
  "\u2581Zur\u00fcck": 2918,
  "\u2581Arm": 2919,
  "\u2581aller": 2920,
  "\u2581\u00c4rger": 2921,
  "\u563f": 2922,
  "\u5168\u90e8": 2923,
  "\u5f15": 2924,
  "\u2581\u6211\u6765": 2925,
  "\u61c2": 2926,
  "cHFF": 2927,
  "\u2581verheiratet": 2928,
  "\u6700\u540e": 2929,
  "\u65b0\u95fb": 2930,
  "\u2581\u4f60\u89c9\u5f97": 2931,
  "\u4e0b\u4f86": 2932,
  "\u978b": 2933,
  "\u2581glaubt": 2934,
  "\u2581Foto": 2935,
  "\u2581Monate": 2936,
  "\u5594": 2937,
  "\u7406\u89e3": 2938,
  "\u2581your": 2939,
  "\u2581Entscheidung": 2940,
  "\u7279\u522b": 2941,
  "\u516b": 2942,
  "\u53bb\u5427": 2943,
  "\u6bcf": 2944,
  "\u2581Captain": 2945,
  "\u7537": 2946,
  "\u767e": 2947,
  "\u2581Chef": 2948,
  "\u2581Durch": 2949,
  "\u2581Setz": 2950,
  "isch": 2951,
  "\u2581Anwalt": 2952,
  "ley": 2953,
  "\u2581Gefallen": 2954,
  "\u4e0d\u592a": 2955,
  "\u592a\u591a": 2956,
  "\u50bb": 2957,
  "\u5b9d\u8d1d": 2958,
  "\u60c5\u51b5": 2959,
  "\u771f\u6b63\u7684": 2960,
  "\u2581Henry": 2961,
  "\u2581\u4f60\u77e5\u9053\u5417": 2962,
  "\u2581\u6211\u53ea\u662f\u60f3": 2963,
  "\u628a\u5979": 2964,
  "--": 2965,
  "\u2581anfangen": 2966,
  "\u55ef": 2967,
  "\u5403\u4e86": 2968,
  "\u2581werd": 2969,
  "\u2581Fu\u00df": 2970,
  "\u2581Reise": 2971,
  "\u91ce": 2972,
  "\u6bcd": 2973,
  "bar": 2974,
  "\u2581verdammte": 2975,
  "\u72af": 2976,
  "\u8afe": 2977,
  "\u9ebb\u70e6": 2978,
  "\u4f55": 2979,
  "\u5728\u9019\u5152": 2980,
  "\u653b\u51fb": 2981,
  "\u5236": 2982,
  "\u2581d": 2983,
  "\u2581\u522b\u62c5\u5fc3": 2984,
  "\u5206\u949f": 2985,
  "\u662f\u5417": 2986,
  "\u5feb\u4e50": 2987,
  "\u7684\u7537\u4eba": 2988,
  "\u2581\u76f8\u4fe1\u6211": 2989,
  "EN": 2990,
  "\u56fd\u5bb6": 2991,
  "\u6578": 2992,
  "\u2581\u6770\u514b": 2993,
  "\u2581Liebling": 2994,
  "\u4e5f\u4f1a": 2995,
  "id": 2996,
  "\u2581sch\u00e4tze": 2997,
  "\u770b\u5230\u4f60": 2998,
  "\u2581konnten": 2999,
  "\u513f\u5b50": 3000,
  "\u6536\u5230": 3001,
  "\u91cd\u65b0": 3002,
  "\u2581\u95ed\u5634": 3003,
  "\u63d0\u4f9b": 3004,
  "\u6f02\u4eae": 3005,
  "\u62e5\u6709": 3006,
  "\u66f4\u591a": 3007,
  "\u85e5": 3008,
  "\u2581leider": 3009,
  "\u2581passt": 3010,
  "\u8c61": 3011,
  "ca": 3012,
  "\u2581schicken": 3013,
  "\u5bb3": 3014,
  "\u2581\u53eb": 3015,
  "\u2581#": 3016,
  "\u2581f": 3017,
  "\u2581bitten": 3018,
  "\u6211\u80fd": 3019,
  "\u2581darfst": 3020,
  "\u5c0f\u5b50": 3021,
  "\u2581suche": 3022,
  "\u6709\u5173": 3023,
  "\u6743": 3024,
  "\u5173\u4e8e": 3025,
  "ent": 3026,
  "\u662f\u4ec0\u9ebc": 3027,
  "\u2581\u5988\u7684": 3028,
  "\u6c89": 3029,
  "\u2581frage": 3030,
  "\u5343": 3031,
  "\u2581Mich": 3032,
  "\u5728\u90a3": 3033,
  "\u90fd\u5728": 3034,
  "\u6574": 3035,
  "\u5e2e\u4f60": 3036,
  "\u2581\u6c42\u4f60\u4e86": 3037,
  "\u2581verkaufen": 3038,
  "do": 3039,
  "\u2581kriegt": 3040,
  "\u8b66": 3041,
  "\u2581schlimmer": 3042,
  "\u7535\u5f71": 3043,
  "\u2581Richtung": 3044,
  "\u2581klein": 3045,
  "\u2581m\u00fcsst": 3046,
  "\u88cf": 3047,
  "\u571f": 3048,
  "\u6c11": 3049,
  "\u5bf9\u4e0d\u8d77": 3050,
  "\u2581st\u00e4ndig": 3051,
  "\u5f88\u68d2": 3052,
  "\u505c\u6b62": 3053,
  "\u94f6\u884c": 3054,
  "ze": 3055,
  "\u2581\u6211\u4eec\u5728": 3056,
  "\u4f60\u4eec\u7684": 3057,
  "\u79e8": 3058,
  "\u9996": 3059,
  "\u4ed6\u662f": 3060,
  "\u5957": 3061,
  "\u66f4\u597d": 3062,
  "\u53ea\u80fd": 3063,
  "\ue727": 3064,
  "\u7206\u70b8": 3065,
  "\u53eb\u4f60": 3066,
  "\u5371\u9669": 3067,
  "\u2581Bo": 3068,
  "\u00e9": 3069,
  "\u2581Brief": 3070,
  "\u2581Dies": 3071,
  "\u2581dagegen": 3072,
  "\u90fd\u8981": 3073,
  "\u2581Versuch": 3074,
  "\u2581\u6211\u7231\u4f60": 3075,
  "\u76f8\u4fe1\u6211": 3076,
  "\u7684\u540d\u5b57": 3077,
  "\u901a\u8fc7": 3078,
  "\u2581bezahlen": 3079,
  "\u2581p": 3080,
  "\u8072": 3081,
  "\u2581Egal": 3082,
  "\u4e2d\u7684": 3083,
  "\u2581voller": 3084,
  "\u8ff7": 3085,
  "gen": 3086,
  "\u2581super": 3087,
  "\u4e0d\u8be5": 3088,
  "\u7b2c\u4e00": 3089,
  "\u2581Riesen": 3090,
  "\u2581Seid": 3091,
  "\ue0a4": 3092,
  "\u2581\u4f60\u73b0\u5728": 3093,
  "\u2581unterwegs": 3094,
  "\u2581\u5f88\u62b1\u6b49": 3095,
  "\u2581What": 3096,
  "\u9003": 3097,
  "\u2581\u5df2\u7ecf": 3098,
  "\u4e5f\u6709": 3099,
  "\u2581Jim": 3100,
  "\u65ad": 3101,
  "\u2581Z": 3102,
  "\u77ed": 3103,
  "\u2581Preis": 3104,
  "end": 3105,
  "\u98df\u7269": 3106,
  "\u653e\u5728": 3107,
  "\u2581Bank": 3108,
  "\u535a": 3109,
  "\u2581\u4f60\u771f\u7684": 3110,
  "\u4e00\u4ef6": 3111,
  "\u2581\u6211\u60f3\u6211": 3112,
  "\u662f\u5427": 3113,
  "dy": 3114,
  "Nein": 3115,
  "\u62d6": 3116,
  "\u4e8b\u4ef6": 3117,
  "\u9047\u5230": 3118,
  "\u2581\u600e\u9ebc\u4e86": 3119,
  "\u2581M\u00f6rder": 3120,
  "\u2581sieh": 3121,
  "\u5e94": 3122,
  "\u2581machte": 3123,
  "\u90a3\u9ebc": 3124,
  "\u503c\u5f97": 3125,
  "\u96e3": 3126,
  "\u2581\u90fd\u662f": 3127,
  "\u2581\u4e0d\u904e": 3128,
  "\u97f3": 3129,
  "\u2581Einer": 3130,
  "\u77e5\u9053\u4f60": 3131,
  "\u2581Gefahr": 3132,
  "\u2581Wegen": 3133,
  "\u5783\u573e": 3134,
  "\u7684\u4e00\u5207": 3135,
  "\u98a8": 3136,
  "\u8003": 3137,
  "\u2581\u6ca1\u4ec0\u4e48": 3138,
  "\u80cc": 3139,
  "\u9019\u4e48": 3140,
  "\u2581Dort": 3141,
  "\u767c\u73fe": 3142,
  "\u8ddf\u5979": 3143,
  "\u9e1f": 3144,
  "\u2581Regierung": 3145,
  "\u2581Ehre": 3146,
  "\u5f00\u8f66": 3147,
  "\u2581Sollte": 3148,
  "\u2581bekannt": 3149,
  "\u2581w\u00fcnschte": 3150,
  "\u91cc\u7684": 3151,
  "\u2581\u4f60\u548c": 3152,
  "\u2581alter": 3153,
  "\u95dc": 3154,
  "\u57ce\u5e02": 3155,
  "\u8bf4\u4e86": 3156,
  "land": 3157,
  "\u5e08": 3158,
  "\u4f60\u5c31": 3159,
  "sa": 3160,
  "\u2581Paul": 3161,
  "\u2581hol": 3162,
  "\u2581\u6211\u89ba\u5f97": 3163,
  "\u2581Ob": 3164,
  "\u2581Anfang": 3165,
  "\u2581Wen": 3166,
  "\u2581verstehst": 3167,
  "\u2581Pr\u00e4sident": 3168,
  "\u7ffb": 3169,
  "\u2581Geist": 3170,
  "\u2581Handy": 3171,
  "\u82e5": 3172,
  "\u2581Informationen": 3173,
  "\u2581\u8b1d\u8b1d\u4f60": 3174,
  "\u5b58": 3175,
  "\u62db": 3176,
  "\u67b6": 3177,
  "\u2581Boot": 3178,
  "\u773c\u775b": 3179,
  "\u8822": 3180,
  "\u2581lie\u00df": 3181,
  "\u5f62": 3182,
  "\u2581\u5144\u5f1f": 3183,
  "\u53ea\u8981": 3184,
  "\u2581Karte": 3185,
  "\u2581steckt": 3186,
  "\u2581\u4ed6\u4eec\u4f1a": 3187,
  "\u2581Befehl": 3188,
  "\u96c6": 3189,
  "\u611f\u89ba": 3190,
  "mann": 3191,
  "\u2581rufe": 3192,
  "\u2581\u8001\u5929": 3193,
  "\u2581Flugzeug": 3194,
  "\u2581Hochzeit": 3195,
  "\u2581\u5176\u5b9e": 3196,
  "\u739b": 3197,
  "co": 3198,
  "\u2581\u662f\u5427": 3199,
  "\u2581\u56e0\u70ba\u6211": 3200,
  "\u4e00\u573a": 3201,
  "\u2581f\u00fchrt": 3202,
  "\u5c0d\u6211": 3203,
  "\u2581\u90a3\u662f\u4ec0\u4e48": 3204,
  "\u8868\u6f14": 3205,
  "ard": 3206,
  "\u2581Stimme": 3207,
  "\u544a": 3208,
  "\u673a\u4f1a": 3209,
  "\u2581Eigentlich": 3210,
  "\u2581Raum": 3211,
  "\u2581\u54c8": 3212,
  "\u751f\u610f": 3213,
  "\u2581\u4e0d\u4f1a": 3214,
  "\u5f88\u91cd\u8981": 3215,
  "\u7ad9\u5728": 3216,
  "\u2581\u00ea": 3217,
  "\u517b": 3218,
  "\u82f1\u96c4": 3219,
  "\u90fd\u6ca1\u6709": 3220,
  "\u2581100": 3221,
  "\u2581Gar": 3222,
  "\u2581Wein": 3223,
  "\u2581niemanden": 3224,
  "\u6709\u6ca1\u6709": 3225,
  "\u97f3\u4e50": 3226,
  "\u7433": 3227,
  "\u8a72": 3228,
  "\u2581Klasse": 3229,
  "me": 3230,
  "\u2581Geburtstag": 3231,
  "\u2581Hunger": 3232,
  "\u5340": 3233,
  "\u2581Co": 3234,
  "\u2581Super": 3235,
  "\u2581pl\u00f6tzlich": 3236,
  "\u2581sitzt": 3237,
  "\u2581Monaten": 3238,
  "\u2581neues": 3239,
  "\u2581\u7ed9": 3240,
  "\u2581Lauf": 3241,
  "\u2581Schlaf": 3242,
  "\u2581Tasche": 3243,
  "\u2581jemandem": 3244,
  "\u4f4f\u5728": 3245,
  "\u51fa\u4e86": 3246,
  "\u5927\u4eba": 3247,
  "\u5b98": 3248,
  "\u2581Witz": 3249,
  "sh": 3250,
  "shad": 3251,
  "\u2581Sekunde": 3252,
  "\u4e00\u500b\u4eba": 3253,
  "\u2581gelesen": 3254,
  "\u2581b\u00f6se": 3255,
  "go": 3256,
  "\u842c": 3257,
  "\u5982\u679c\u4f60": 3258,
  "\u5f00\u5fc3": 3259,
  "\u6770\u514b": 3260,
  "\u89c1\u8fc7": 3261,
  "\u2581\u7ee7\u7eed": 3262,
  "\u258118": 3263,
  "\u2581Bescheid": 3264,
  "\u2581\u4e0d\u53ef\u80fd": 3265,
  "\u2581hilft": 3266,
  "\u3050\u6216": 3267,
  "\u6628\u665a": 3268,
  "\u2581%1": 3269,
  "\u2581Ex": 3270,
  "\u806a\u660e": 3271,
  "\u00f6": 3272,
  "\ue5fb": 3273,
  "\u8cb7": 3274,
  "\u2581Tee": 3275,
  "\u9ebc": 3276,
  "\u2581Flug": 3277,
  "\u2581\u90a3\u5c31\u662f": 3278,
  "\u2581erledigt": 3279,
  "\u5377": 3280,
  "\u2581\u8001": 3281,
  "\u2581s\u00fc\u00df": 3282,
  "\u75af\u4e86": 3283,
  "\u804a": 3284,
  "\u6df7": 3285,
  "\u821e": 3286,
  "\u7a81\u7136": 3287,
  "\u2581hei\u00dfe": 3288,
  "\u7537\u5b69": 3289,
  "\u2581ansehen": 3290,
  "\u4ee4\u4eba": 3291,
  "pe": 3292,
  "\u2581\u5982\u679c\u4ed6": 3293,
  "\u2581\u600e\u4e48\u56de\u4e8b": 3294,
  "\u2581nimmt": 3295,
  "\u2581\u6211\u5df2\u7d93": 3296,
  "\u2581Zeig": 3297,
  "\u2581benutzt": 3298,
  "\u258140": 3299,
  "\u2581unm\u00f6glich": 3300,
  "\u6cd5\u5f8b": 3301,
  "\u2581\u6211\u4eec\u662f": 3302,
  "\u591a\u4e86": 3303,
  "\u5ea7": 3304,
  "\u2581kamen": 3305,
  "\u2581\u00c4h": 3306,
  "\u2581Geschenk": 3307,
  "\u8bf4\u4ec0\u4e48": 3308,
  "\u7136": 3309,
  "\u94c1": 3310,
  "\u9020": 3311,
  "\u533b\u9662": 3312,
  "\u627e\u4f60": 3313,
  "\u2581Kontrolle": 3314,
  "\u2581acht": 3315,
  "\u2581\u8b66\u5bdf": 3316,
  "\u66ff": 3317,
  "\u2581geschrieben": 3318,
  "\u5728\u9019": 3319,
  "\u2581komisch": 3320,
  "\u4ee3": 3321,
  "\u2581perfekt": 3322,
  "\u4e00\u4ef6\u4e8b": 3323,
  "\u6d88\u5931": 3324,
  "\u4e0a\u9762": 3325,
  "\u7ec4": 3326,
  "\u6ca1\u9519": 3327,
  "\u96e8": 3328,
  "\u5973\u513f": 3329,
  "\u677f": 3330,
  "ry": 3331,
  "\u2581Joe": 3332,
  "\u2581have": 3333,
  "\u5411\u4f60": 3334,
  "\u2581folgen": 3335,
  "\u96e2\u958b": 3336,
  "\u8fd9\u6b21": 3337,
  "\u2581Kleine": 3338,
  "\u2581besonders": 3339,
  "\u2581Leiche": 3340,
  "\u2581tief": 3341,
  "\u6bd4\u8d5b": 3342,
  "\u7ea6\u4f1a": 3343,
  "\u2581\u5f53\u6211": 3344,
  "\u2581\u827e": 3345,
  "\u9886": 3346,
  "\u9876": 3347,
  "\u2581gelernt": 3348,
  "\u2581Rolle": 3349,
  "\u2581\u9019\u4e9b": 3350,
  "\u518d\u89c1": 3351,
  "\u72fc": 3352,
  "\u5e95": 3353,
  "\u676f": 3354,
  "\u653e\u4e0b": 3355,
  "\u2581gestohlen": 3356,
  "\u7cbe": 3357,
  "\u2581nennt": 3358,
  "\u2581\u8001\u5144": 3359,
  "\u4e1c": 3360,
  "\u68d2": 3361,
  "\u2581lieb": 3362,
  "\u2581\u5c31\u5728": 3363,
  "\u2581hei\u00df": 3364,
  "\u4f60\u80fd": 3365,
  "\u529e\u516c\u5ba4": 3366,
  "Du": 3367,
  "\u2581Tony": 3368,
  "\u5728\u4f60": 3369,
  "\u2581f\u00fcrs": 3370,
  "\u5e6b": 3371,
  "\u7d72": 3372,
  "\u2581Monat": 3373,
  "\u2581euer": 3374,
  "\u90fd\u4e0d": 3375,
  "\u2581Einzige": 3376,
  "cm": 3377,
  "\u2581Weiter": 3378,
  "\u79d2": 3379,
  "\u2581Sch": 3380,
  "\u2581\u597d\u50cf": 3381,
  "\u8aaa\u7684": 3382,
  "/": 3383,
  "\u2581\u6216\u8bb8": 3384,
  "\u9999": 3385,
  "\u4eba\u7684": 3386,
  "\u5438": 3387,
  "\u2581bekommt": 3388,
  "\u2581\u4f46\u662f\u4f60": 3389,
  "\u4e00\u6761": 3390,
  "\u641e\u5b9a": 3391,
  "\u8f9b": 3392,
  "\u9032\u53bb": 3393,
  "\u65e7": 3394,
  "\u756b": 3395,
  "\u76ee": 3396,
  "\u4e2d\u5fc3": 3397,
  "\u7aef": 3398,
  "\u6740\u4eba": 3399,
  "\u7684\u5bb6\u4f19": 3400,
  "\u2581erwischt": 3401,
  "\u5c31\u53ef\u4ee5": 3402,
  "\u2581Kraft": 3403,
  "\u521d": 3404,
  "\u51e0\u4e2a": 3405,
  "est": 3406,
  "\u2581dahin": 3407,
  "\u51fb": 3408,
  "\u5e72\u7684": 3409,
  "\u7dad": 3410,
  "\u771f\u6b63": 3411,
  "\u2581\u6211\u90fd": 3412,
  "\u4f19\u8ba1": 3413,
  "\u60f3\u5230": 3414,
  "\u671d": 3415,
  "\u2581Nachrichten": 3416,
  "\u9152\u5427": 3417,
  "\u9662": 3418,
  "\u2581George": 3419,
  "\u2581Kontakt": 3420,
  "\u2581Minute": 3421,
  "\u5c9b": 3422,
  "\u770b\u8d77\u6765": 3423,
  "\u7cbe\u795e": 3424,
  "\u7ea6\u7ff0": 3425,
  "\u2581\u6211\u8ba4\u4e3a": 3426,
  "\u2581\u597d\u554a": 3427,
  "\u2581Herzen": 3428,
  "\u2581gewonnen": 3429,
  "\u2581Wald": 3430,
  "\u2581m\u00fcde": 3431,
  "\u2581Erst": 3432,
  "\u2581H\u00e4tte": 3433,
  "\u2581wach": 3434,
  "\u2581\u5728\u6211": 3435,
  "\u2581Armee": 3436,
  "\u2581Denk": 3437,
  "\u2581Familien": 3438,
  "\u570b": 3439,
  "\u5546": 3440,
  "\u2581Unfall": 3441,
  "\u7231\u4f60": 3442,
  "\u2581besch\u00fctzen": 3443,
  "no": 3444,
  "\u2581versprochen": 3445,
  "ah": 3446,
  "\u2581vertrauen": 3447,
  "\u2581\u771f\u7684\u5417": 3448,
  "\u6709\u5f88\u591a": 3449,
  "\u2581\u6216": 3450,
  "\u2581Wovon": 3451,
  "\u2581richtige": 3452,
  "ation": 3453,
  "igen": 3454,
  "\u5c0f\u5fc3": 3455,
  "\u2581sch\u00f6ne": 3456,
  "\u5bc4": 3457,
  "\u2581\u00e4h": 3458,
  "\u5404\u4f4d": 3459,
  "\u8ba9\u5979": 3460,
  "\u2581wenigstens": 3461,
  "\u4e00\u5e74": 3462,
  "\u8fd8\u8981": 3463,
  "\u2581Bob": 3464,
  "\u2581rufen": 3465,
  "\u2581\u740c": 3466,
  "\u70c2": 3467,
  "\u2581Punkt": 3468,
  "\u5229\u7528": 3469,
  "\u89c1\u5230": 3470,
  "\u6478": 3471,
  "\u75db\u82e6": 3472,
  "\u6ca1\u4ec0\u4e48": 3473,
  "\u2581\u9760": 3474,
  "\u68c0\u67e5": 3475,
  "pa": 3476,
  "\u54ea\u91cc": 3477,
  "\u2581kaputt": 3478,
  "\u653e\u5f03": 3479,
  "heit": 3480,
  "\u89c6": 3481,
  "\u2581Runter": 3482,
  "\u2581entschuldigen": 3483,
  "\u4e0d\u9700\u8981": 3484,
  "\u6e29": 3485,
  "\u2581n\u00e4her": 3486,
  "\u4ecd\u7136": 3487,
  "\u2581\u96f7": 3488,
  "\u2581Damen": 3489,
  "\u2581\u62dc\u8a17": 3490,
  "\u8d1d": 3491,
  "\u2581weiss": 3492,
  "\u7ed3": 3493,
  "\u53ef\u80fd\u4f1a": 3494,
  "\u8b8a": 3495,
  "\u2581schneller": 3496,
  "\u4e00\u5bb6": 3497,
  "os": 3498,
  "\u2581what": 3499,
  "\u649e": 3500,
  "\u2581Eier": 3501,
  "\u2581The": 3502,
  "\u2581\u8fd9\u662f\u4ec0\u4e48": 3503,
  "\u8003\u8651": 3504,
  "\u6469": 3505,
  "\u2581Lage": 3506,
  "\u2581Weile": 3507,
  "11": 3508,
  "\u2581Beispiel": 3509,
  "\u51fa\u751f": 3510,
  "\u4eba\u4eec": 3511,
  "\u5317": 3512,
  "\u2581hey": 3513,
  "\u2581h\u00e4ltst": 3514,
  "\u2581na": 3515,
  "\u9519\u4e86": 3516,
  "\u2581Gottes": 3517,
  "\u2581unbedingt": 3518,
  "\u2581\u6211\u4eec\u5fc5\u987b": 3519,
  "\u4e00\u79cd": 3520,
  "\u6253\u5f00": 3521,
  "\u7d27": 3522,
  "\u2581verliebt": 3523,
  "\u2581\u5173\u4e8e": 3524,
  "\u53e6\u4e00": 3525,
  "\u2581Mary": 3526,
  "\u2581nahm": 3527,
  "\u2581sowieso": 3528,
  "\u5e6b\u6211": 3529,
  "\u7a2e": 3530,
  "\u2581schw\u00f6re": 3531,
  "\u2581Insel": 3532,
  "\u2581heim": 3533,
  "\u2581versteckt": 3534,
  "\u5f71": 3535,
  "\u7b28": 3536,
  "\u7ed9\u5979": 3537,
  "ber": 3538,
  "\u2581Ho": 3539,
  "\u2581nachdem": 3540,
  "\u5c31\u5728": 3541,
  "\u72af\u7f6a": 3542,
  "\u2581\u4ec0\u4e48\u4e8b": 3543,
  "\u7576\u7136": 3544,
  "\u862d": 3545,
  "\u2581\u4e3a": 3546,
  "\u2581Tun": 3547,
  "\u8bb0": 3548,
  "\u2581ewig": 3549,
  "\u8282": 3550,
  "\u2581Kleiner": 3551,
  "\u4e00\u53ea": 3552,
  "\u4ee5\u4e3a": 3553,
  "\u679c": 3554,
  "\u2581Ehe": 3555,
  "\u6162": 3556,
  "\u2581See": 3557,
  "\u4ec0\u9ebd": 3558,
  "\u6b63\u5e38": 3559,
  "ko": 3560,
  "\u642d": 3561,
  "\u2581gutes": 3562,
  "\u2581\u5abd\u5abd": 3563,
  "\u2581h\u00fcbsch": 3564,
  "\u2581Liste": 3565,
  "\u2581\u6211\u6c92\u6709": 3566,
  "\u68a6": 3567,
  "vi": 3568,
  "\u2581unglaublich": 3569,
  "\u4f3c\u4e4e": 3570,
  "\u5834": 3571,
  "\u89c1\u9762": 3572,
  "\u2581Seele": 3573,
  "\u9aa8": 3574,
  "\u2581\u6211\u76f8\u4fe1": 3575,
  "\u2581\u867d\u7136": 3576,
  "\u2581Lady": 3577,
  "\u53bb\u505a": 3578,
  "\u2581\u6211\u8981\u53bb": 3579,
  "\u7cd6": 3580,
  "\u2581Frieden": 3581,
  "\u6218\u4e89": 3582,
  "\u8336": 3583,
  "\u53cc": 3584,
  "\u2581no": 3585,
  "\u53bb\u770b": 3586,
  "\u2581gib": 3587,
  "\u2581Muss": 3588,
  "\u86e4": 3589,
  "\u2581witzig": 3590,
  "\u2581Firma": 3591,
  "\u7236\u4eb2": 3592,
  "\u7678": 3593,
  "\u2581f\u00fcrchte": 3594,
  "\u2581\u4f60\u5462": 3595,
  "\u2581\u6211\u731c": 3596,
  "\u6000\u7591": 3597,
  "\u2581schie\u00dfen": 3598,
  "\u6210\u4e86": 3599,
  "\u603b\u7edf": 3600,
  "\u2581\u800c\u662f": 3601,
  "\u6740\u6b7b": 3602,
  "\u2581\u6211\u662f\u8aaa": 3603,
  "Die": 3604,
  "\u2581\u62ff": 3605,
  "\u2581\u6700": 3606,
  "\u4fe1\u606f": 3607,
  "\u8d76": 3608,
  "\u2581ans": 3609,
  "ein": 3610,
  "\u2581schlagen": 3611,
  "bi": 3612,
  "ow": 3613,
  "\u2581\u67e5\u7406": 3614,
  "\u7684\u65b9\u5f0f": 3615,
  "\u2581G\u00fcte": 3616,
  "\u2581\u6211\u6c92": 3617,
  "\u642c": 3618,
  "\u706f": 3619,
  "\u4e00\u76f4\u5728": 3620,
  "\ue6d5": 3621,
  "\u770b\u89c1": 3622,
  "\u2581\u6211\u4e00\u76f4": 3623,
  "\u8c22\u8c22\u4f60": 3624,
  "\u2581Yeah": 3625,
  "\u4e00\u5b9a\u8981": 3626,
  "\u2581verkauft": 3627,
  "\u2581Wunder": 3628,
  "\u4efb\u52a1": 3629,
  "\u968a": 3630,
  "\u932f": 3631,
  "\u627e\u6211": 3632,
  "\u908a": 3633,
  "\u9762\u524d": 3634,
  "ine": 3635,
  "\u2581Band": 3636,
  "\u2581Fahr": 3637,
  "\u53d7\u5230": 3638,
  "\u578b": 3639,
  "\u662f\u771f\u7684": 3640,
  "\u6765\u81ea": 3641,
  "\u70df": 3642,
  "\u2581\u4f46\u6211\u4eec": 3643,
  "\u2581\u4f60\u6700\u597d": 3644,
  "ph": 3645,
  "\u2581Hals": 3646,
  "\u2581R\u00fccken": 3647,
  "\u2581\u4f60\u5230\u5e95": 3648,
  "\u2581Je": 3649,
  "\u6709\u4ec0\u9ebc": 3650,
  "\ue65e": 3651,
  "\u786e\u5b9a": 3652,
  "\u83b1": 3653,
  "\u2581nimm": 3654,
  "\u4e82": 3655,
  "\u5927\u5b66": 3656,
  "\u771f\u597d": 3657,
  "\u2581geliebt": 3658,
  "\u6211\u6709": 3659,
  "\u8ba8\u538c": 3660,
  "\u5b9e": 3661,
  "\u2581Kindern": 3662,
  "\u2581gearbeitet": 3663,
  "\u5967": 3664,
  "\u65b9\u6cd5": 3665,
  "\u2581James": 3666,
  "\u8bfe": 3667,
  "\u60f3\u77e5\u9053": 3668,
  "\u914d": 3669,
  "\u2581Geb\u00e4ude": 3670,
  "\u6068": 3671,
  "\u503c": 3672,
  "\u521a\u521a": 3673,
  "\u5802": 3674,
  "\u2581sieben": 3675,
  "\u2581Ray": 3676,
  "\u2581Au\u00dferdem": 3677,
  "to": 3678,
  "\u2581Glas": 3679,
  "\u502b": 3680,
  "\u2581\u7ea6\u7ff0": 3681,
  "\u7ed9\u6211\u4eec": 3682,
  "\u2581neben": 3683,
  "00": 3684,
  "\u2581Amerika": 3685,
  "\u2581F\u00fcnf": 3686,
  "\u2581Vergiss": 3687,
  "\u800c\u4e14": 3688,
  "\u2581m\u00f6chten": 3689,
  "\u2581Zieh": 3690,
  "\u2581\u597d\u55ce": 3691,
  "\u5225\u4eba": 3692,
  "\u5c0d\u4f60": 3693,
  "\u2581Regeln": 3694,
  "\u2581benutzen": 3695,
  "_": 3696,
  "\u7684\u94b1": 3697,
  "\u2581\u64cd": 3698,
  "\u2581\u6ca1\u95ee\u9898": 3699,
  "\u5c42": 3700,
  "and": 3701,
  "\u2581\u9a6c": 3702,
  "40": 3703,
  "\u2581Besuch": 3704,
  "\u2581K\u00f6nigin": 3705,
  "\u6492": 3706,
  "\u6bba": 3707,
  "\u2581Hoffnung": 3708,
  "\u5feb\u9ede": 3709,
  "los": 3710,
  "ren": 3711,
  "\u2581m\u00fcsste": 3712,
  "\u2581\u6211\u7684\u610f\u601d\u662f": 3713,
  "\u50b3": 3714,
  "\u5f7c\u6b64": 3715,
  "\u5750\u5728": 3716,
  "\u5c06\u4f1a": 3717,
  "\u505a\u4ec0\u9ebc": 3718,
  "\u731c": 3719,
  "\u786c": 3720,
  "\u9ed8": 3721,
  "\u4e5d": 3722,
  "\u63a5\u8fd1": 3723,
  "\u2581w\u00fctend": 3724,
  "\u627e\u4e0d\u5230": 3725,
  "\u5728\u54ea\u88e1": 3726,
  "\u5f52": 3727,
  "\u4e0d\u559c\u6b22": 3728,
  "\u2581stirbt": 3729,
  "\u2581ver\u00e4ndert": 3730,
  "\u2581\u6700\u540e": 3731,
  "\u5e26\u7740": 3732,
  "\u64d4\u5fc3": 3733,
  "\u7edd": 3734,
  "\u2581Respekt": 3735,
  "\u2581wohin": 3736,
  "ige": 3737,
  "\u2581\u90a3\u500b": 3738,
  "\u4f60\u6709": 3739,
  "\u8ba9\u4eba": 3740,
  "\u8fd9\u4e8b": 3741,
  "\u90fd\u6ca1": 3742,
  "\u2581\u4f4f\u624b": 3743,
  "\u2581Show": 3744,
  "\u559d\u9152": 3745,
  "\u2581\u82e5": 3746,
  "\u2581\u6211\u4eec\u9700\u8981": 3747,
  "\u8fd9\u6837\u7684": 3748,
  "\u2581\u70ba\u4ec0\u4e48": 3749,
  "\u5bb6\u91cc": 3750,
  "\u5728\u90a3\u513f": 3751,
  "\u5f0f": 3752,
  "\u60a8\u7684": 3753,
  "\u2581\u542c\u6211\u8bf4": 3754,
  "\u8b1b": 3755,
  "\u2581\u90a3\u9ebc": 3756,
  "\ue1a0": 3757,
  "\u2581deswegen": 3758,
  "\u2581\u4f0a": 3759,
  "\u7b28\u86cb": 3760,
  "Sie": 3761,
  "\u2581kriegst": 3762,
  "\u2581K\u00f6nnte": 3763,
  "\u2581\u5f53\u4f60": 3764,
  "\u2581\u5e94\u8be5": 3765,
  "\u7b49\u7740": 3766,
  "\u6bd2\u54c1": 3767,
  "\u8bad\u7ec3": 3768,
  "]": 3769,
  "\u2581Tor": 3770,
  "\u2581\u9084\u662f": 3771,
  "\u2581Bullen": 3772,
  "\u2581verraten": 3773,
  "\u2581\u4ed6\u5988\u7684": 3774,
  "per": 3775,
  "\u2581\u4f60\u6ca1\u4e8b\u5427": 3776,
  "\u7387": 3777,
  "\u2581Leg": 3778,
  "\u2581\u4f60\u5fc5\u987b": 3779,
  "\u2581\u6709\u4ec0\u4e48": 3780,
  "fe": 3781,
  "\u56fd\u738b": 3782,
  "\u5bb6\u65cf": 3783,
  "\u2581Rede": 3784,
  "\u2581Schwanz": 3785,
  "\u4f46\u6211": 3786,
  "\u5e93": 3787,
  "\u2581Computer": 3788,
  "\u523a": 3789,
  "\u807d\u5230": 3790,
  "\u2581Wichser": 3791,
  "\u72c2": 3792,
  "\u76ee\u6807": 3793,
  "\u79f0": 3794,
  "\u2581meinte": 3795,
  "\u2581Beweise": 3796,
  "\u2581verdammten": 3797,
  "\u2581\u8be5": 3798,
  "\u2581gesucht": 3799,
  "\u2581\u8fd9\u6b21": 3800,
  "\u2581Paris": 3801,
  "\u2581\u7ed9\u4f60": 3802,
  "\u2581Gericht": 3803,
  "\u5e79": 3804,
  "\u81ea\u7136": 3805,
  "\u526f": 3806,
  "\u2581\u4f60\u8bf4\u4ec0\u4e48": 3807,
  "\u525b": 3808,
  "\u4ed6\u5abd\u7684": 3809,
  "\u6c7a\u5b9a": 3810,
  "\u6ca1\u4eba": 3811,
  "\u8868\u793a": 3812,
  "\u57c3": 3813,
  ";": 3814,
  "\u2581Sofort": 3815,
  "\u2581\u6216\u662f": 3816,
  "\u6599": 3817,
  "\u2581Blick": 3818,
  "\u2581\u6211\u5fc5\u987b": 3819,
  "\u2581sauer": 3820,
  "\u5e78\u798f": 3821,
  "\u2581laut": 3822,
  "\u7559\u5728": 3823,
  "\u8d62": 3824,
  "\u8eb2": 3825,
  "\u59d1\u5a18": 3826,
  "\u6587\u4ef6": 3827,
  "\ue0f8": 3828,
  "\u2581\u6211\u4eec\u90fd": 3829,
  "\u2581Rat": 3830,
  "\u2581\u6211\u53ea\u60f3": 3831,
  "\u9b54": 3832,
  "\u2581Deal": 3833,
  "\u2581\u6253": 3834,
  "\u66f8": 3835,
  "\u2581geboren": 3836,
  "\u2581Fleisch": 3837,
  "\u67cf": 3838,
  "\u5728\u9019\u91cc": 3839,
  "Er": 3840,
  "\u2581Schlampe": 3841,
  "\u671b": 3842,
  "ist": 3843,
  "\u2581darin": 3844,
  "\u2581Toll": 3845,
  "\u5b58\u5728": 3846,
  "\u675c": 3847,
  "\u7761\u89c9": 3848,
  "\u2581deines": 3849,
  "\u8ba9\u4ed6\u4eec": 3850,
  "\ue603": 3851,
  "\u2581\u4e00\u5207\u90fd": 3852,
  "\u52b3": 3853,
  "so": 3854,
  "va": 3855,
  "haus": 3856,
  "\u8bcd": 3857,
  "\u770b\u5230\u4e86": 3858,
  "\u2581f\u00fchlt": 3859,
  "\u2581sauber": 3860,
  "\u4ec0": 3861,
  "\u62dc": 3862,
  "\u8001\u677f": 3863,
  "\u2581Lust": 3864,
  "\u4f11": 3865,
  "\u5b83\u5011": 3866,
  "\u2581Tante": 3867,
  "\u2581dasselbe": 3868,
  "\u65b9\u9762": 3869,
  "\u79bb\u5f00\u8fd9\u91cc": 3870,
  "\u770b\u7740": 3871,
  "\u5f53\u65f6": 3872,
  "\u9ad8\u5174": 3873,
  "\u2581Tat": 3874,
  "\u2581Nase": 3875,
  "\u2581Ball": 3876,
  "\u2581\u5168": 3877,
  "\u2581\u522b\u8fd9\u6837": 3878,
  "\u6837": 3879,
  "\u4e8b\u5b9e": 3880,
  "\u6211\u81ea\u5df1": 3881,
  "\u2581geschlafen": 3882,
  "\u2581Zuhause": 3883,
  "\u2581fehlt": 3884,
  "\u2581Anruf": 3885,
  "\u2581findest": 3886,
  "\u2581gegen\u00fcber": 3887,
  "\u2581\u6211\u60f3\u8981": 3888,
  "\u7236\u6bcd": 3889,
  "\u2581Dame": 3890,
  "\u7701": 3891,
  "\u677e": 3892,
  "\u76d6": 3893,
  "\u2581\u4f60\u4e3a\u4ec0\u4e48": 3894,
  "\u2581vermisst": 3895,
  "\u4e0d\u53bb": 3896,
  "\u5993": 3897,
  "\u2581\u56e0\u6b64": 3898,
  "\u2581Schwein": 3899,
  "\u2581verschwunden": 3900,
  "\u7684\u5973\u5b69": 3901,
  "\ue707\ue019": 3902,
  "\u2581Verbindung": 3903,
  "\u2581Detective": 3904,
  "\u602a\u7269": 3905,
  "\u4e4b\u4e00": 3906,
  "\u2581Professor": 3907,
  "\u5efa": 3908,
  "\u65c5\u884c": 3909,
  "\u7ecf\u5e38": 3910,
  "\u722c": 3911,
  "\u7684\u6d88\u606f": 3912,
  "\u2581\u4e8c": 3913,
  "\u2581\u52a0\u6cb9": 3914,
  "\u2581\u751a\u81f3": 3915,
  "\u2581bewegen": 3916,
  "\u2581\u6211\u4e0d\u6703": 3917,
  "\u697c": 3918,
  "\u96fb": 3919,
  "\u538b": 3920,
  "\u547c\u5438": 3921,
  "\u6211\u4e0d": 3922,
  "\u258125": 3923,
  "\u2581\u5c0f\u59d0": 3924,
  "\u76d1\u72f1": 3925,
  "\u90a3\u513f": 3926,
  "\u2581eigene": 3927,
  "\u2581\u4e8b\u5b9e\u4e0a": 3928,
  "\u4e4b\u95f4": 3929,
  "\u65bd": 3930,
  "\u2581Park": 3931,
  "\u4eae": 3932,
  "\u2581gehabt": 3933,
  "\u2581\u8fd9\u662f\u6211": 3934,
  "\u754c": 3935,
  "\u2581\u4e8b\u60c5": 3936,
  "\u6240\u6709\u4eba": 3937,
  "\u8bb0\u5f55": 3938,
  "\u2581Do": 3939,
  "\u2581n\u00e4mlich": 3940,
  "\u9ebb\u7169": 3941,
  "\u2581\u5988": 3942,
  "\u2581h\u00f6rst": 3943,
  "\u6253\u4e86": 3944,
  "\u6765\u5427": 3945,
  "\u2581aufhalten": 3946,
  "\u2581c": 3947,
  "\u9019\u9ebc\u505a": 3948,
  "\u55e8": 3949,
  "\u7b2c": 3950,
  "ell": 3951,
  "\u2581don": 3952,
  "\u4e0b\u9762": 3953,
  "\u5b83\u7684": 3954,
  "\u2581Monster": 3955,
  "\u2581\u6bcf": 3956,
  "\u8fc7\u4e86": 3957,
  "\u732a": 3958,
  "\u7e3d": 3959,
  "\u2581\u653e": 3960,
  "\u01d0": 3961,
  "up": 3962,
  "\u2581with": 3963,
  "\u2581fangen": 3964,
  "\u4ec0\u4e48\u65f6\u5019": 3965,
  "\u5c0f\u65f6": 3966,
  "ling": 3967,
  "\u6d3b\u7740": 3968,
  "\u88ab\u4eba": 3969,
  "\u25810": 3970,
  "\u5fd8\u8bb0": 3971,
  "\u9760\u8fd1": 3972,
  "\u7b49\u4e00\u4e0b": 3973,
  "\u2581Erz\u00e4hl": 3974,
  "\u2581Kirche": 3975,
  "\u2581\u4ed6\u8981": 3976,
  "\u5c41\u80a1": 3977,
  "\u6740\u4e86\u4ed6": 3978,
  "\u00df": 3979,
  "\u2581Sonne": 3980,
  "\u65e9\u5c31": 3981,
  "\u2581Schritt": 3982,
  "\u4e0d\u591f": 3983,
  "\u95ee\u4f60": 3984,
  "\u60f3\u6cd5": 3985,
  "\u8e22": 3986,
  "\u2581Ka": 3987,
  "\u2581Messer": 3988,
  "\u4e0d\u7ba1": 3989,
  "\u5728\u5916\u9762": 3990,
  "\u5931\u53bb\u4e86": 3991,
  "\u9032\u4f86": 3992,
  "\u2581tanzen": 3993,
  "\u2581\u5982\u679c\u6211\u4eec": 3994,
  "\u5c31\u597d\u4e86": 3995,
  "\u2581\u66f4": 3996,
  "\u5e74\u8f7b": 3997,
  "\u7f8e\u5143": 3998,
  "\u86cb\u7cd5": 3999,
  "\u9ea6": 4000,
  "\u2581verspreche": 4001,
  "\u2581\u6df7\u86cb": 4002,
  "\u52a8\u7269": 4003,
  "\u8fa6": 4004,
  "\u2581\u4e5f\u8a31": 4005,
  "\u8bf4\u4f60": 4006,
  "\u2581\u5979\u5728": 4007,
  "\u2581wundersch\u00f6n": 4008,
  "\u2581\u54b1\u4eec": 4009,
  "\u5927\u5bb6\u90fd": 4010,
  "\u9152\u5e97": 4011,
  "\u65e9\u4e0a": 4012,
  "\u2581Geheimnis": 4013,
  "\u2581fahre": 4014,
  "\u8be5\u6b7b\u7684": 4015,
  "\u6211\u90fd": 4016,
  "\u8fd0": 4017,
  "\u652f": 4018,
  "\u2581\u00fcbrig": 4019,
  "\u4e00\u5f20": 4020,
  "\u4e0d\u932f": 4021,
  "\u2581Denkst": 4022,
  "\u2581\u9996\u5148": 4023,
  "\u8ba1": 4024,
  "\u9019\u7a2e": 4025,
  "\u2581\u4f60\u8aaa": 4026,
  "ant": 4027,
  "\u2581pers\u00f6nlich": 4028,
  "18": 4029,
  "\u2581Zeichen": 4030,
  "\u4e0a\u5e8a": 4031,
  "\u652f\u6301": 4032,
  "\u2581are": 4033,
  "\u50b7": 4034,
  "\u5728\u91cc\u9762": 4035,
  "\u903c": 4036,
  "\u96e2": 4037,
  "\ue710": 4038,
  "\u2581brauch": 4039,
  "\u25811.": 4040,
  "\u2581\u770b\u6765": 4041,
  "\u2581Vaters": 4042,
  "\u2581Zeiten": 4043,
  "\u2581Gesellschaft": 4044,
  "\u2581Prinzessin": 4045,
  "\u66b4": 4046,
  "\u6ed1": 4047,
  "\u9813": 4048,
  "\u63a2": 4049,
  "\u2581\u90a3\u91cc": 4050,
  "\u963b\u6b62": 4051,
  "\u2581gekauft": 4052,
  "ina": 4053,
  "\u2581sagtest": 4054,
  "\u2581schrecklich": 4055,
  "\u2581Halten": 4056,
  "\u2581Beziehung": 4057,
  "\u2581Gesetz": 4058,
  "\u2581geh\u00f6ren": 4059,
  "\u2581\u4f60\u8ba4\u4e3a": 4060,
  "\u866b": 4061,
  "\u2581Maschine": 4062,
  "\u6211\u4e0d\u80fd": 4063,
  "\u2581Schicksal": 4064,
  "\u2581\u6ca1\u4eba": 4065,
  "v": 4066,
  "\u2581traurig": 4067,
  "\u505a\u4e86\u4ec0\u4e48": 4068,
  "\u2581Einfach": 4069,
  "he": 4070,
  "\u2581\u9019\u88e1": 4071,
  "\u662f\u4f60\u7684": 4072,
  "\u901f": 4073,
  "\u7fa4": 4074,
  "\u2581geredet": 4075,
  "\u2581\u4f60\u4e0d\u4f1a": 4076,
  "\u544a\u8a34": 4077,
  "\u662f\u554a": 4078,
  "\u7279\u5de5": 4079,
  "\u767c\u751f": 4080,
  "\u7d20": 4081,
  "\u8cbb": 4082,
  "\u2581gro\u00dfartig": 4083,
  "\u5927\u6982": 4084,
  "\u505a\u51fa": 4085,
  "\u53d8\u5f97": 4086,
  "\u2581Go": 4087,
  "\u2581Lord": 4088,
  "\u5a4a\u5b50": 4089,
  "ick": 4090,
  "\u2581Fotos": 4091,
  "\u6709\u500b": 4092,
  "\u2581rechts": 4093,
  "\u4ecd": 4094,
  "\u5f88\u6709": 4095,
  "ti": 4096,
  "\u2581Ehrlich": 4097,
  "\u2581erwarten": 4098,
  "\u2581\u4eba\u4eec": 4099,
  "\u64cd": 4100,
  "\u2581Ehren": 4101,
  "\u90a3\u79cd": 4102,
  "\u6bd4\u8f83": 4103,
  "\u2581erreichen": 4104,
  "\u4e45": 4105,
  "\u7f8a": 4106,
  "\u5582": 4107,
  "\u2581Druck": 4108,
  "\u2581jung": 4109,
  "\u2581\u4f60\u77e5\u9053\u7684": 4110,
  "\u2581\u505c": 4111,
  "\u627f\u8ba4": 4112,
  "\u6c49": 4113,
  "ungen": 4114,
  "\u2581Dem": 4115,
  "\u2581\u6211\u5011\u6703": 4116,
  "\u5728\u4e4e": 4117,
  "\u2581Meinst": 4118,
  "\u2581sucht": 4119,
  "\u6781": 4120,
  "\u2581redet": 4121,
  "\u2581weitere": 4122,
  "\u6700\u8fd1": 4123,
  "\u2581\ue79e": 4124,
  "\u2581seh": 4125,
  "\u2581\u628a\u4ed6": 4126,
  "\u6316": 4127,
  "\u2581\u9084": 4128,
  "\u5a01\u80c1": 4129,
  "\u2581Gl\u00fcckwunsch": 4130,
  "\u5473": 4131,
  "\u2581Jimmy": 4132,
  "\u2581\u5979\u7684": 4133,
  "\u4e86\u4ed6": 4134,
  "\ue0cb": 4135,
  "\u2581solange": 4136,
  "\u7d2f": 4137,
  "ion": 4138,
  "\u2581\u0301": 4139,
  "\u8bc1\u636e": 4140,
  "\u5438\u8840\u9b3c": 4141,
  "\u766c": 4142,
  "\u2581\u4f60\u6ca1": 4143,
  "\u2581get": 4144,
  "\u2581zerst\u00f6rt": 4145,
  "\u8ecd": 4146,
  "\u6563": 4147,
  "\u8ce3": 4148,
  "tra": 4149,
  "\u2581\u4f60\u662f\u8bf4": 4150,
  "\u2581Volk": 4151,
  "\u2581\u4e0d\u662f\u5417": 4152,
  "nt": 4153,
  "\u6bcd\u4eb2": 4154,
  "\u4eab\u53d7": 4155,
  "\u81f4": 4156,
  "\u8fd8\u6d3b\u7740": 4157,
  "\u9e97": 4158,
  "\u4e3a\u6211": 4159,
  "\u2581Schlag": 4160,
  "\u2581\u77a7": 4161,
  "\u7262": 4162,
  "\u2581\u6211\u7684\u5929": 4163,
  "\u6838": 4164,
  "\u814a": 4165,
  "\u2581bleibe": 4166,
  "\u81ea\u6740": 4167,
  "\u2581Steh": 4168,
  "\u2581\u5b89": 4169,
  "\u2581Le": 4170,
  "\u5708": 4171,
  "\u62ef\u6551": 4172,
  "\u970d": 4173,
  "\u2581Wartet": 4174,
  "\u2581\u4f60\u4e0d\u77e5\u9053": 4175,
  "\u5f17": 4176,
  "\u5c4b": 4177,
  "\u4e00\u540d": 4178,
  "\u5bb9": 4179,
  "\u732b": 4180,
  "\u5403\u7684": 4181,
  "\u2581\u592a\u68d2\u4e86": 4182,
  "\u6311": 4183,
  "\u2581brachte": 4184,
  "wa": 4185,
  "\u2581\u4f60\u8fd8": 4186,
  "\u75bc": 4187,
  "\u7684\u58f0\u97f3": 4188,
  "ak": 4189,
  "\u53d1\u73b0\u4e86": 4190,
  "zen": 4191,
  "\u6628\u5929": 4192,
  "\u2581\u4f60\u9700\u8981": 4193,
  "\u58f0\u97f3": 4194,
  "\u98db": 4195,
  "bu": 4196,
  "\u2581dauert": 4197,
  "\u9e21": 4198,
  "\u2581S\u00fc\u00dfe": 4199,
  "\u662f\u4e3a\u4e86": 4200,
  "\u2581wisst": 4201,
  "\u2581\u4f60\u8fd9": 4202,
  "\u4e3b\u610f": 4203,
  "\u5584": 4204,
  "\u600e\u9ebc\u8fa6": 4205,
  "\u7684\u7167\u7247": 4206,
  "\u8bb0\u5f97": 4207,
  "\u2581absolut": 4208,
  "\u70ba\u4ec0\u4e48": 4209,
  "\u2581l": 4210,
  "ER": 4211,
  "\u2581\u4ec0\u4e48\u610f\u601d": 4212,
  "\u5403\u996d": 4213,
  "\u2581s": 4214,
  "\u5404": 4215,
  "\u786e\u5b9e": 4216,
  "\u2581Mission": 4217,
  "\u2581\u5728\u4f60": 4218,
  "\u5b69\u5b50\u4eec": 4219,
  "\u6211\u4e0d\u60f3": 4220,
  "\u2581Wind": 4221,
  "\u5f88\u96be": 4222,
  "\u2581\u53cd\u6b63": 4223,
  "\u6642\u9593": 4224,
  "ang": 4225,
  "\u2581\u5750\u4e0b": 4226,
  "\u7b2c\u4e8c": 4227,
  "\u2581Feind": 4228,
  "\u2581\u800c\u4e0d\u662f": 4229,
  "\u673a\u5668": 4230,
  "\u6a02": 4231,
  "\u2581\u4e00\u5207": 4232,
  "\u901a\u77e5": 4233,
  "\u7528\u7684": 4234,
  "\u9078": 4235,
  "\u2581Ba": 4236,
  "\u2581bleibst": 4237,
  "\u2581wussten": 4238,
  "\u2581\u6c42\u6c42\u4f60": 4239,
  "\u2581nah": 4240,
  "\u2581\u4f60\u89ba\u5f97": 4241,
  "\u5947\u602a": 4242,
  "\u62b1": 4243,
  "\u75f7": 4244,
  "\u2581Jo": 4245,
  "\u2581\u53f2": 4246,
  "\u2581\u90a3\u4e0d\u662f": 4247,
  "\u56e0\u70ba": 4248,
  "\u9c81": 4249,
  "\ue09e": 4250,
  "\u2581\u5e76\u4e14": 4251,
  "\u4e00\u5b9a\u4f1a": 4252,
  "Wir": 4253,
  "\u4ef7": 4254,
  "\u70b8\u5f39": 4255,
  "\u2581Hilf": 4256,
  "\u5347": 4257,
  "\u689d": 4258,
  "\u6d1e": 4259,
  "\u81f3\u5c11": 4260,
  "\u2581H\u00e4lfte": 4261,
  "\u4e3e": 4262,
  "\u5eb7": 4263,
  "\u6b27": 4264,
  "\u2581entfernt": 4265,
  "\u2581erledigen": 4266,
  "\u8001\u5e08": 4267,
  "\u2581Tier": 4268,
  "\u2581W\u00e4re": 4269,
  "\u2581w": 4270,
  "\u6821": 4271,
  "\u6bd4\u6211": 4272,
  "bord": 4273,
  "\u2581Soldaten": 4274,
  "\u4ec0\u4e48\u7684": 4275,
  "\u518d\u6b21": 4276,
  "\u2581Bein": 4277,
  "\u2581\u52a0": 4278,
  "\u6559\u6388": 4279,
  "\u2581\u300a": 4280,
  "\u7ed3\u679c": 4281,
  "\u9694": 4282,
  "\u8111": 4283,
  "\u2581kriege": 4284,
  "\u6000": 4285,
  "\u7eb8": 4286,
  "\u2581selber": 4287,
  "\u2581Wahrscheinlich": 4288,
  "\u2581\u5373\u4f7f": 4289,
  "\u2581\u7d66\u6211": 4290,
  "\u5b9d": 4291,
  "\u2581Wahnsinn": 4292,
  "\u8c0b\u6740": 4293,
  "\u58de": 4294,
  "\u5f00\u73a9\u7b11": 4295,
  "\u4e0a\u73ed": 4296,
  "\u548c\u5e73": 4297,
  "\u2581Haut": 4298,
  "\u2581Deswegen": 4299,
  "\u2581M\u00f6chte": 4300,
  "\u94a9": 4301,
  "\u2581Walter": 4302,
  "\u2581Wozu": 4303,
  "\u2581\u00fcberleben": 4304,
  "\u9547": 4305,
  "\u5750\u4e0b": 4306,
  "ag": 4307,
  "\u2581Denken": 4308,
  "\u5e2d": 4309,
  "\u96f6": 4310,
  "\u4e0d\u77e5": 4311,
  "\u5821": 4312,
  "\u9ed1\u6697": 4313,
  "\u2581normal": 4314,
  "\u63d0\u5230": 4315,
  "\u7684\u90a3\u4e2a": 4316,
  "\u53ef\u80fd\u662f": 4317,
  "\u2581Verstehst": 4318,
  "\u2581bekam": 4319,
  "\u8aaa\u4ec0\u9ebc": 4320,
  "\u75c7": 4321,
  "\u5f48": 4322,
  "\u2581besch\u00e4ftigt": 4323,
  "\u2581letzter": 4324,
  "\u5728\u54ea\u5152": 4325,
  "\u2581\u884c": 4326,
  "\u6cbb": 4327,
  "\u4e00\u628a": 4328,
  "\u6109\u5feb": 4329,
  "\u2581Bobby": 4330,
  "\u2581\u770b\u5230": 4331,
  "\u2581gelassen": 4332,
  "\u6b3e": 4333,
  "\u258114": 4334,
  "\u2581Maul": 4335,
  "\u5730\u7403": 4336,
  "\u70ae": 4337,
  "\u95ee\u6211": 4338,
  "\u2581Haare": 4339,
  "kt": 4340,
  "\u2581beweisen": 4341,
  "\u53cb": 4342,
  "\u6210\u70ba": 4343,
  "\u7535\u89c6": 4344,
  "\u2581hinaus": 4345,
  "\u8f6e": 4346,
  "j": 4347,
  "\ue4c7\ue707": 4348,
  "\u4e0d\u660e\u767d": 4349,
  "\u552f\u4e00\u7684": 4350,
  "\u2581liebst": 4351,
  "\u2581\u00fcbel": 4352,
  "men": 4353,
  "\u2581Position": 4354,
  "\u51e1": 4355,
  "\u53e6\u4e00\u4e2a": 4356,
  "\u4e5f\u6ca1": 4357,
  "\u2581\u6211\u8fd8": 4358,
  "\u2581\u5973\u58eb": 4359,
  "\u543b": 4360,
  "\u2581Bleiben": 4361,
  "\u2581\u65e9\u4e0a\u597d": 4362,
  "\u258116": 4363,
  "\u2581Kleid": 4364,
  "\u2581did": 4365,
  "\u718a": 4366,
  "ft": 4367,
  "\u2581Vier": 4368,
  "\u5f88\u5feb": 4369,
  "\u6211\u4eec\u8981": 4370,
  "\u6254": 4371,
  "\u8db3": 4372,
  "\u8eab\u8fb9": 4373,
  "\u9910": 4374,
  "\u5e74\u524d": 4375,
  "\u8fd9\u4e00\u5207": 4376,
  "\u2581\u4e0d\u7136": 4377,
  "\u2581\u9700\u8981": 4378,
  "\u8001\u5144": 4379,
  "\u2581\u5c0d\u5427": 4380,
  "\u2581\u5c31\u7b97": 4381,
  "\u2581tolle": 4382,
  "\u5e79\u561b": 4383,
  "\u6cf0": 4384,
  "\u8b93\u4ed6": 4385,
  "\u2581\u6069": 4386,
  "\u723d": 4387,
  "25": 4388,
  "lin": 4389,
  "\u5435": 4390,
  "\u8d4c": 4391,
  "\u5bb9\u6613": 4392,
  "\u62d2\u7edd": 4393,
  "\u2581Bord": 4394,
  "\ue6c4": 4395,
  "Ver": 4396,
  "\u2581Drink": 4397,
  "\u2581sorgen": 4398,
  "\u600e\u4e48\u8bf4": 4399,
  "\u8ba8\u8bba": 4400,
  "\u2581H\u00f6rst": 4401,
  "\u4e00\u4f1a\u513f": 4402,
  "\u6211\u53ea\u662f": 4403,
  "\u8ddf\u4f60\u8bf4": 4404,
  "\u2581\u6211\u4e0d\u660e\u767d": 4405,
  "\u8bd5": 4406,
  "\u8ddf\u6211\u8bf4": 4407,
  "\u9019\u91cc": 4408,
  "\u2581Schwert": 4409,
  "\u5bb6\u4f19": 4410,
  "\u64ca": 4411,
  "\u75af": 4412,
  "\u5410": 4413,
  "\u64e6": 4414,
  "ger": 4415,
  "\u2581\u7231": 4416,
  "\u4fe1\u53f7": 4417,
  "\u600e\u4e48\u505a": 4418,
  "\u66f2": 4419,
  "\u2581Bus": 4420,
  "\u2581Klingt": 4421,
  "\u2581anderer": 4422,
  "\u2581Achtung": 4423,
  "\u4f24\u5bb3": 4424,
  "\u2581just": 4425,
  "\u7238": 4426,
  "\u9686": 4427,
  "\u2581Treffen": 4428,
  "\u2581\u5c31\u8fd9\u6837": 4429,
  "\u9078\u64c7": 4430,
  "\u2581Hunde": 4431,
  "\u2581\u672c": 4432,
  "\u5f37": 4433,
  "\u2581Mami": 4434,
  "\u2581Schuhe": 4435,
  "\u767d\u75f4": 4436,
  "ba": 4437,
  "\u5988": 4438,
  "\u2581Ring": 4439,
  "\u2581W\u00fcrde": 4440,
  "\u544a\u8bc9\u4ed6": 4441,
  "\u62ff\u8d70": 4442,
  "\u8981\u6211": 4443,
  "\u9ed1\u4eba": 4444,
  "\ue67b": 4445,
  "\u2581Sheldon": 4446,
  "\u2581\u8ba9\u4ed6": 4447,
  "\u2581Andy": 4448,
  "\u2581Mar": 4449,
  "\u3107": 4450,
  "\u2581Adresse": 4451,
  "\u2581\u5728\u8fd9\u91cc": 4452,
  "\u2581Kamera": 4453,
  "\u7b14": 4454,
  "\u2581helfe": 4455,
  "\u6050\u6016": 4456,
  "\u2581Li": 4457,
  "\u2581Reden": 4458,
  "\u7ebd\u7ea6": 4459,
  "\u8001\u5a46": 4460,
  "200": 4461,
  "\u2581Setzen": 4462,
  "\u8033": 4463,
  "\u2581System": 4464,
  "\u2581\u4f60\u81ea\u5df1": 4465,
  "\u6218\u6597": 4466,
  "\u6389\u4e86": 4467,
  "\u2581richtigen": 4468,
  "\u2581Ed": 4469,
  "\u2581legen": 4470,
  "\u4ea7": 4471,
  "\u76f8\u4fe1\u4f60": 4472,
  "\u2581\u6211\u4eec\u6709": 4473,
  "ers": 4474,
  "\u771f\u7684\u5f88": 4475,
  "\u2581Haupt": 4476,
  "\u2581\u8be5\u6b7b\u7684": 4477,
  "\u8dd1\u4e86": 4478,
  "\u2581Stein": 4479,
  "\u670d\u52a1": 4480,
  "\u80e1": 4481,
  "\u56de\u4f86\u4e86": 4482,
  "\u751a\u81f3": 4483,
  "\u9ec4": 4484,
  "che": 4485,
  "\u2581Eines": 4486,
  "\u8aaa\u904e": 4487,
  "\u2581\u4ee5\u53ca": 4488,
  "\u7d27\u5f20": 4489,
  "\u8bd5\u8bd5": 4490,
  "X": 4491,
  "\u2581\u6c92\u4e8b": 4492,
  "\u2581Gleich": 4493,
  "\u5f02": 4494,
  "\u9664": 4495,
  "\u2581ganzes": 4496,
  "\u2581\u4f60\u8fd8\u597d\u5417": 4497,
  "000": 4498,
  "\u82ac": 4499,
  "\u2581Gef\u00fchle": 4500,
  "\u9019\u4ef6\u4e8b": 4501,
  "\u2581\u4f60\u60f3\u8981": 4502,
  "\u62f3": 4503,
  "\u65cf": 4504,
  "\u66fe\u7ecf": 4505,
  "\u2581\u6211\u628a": 4506,
  "\u4e0d\u61c2": 4507,
  "\u2581links": 4508,
  "\u2581\u6211\u5011\u5f97": 4509,
  "\u529e\u6cd5": 4510,
  "\u2581gegessen": 4511,
  "\u5173\u5fc3": 4512,
  "\u5564\u9152": 4513,
  "\u62a2": 4514,
  "\u8fd8\u6ca1\u6709": 4515,
  "\u2581\u4f60\u5c31\u662f": 4516,
  "\u2581\u6211\u4eec\u8d70": 4517,
  "\u9501": 4518,
  "\u2581Not": 4519,
  "\u2581Red": 4520,
  "\u2581vorne": 4521,
  "\u4e91": 4522,
  "\u6709\u8da3": 4523,
  "aus": 4524,
  "\u624b\u673a": 4525,
  "\u7121\u6cd5": 4526,
  "\u2581go": 4527,
  "\u2581\u4f60\u53c8": 4528,
  "\u2581\u591f\u4e86": 4529,
  "\u54ac": 4530,
  "\u2581verstecken": 4531,
  "\u6eff": 4532,
  "\u8fd8\u4f1a": 4533,
  "\u662f\u5bf9\u7684": 4534,
  "\u2581Claire": 4535,
  "\u2581Mark": 4536,
  "\u2581erschossen": 4537,
  "\u2581zeigt": 4538,
  "\u4e00\u676f": 4539,
  "\u2581Weise": 4540,
  "\u4e00\u5b9a\u662f": 4541,
  "\u70ba\u4f60": 4542,
  "au": 4543,
  "\u529b\u91cf": 4544,
  "\u5341\u5206": 4545,
  "\u770b\u8fc7": 4546,
  "\u2581Bill": 4547,
  "\u2581H\u00e4nden": 4548,
  "\u2581Nick": 4549,
  "\u2581Vergn\u00fcgen": 4550,
  "\u610f\u601d": 4551,
  "\u4f69": 4552,
  "\u2581entscheiden": 4553,
  "\u2581\u904e\u4f86": 4554,
  "\u613f": 4555,
  "\u620f": 4556,
  "ni": 4557,
  "\u2581miteinander": 4558,
  "\u2581zahlen": 4559,
  "\u8cfd": 4560,
  "ga": 4561,
  "\u2581Haar": 4562,
  "\u793e\u4f1a": 4563,
  "\u7684\u6837\u5b50": 4564,
  "\u2581\u6211\u660e\u767d": 4565,
  "\u2581Aufgabe": 4566,
  "\u2581Taxi": 4567,
  "\u2581namens": 4568,
  "\u2581\u592b\u4eba": 4569,
  "\u2581bleib": 4570,
  "\u2581genannt": 4571,
  "\u2581Gehirn": 4572,
  "\u2581\u6211\u770b": 4573,
  "\u2581\u96be\u9053": 4574,
  "\u84dd": 4575,
  "\u8fd9\u4e48\u591a": 4576,
  "\u2581m": 4577,
  "\u653f\u6cbb": 4578,
  "\u7b49\u4f60": 4579,
  "\u2581And": 4580,
  "\u2581besorgt": 4581,
  "\u2581lebe": 4582,
  "\u7dda": 4583,
  "op": 4584,
  "\u2581Freiheit": 4585,
  "\u2581Sommer": 4586,
  "\u2581\u9664\u975e": 4587,
  "\u4e0d\u662f\u5417": 4588,
  "\u7981": 4589,
  "\u2581nahe": 4590,
  "\u2581ruf": 4591,
  "\u626f": 4592,
  "\u8bf7\u4f60": 4593,
  "\u2581Don": 4594,
  "\u2581Hatte": 4595,
  "\u2581\u6551\u547d": 4596,
  "\u2581M\u00f6glichkeit": 4597,
  "\u2581Vergangenheit": 4598,
  "\u2581Viele": 4599,
  "\u2581\u4e0e": 4600,
  "\u6c92\u4e8b": 4601,
  "\u2581seltsam": 4602,
  "\u2581Penny": 4603,
  "\u2581\u5b83\u662f": 4604,
  "\u7e3d\u662f": 4605,
  "\u2581Lee": 4606,
  "\u2581London": 4607,
  "\u8eab\u4f53": 4608,
  "\u4eba\u5458": 4609,
  "\u8b66\u5b98": 4610,
  "\u5929\u554a": 4611,
  "\u5c0d\u5427": 4612,
  "\u8001\u9f20": 4613,
  "ian": 4614,
  "\u2581Dan": 4615,
  "\u751f\u6c14": 4616,
  "ische": 4617,
  "\u2581gebeten": 4618,
  "\u2581El": 4619,
  "\u2581Mag": 4620,
  "\u94ae": 4621,
  "\u2581rauf": 4622,
  "\u2581\u00dcberraschung": 4623,
  "\u2581\u6211\u8ddf": 4624,
  "Be": 4625,
  "\u2581\u5374": 4626,
  "\u4e00\u534a": 4627,
  "\u2581f\u00e4hrt": 4628,
  "\u63d2": 4629,
  "\u7530": 4630,
  "\u2581hinein": 4631,
  "\u2581\u6211\u53ea": 4632,
  "\u4f4d\u7f6e": 4633,
  "\u55ae": 4634,
  "\u79c0": 4635,
  "\u2581\u4f46\u5979": 4636,
  "\u2581Stopp": 4637,
  "\u2581tats\u00e4chlich": 4638,
  "\u6302": 4639,
  "\u2581Jane": 4640,
  "\u2581Pferd": 4641,
  "\u9762\u5bf9": 4642,
  "\u258117": 4643,
  "\u2581zer": 4644,
  "\u5f88\u6f02\u4eae": 4645,
  "\u5f97\u5f88": 4646,
  "\u9b54\u6cd5": 4647,
  "\u0440": 4648,
  "\u2581\u7c73": 4649,
  "\u71b1": 4650,
  "\u8aaa\u4e86": 4651,
  "\u2581\u5979\u4eec": 4652,
  "14": 4653,
  "nem": 4654,
  "\u2581Sarah": 4655,
  "\ue5e6\ue14c": 4656,
  "\u2581erhalten": 4657,
  "\u5609": 4658,
  "\u79c1": 4659,
  "\u5370": 4660,
  "\u5916\u9762": 4661,
  "\u6717": 4662,
  "\u6ca1\u95ee\u9898": 4663,
  "\u2581Jesus": 4664,
  "\u2581Schutz": 4665,
  "\u2581w\u00fcsste": 4666,
  "\u4e00\u8d77\u53bb": 4667,
  "\u662f\u4ed6": 4668,
  "\u8b66\u544a": 4669,
  "\u2581junge": 4670,
  "\u0442": 4671,
  "\u5929\u4f7f": 4672,
  "\u2581Sollen": 4673,
  "\u2581betrunken": 4674,
  "\u2581sch\u00f6nen": 4675,
  "\u9177": 4676,
  "\u2581\u6211\u771f": 4677,
  "...\"": 4678,
  "\u2581Br\u00fcder": 4679,
  "\u5bf9\u4ed6": 4680,
  "\u9060": 4681,
  "\u2581Neues": 4682,
  "\u738b\u5b50": 4683,
  "\u76e1": 4684,
  "\u7ed3\u675f\u4e86": 4685,
  "\u2581Vertrauen": 4686,
  "\u4e5f\u6ca1\u6709": 4687,
  "\u2581here": 4688,
  "\u2581stecken": 4689,
  "\u2581niemandem": 4690,
  "\u2581\u6211\u8aaa": 4691,
  "\u2581\u4f60\u662f\u8c01": 4692,
  "\u5192": 4693,
  "\u547c": 4694,
  "\u6559\u5802": 4695,
  "\u2581Leonard": 4696,
  "\u2581schwanger": 4697,
  "\u2581\u4f60\u662f\u4e0d\u662f": 4698,
  "\u2581\u5c06": 4699,
  "Es": 4700,
  "\u70e4": 4701,
  "\u2581\u6628\u665a": 4702,
  "\u62d4": 4703,
  "\u5f88\u5927": 4704,
  "\u559c": 4705,
  "\u5bf9\u5417": 4706,
  "\u5e3d\u5b50": 4707,
  "\u4e00\u6b65": 4708,
  "\u6760": 4709,
  "\u2581Kenn": 4710,
  "\u2581\u6bd4\u5982": 4711,
  "\u2581Natur": 4712,
  "\u2581geholfen": 4713,
  "\u5c06\u519b": 4714,
  "\u65af\u5766": 4715,
  "auf": 4716,
  "\u2581Letzte": 4717,
  "\u7edd\u5bf9": 4718,
  "\u7ec8\u4e8e": 4719,
  "\u2581lhre": 4720,
  "\u7b54\u6848": 4721,
  "\u2581$": 4722,
  "\u80dc": 4723,
  "\u2581aussehen": 4724,
  "\u2581Bevor": 4725,
  "\u2581gemeinsam": 4726,
  "\u2581Maria": 4727,
  "\u2581Meer": 4728,
  "\u2581Uns": 4729,
  "\u2581lief": 4730,
  "\u2581gewartet": 4731,
  "\u2581like": 4732,
  "\u5c3e": 4733,
  "\u2581Gegend": 4734,
  "\u6851": 4735,
  "\u7406\u7531": 4736,
  "\u804c": 4737,
  "\u2581Ent": 4738,
  "\u2581gro\u00dfes": 4739,
  "\u5efa\u8bae": 4740,
  "\u746a": 4741,
  "Sch": 4742,
  "\u7684\u4f4d\u7f6e": 4743,
  "\u2581Majest\u00e4t": 4744,
  "\u53bb\u54ea": 4745,
  "\u2581mu\u00df": 4746,
  "\u8fd8\u80fd": 4747,
  "\u2581Beine": 4748,
  "\u2581zieht": 4749,
  "\u2581\u8981\u6211": 4750,
  "\u558a": 4751,
  "\u5e7e": 4752,
  "\u654c\u4eba": 4753,
  "\u2581\u6211\u4eec\u5c31": 4754,
  "\u2581\u7b49\u6211": 4755,
  "\u60f9": 4756,
  "\u65b9\u5411": 4757,
  "\u9519\u8bef": 4758,
  "\u5c31\u884c\u4e86": 4759,
  "\u2581meint": 4760,
  "\u4f9b": 4761,
  "\u5e6b\u5fd9": 4762,
  "\u7167\u987e": 4763,
  "\u2581Stell": 4764,
  "\u2581wette": 4765,
  "\u2581\u8fde": 4766,
  "\u65b9\u5f0f": 4767,
  "\u996d": 4768,
  "\u2581angefangen": 4769,
  "\u8584": 4770,
  "du": 4771,
  "\u7bb1": 4772,
  "\u7d04": 4773,
  "\u2581W\u00fcrden": 4774,
  "\u4e00\u5207\u90fd": 4775,
  "\u4e54": 4776,
  "\u6bd4\u4f60": 4777,
  "\u7075": 4778,
  "\u2581zerst\u00f6ren": 4779,
  "\u5fd8": 4780,
  "\u2581Sicherheits": 4781,
  "\u2581magst": 4782,
  "\u2581out": 4783,
  "\u2581\u51c6\u5907": 4784,
  "\u2581ermordet": 4785,
  "\u62dc\u6258": 4786,
  "\u857e": 4787,
  "\u5e79\u4ec0\u9ebc": 4788,
  "\u706b\u8f66": 4789,
  "\u793c\u7269": 4790,
  "\u89e3\u91cb": 4791,
  "\u9023": 4792,
  "\u4e5f\u4e0d\u662f": 4793,
  "zi": 4794,
  "\u2581Ro": 4795,
  "\u2581entlang": 4796,
  "\u4e39": 4797,
  "\u8f93": 4798,
  "\u5c3f": 4799,
  "\u8425": 4800,
  "\u2581gewusst": 4801,
  "\u2581\u627e\u5230": 4802,
  "\u2581wohnen": 4803,
  "\u2581\u600e\u9ebc": 4804,
  "\u8131": 4805,
  "\u6b7b\u53bb": 4806,
  "\u8001\u5927": 4807,
  "\u89aa": 4808,
  "\u2581Meter": 4809,
  "\u2581Schmerz": 4810,
  "\u6d3e\u5bf9": 4811,
  "\u7f8e\u570b": 4812,
  "\u2581Gruppe": 4813,
  "\u2581Toten": 4814,
  "\u672a\u6765": 4815,
  "\u2581Dach": 4816,
  "\u2581nerv\u00f6s": 4817,
  "\u2581up": 4818,
  "\u4e0d\u51c6": 4819,
  "\u57fa\u5730": 4820,
  "\u7ae0": 4821,
  "\u8d35": 4822,
  "\u8fd9\u8fb9": 4823,
  "\u600e\u4e48\u56de\u4e8b": 4824,
  "\u76d8": 4825,
  "iere": 4826,
  "\u6321": 4827,
  "\u8d6b": 4828,
  "\u2581San": 4829,
  "\u600e\u4e48\u6a23": 4830,
  "\u2581irgendwann": 4831,
  "\u4e0d\u559c\u6b61": 4832,
  "\u6d3b\u52a8": 4833,
  "\u2581Amy": 4834,
  "\u2581sobald": 4835,
  "\u2581geb": 4836,
  "\u2581\u4f60\u53bb": 4837,
  "\u2581neun": 4838,
  "\u2581\u00fcberrascht": 4839,
  "\u2581Fahren": 4840,
  "\u2581wunderbar": 4841,
  "16": 4842,
  "\u2581Mut": 4843,
  "\u75af\u72c2": 4844,
  "ran": 4845,
  "\u2581College": 4846,
  "\u2581aussieht": 4847,
  "\u2581stehe": 4848,
  "\u6cbb\u7597": 4849,
  "\u82cf": 4850,
  "\u8a8d\u70ba": 4851,
  "\u2581Hau": 4852,
  "\u2581zweite": 4853,
  "\u4e86\u5f88\u591a": 4854,
  "\u7c89": 4855,
  "\u600e\u9ebc\u4e86": 4856,
  "by": 4857,
  "\u2581\u627e": 4858,
  "\u4ec0\u4e48\u4e8b": 4859,
  "\u2581Bombe": 4860,
  "\u2581gebrochen": 4861,
  "\u575a\u6301": 4862,
  "om": 4863,
  "\u2581gefangen": 4864,
  "\u4e0d\u5e94\u8be5": 4865,
  "\u94a5\u5319": 4866,
  "\u592a\u597d\u4e86": 4867,
  "\u2581Beeil": 4868,
  "\u5c31\u5f97": 4869,
  "\u2581Fisch": 4870,
  "\u2581\u5df4": 4871,
  "\u5c01": 4872,
  "\u8655\u7406": 4873,
  "\u2581Weihnachten": 4874,
  "\u2581bedeuten": 4875,
  "\u2581\u5bf9\u4e86": 4876,
  "ien": 4877,
  "\u2581Dean": 4878,
  "\u74dc": 4879,
  "\u2581\u65b0": 4880,
  "\u2581\u6709\u4e9b": 4881,
  "ken": 4882,
  "\u56e2": 4883,
  "\u2581M\u00f6chten": 4884,
  "\u5716": 4885,
  "\u7684\u65b9\u6cd5": 4886,
  "\u2581lag": 4887,
  "\u2581mussten": 4888,
  "\u7235\u58eb": 4889,
  "\u542c\u6211\u8bf4": 4890,
  "\u9189": 4891,
  "\u258124": 4892,
  "\u2581\u5f00\u59cb": 4893,
  "\u2581\u5bf9\u5417": 4894,
  "\u2581\u6ca1\u4e8b\u7684": 4895,
  "\u70e6": 4896,
  "\u590f": 4897,
  "\u5f88\u6709\u8da3": 4898,
  "\u6551\u4e86": 4899,
  "\u67ef": 4900,
  "\u7acb\u523b": 4901,
  "\u2581Herrn": 4902,
  "\u5251": 4903,
  "\u6b7b\u7684": 4904,
  "iz": 4905,
  "\u25812.": 4906,
  "\u2581Wand": 4907,
  "\u2581\u53ef\u6211": 4908,
  "\u4e0d\u4e00\u6837": 4909,
  "\u5c31\u4e0d\u4f1a": 4910,
  "Der": 4911,
  "\u2581Spur": 4912,
  "\u2581\u6ce8\u610f": 4913,
  "\u5730\u72f1": 4914,
  "\u75c5\u6bd2": 4915,
  "\u8bd5\u56fe": 4916,
  "\u2581Club": 4917,
  "\u2581verpasst": 4918,
  "\u2581Tsch\u00fcss": 4919,
  "\u2581\u6211\u4f86": 4920,
  "\u4f86\u8aaa": 4921,
  "\u77ad\u89e3": 4922,
  "\u00f3": 4923,
  "\u2581Knast": 4924,
  "\u2581besuchen": 4925,
  "\u3120": 4926,
  "\u8a08\u5283": 4927,
  "\u2581sch\u00fctzen": 4928,
  "\u2581\u53ef\u80fd\u662f": 4929,
  "\u2581\u4f60\u600e\u4e48\u77e5\u9053": 4930,
  "\u7535\u8111": 4931,
  "ik": 4932,
  "\u95f9": 4933,
  "\u2581Einsatz": 4934,
  "\u2581\u9a6c\u4e0a": 4935,
  "\u5e6b\u52a9": 4936,
  "\u6263": 4937,
  "\u2581Po": 4938,
  "\u5e72\u6389": 4939,
  "\u4fe1\u4efb": 4940,
  "\u7684\u4e16\u754c": 4941,
  "\u2581Quatsch": 4942,
  "\u54e1": 4943,
  "\u60f3\u60f3": 4944,
  "\u2581\u9ad8": 4945,
  "\u2581Blumen": 4946,
  "\u4e0a\u6765": 4947,
  "\u4e0d\u5fc5": 4948,
  "\u58eb\u5175": 4949,
  "\u6211\u5f97": 4950,
  "\u85a9": 4951,
  "\u666f": 4952,
  "\u9019\u5152": 4953,
  "\u9192": 4954,
  "\u2581\u4e00\u500b": 4955,
  "\u2581\u9019\u5c31\u662f": 4956,
  "\u2581lasst": 4957,
  "\u2581Besser": 4958,
  "\u8328": 4959,
  "\ue6ce": 4960,
  "\u2581\u4f60\u6ca1\u6709": 4961,
  "\u7559\u4e0b\u6765": 4962,
  "\u2581Situation": 4963,
  "\u2581sp": 4964,
  "111111}": 4965,
  "\u2581\u600e\u4e48\u6837": 4966,
  "\u4e0d\u5f97\u4e0d": 4967,
  "\u628a\u6211\u4eec": 4968,
  "\u8d62\u4e86": 4969,
  "\u9ebb": 4970,
  "100": 4971,
  "\u2581Ecke": 4972,
  "\u2581\u597d\u5566": 4973,
  "\u4eba\u6c11": 4974,
  "pi": 4975,
  "\u2581Freunden": 4976,
  "\u5236\u9020": 4977,
  "\u2581Baum": 4978,
  "\u5199\u7684": 4979,
  "\u505a\u8fc7": 4980,
  "\u6e90": 4981,
  "\u95ed\u5634": 4982,
  "\u2581\u8fd9\u513f": 4983,
  "\u2581\u70ba\u4e86": 4984,
  "\u6613": 4985,
  "\u2581Gang": 4986,
  "\u2581Meinen": 4987,
  "\u2581leisten": 4988,
  "\u6076": 4989,
  "\u6700\u5927\u7684": 4990,
  "\u8b80": 4991,
  "\u2581schlechte": 4992,
  "\u2581Van": 4993,
  "\u2581k\u00fcmmere": 4994,
  "\u2581\u770b\u8d77\u6765": 4995,
  "\u900f": 4996,
  "FF": 4997,
  "\u2581Fick": 4998,
  "\u2581halb": 4999,
  "\u2581Bringt": 5000,
  "\u50bb\u74dc": 5001,
  "\u5bbe": 5002,
  "\u52a9": 5003,
  "\u840a": 5004,
  "\u2581Ehemann": 5005,
  "\u4f60\u6703": 5006,
  "\u53d1\u751f\u4e86": 5007,
  "\u7684\u529b\u91cf": 5008,
  "\u8d8a\u6765\u8d8a": 5009,
  "\u2581irgendetwas": 5010,
  "\u627e\u5230\u4ed6": 5011,
  "\u6ce1": 5012,
  "\u90e8\u5206": 5013,
  "\u5899": 5014,
  "\u72d7\u5c4e": 5015,
  "\u2581got": 5016,
  "\u5230\u6211": 5017,
  "\u2581B\u00fccher": 5018,
  "\u2581schuldig": 5019,
  "\u2581weder": 5020,
  "\u5176\u5b9e": 5021,
  "\u2581Abendessen": 5022,
  "\u2581Angebot": 5023,
  "\u2581Sobald": 5024,
  "\u544a\u8bc9\u6211\u4eec": 5025,
  "\u2581Dorf": 5026,
  "\u2581Witze": 5027,
  "\u2581\u4f60\u559c\u6b22": 5028,
  "\u2581\u6709\u4e2a": 5029,
  "\u8eab\u4efd": 5030,
  "\u6210\u529f\u4e86": 5031,
  "\u2581Erfolg": 5032,
  "\u4e5f\u4e0d\u4f1a": 5033,
  "\u5927\u7684": 5034,
  "\u7518": 5035,
  "\u793c": 5036,
  "\u2581Ted": 5037,
  "\u2581verhaftet": 5038,
  "\u2581\u4f60\u5df2\u7ecf": 5039,
  "\u2581\u6211\u5011\u53ef\u4ee5": 5040,
  "\u9644\u8fd1": 5041,
  "\u2581gespielt": 5042,
  "\u662f\u56e0\u4e3a": 5043,
  "\u2581davor": 5044,
  "\u2581\u56db": 5045,
  "\u2581\u800c\u4e14\u6211": 5046,
  "\u7684\u611f\u89c9": 5047,
  "hn": 5048,
  "\u66b4\u529b": 5049,
  "\u6bc1\u4e86": 5050,
  "\u77b7": 5051,
  "\u7b80\u5355": 5052,
  "ment": 5053,
  "\u79bb\u5f00\u4e86": 5054,
  "\u9084\u6c92": 5055,
  "\u2581\u7ed3\u679c": 5056,
  "\u2581\u8bf7\u4f60": 5057,
  "\u6ca1\u6cd5": 5058,
  "lu": 5059,
  "\u258111": 5060,
  "\u2581Unterschied": 5061,
  "\u2581\u4ed6\u6709": 5062,
  "\u4e3a\u4f55": 5063,
  "\u53eb\u505a": 5064,
  "\u90a3\u5929": 5065,
  "\u2581\u6211\u5f88\u597d": 5066,
  "\u4f60\u4e5f": 5067,
  "\u81ea\u6211": 5068,
  "\u6211\u4e0d\u662f": 5069,
  "\u2581Wof\u00fcr": 5070,
  "\u2581m\u00f6chtest": 5071,
  "\u62fc": 5072,
  "\u2581Energie": 5073,
  "\u5e6b\u4f60": 5074,
  "\u80f8": 5075,
  "\ue652\ue145": 5076,
  "\u2581Liebes": 5077,
  "rn": 5078,
  "ty": 5079,
  "\u2581\u22bf": 5080,
  "ci": 5081,
  "\u2581Ca": 5082,
  "\u2581Richtige": 5083,
  "\u2581l\u00e4cherlich": 5084,
  "\u2581statt": 5085,
  "\u4e09\u4e2a": 5086,
  "\u7cfb": 5087,
  "\u2581\u6211\u4eec\u73b0\u5728": 5088,
  "\u4e1a": 5089,
  "\u2581hielt": 5090,
  "\u5c0a\u91cd": 5091,
  "\u2581\u533b\u751f": 5092,
  "\u6cd5\u56fd": 5093,
  "\u888b": 5094,
  "\u9001\u4f60": 5095,
  "\u2581seht": 5096,
  "\u2581Auftrag": 5097,
  "\u2581Bilder": 5098,
  "\u2581drinnen": 5099,
  "\u2581\u53bb\u5427": 5100,
  "\u51c6": 5101,
  "17": 5102,
  "\u2581\u8fd9\u79cd": 5103,
  "\u4ed6\u5011\u7684": 5104,
  "\u2581dachten": 5105,
  "\u2581\u662f\u4ed6": 5106,
  "\u2581\u83ab": 5107,
  "\u597d\u4e8b": 5108,
  "\ue616": 5109,
  "\u2581Anzug": 5110,
  "\u2581\u51fa\u53bb": 5111,
  "\u2581That": 5112,
  "\u2581\u6050\u6015": 5113,
  "\u2581\u6211\u4fdd\u8bc1": 5114,
  "\u4fdd\u8b77": 5115,
  "\u6709\u4e8b": 5116,
  "ben": 5117,
  "ku": 5118,
  "\u627e\u51fa": 5119,
  "\u2581Kunst": 5120,
  "\u2581Richter": 5121,
  "\u2581Wochenende": 5122,
  "\u2581\u6211\u6b63\u5728": 5123,
  "\u2581\u9019\u4e0d\u662f": 5124,
  "ya": 5125,
  "\u2581\u6211\u521a": 5126,
  "\u7806": 5127,
  "\u2581him": 5128,
  "\u83b7\u5f97": 5129,
  "\u2581\u5982\u679c\u4f60\u60f3": 5130,
  "\u6c83": 5131,
  "ert": 5132,
  "ischen": 5133,
  "\u60f3\u50cf": 5134,
  "\u653e\u4e86": 5135,
  "\ue72f": 5136,
  "\u2581Sergeant": 5137,
  "\u2581Suche": 5138,
  "\u2581Vogel": 5139,
  "\u4e22": 5140,
  "\u4ed6\u4f1a": 5141,
  "\u65f6\u5019": 5142,
  "\u7f51": 5143,
  "\u2581\u6211\u4e0d\u8981": 5144,
  "\u627e\u4e2a": 5145,
  "her": 5146,
  "\u2581Sch\u00e4tzchen": 5147,
  "\u2581gebaut": 5148,
  "\u2581wohnt": 5149,
  "\u2581\u6216\u8a31": 5150,
  "\u653f": 5151,
  "\u6bcf\u5929": 5152,
  "\u2581Anna": 5153,
  "\u2581\u00f6ffnen": 5154,
  "\u2581Au\u00dfer": 5155,
  "\u2581woher": 5156,
  "\u2581Fr\u00fchst\u00fcck": 5157,
  "\u5fc5": 5158,
  "ier": 5159,
  "\u4e5f\u8981": 5160,
  "\u4ed6\u5728": 5161,
  "\u6bba\u4e86": 5162,
  "ck": 5163,
  "\u2581%": 5164,
  "\u2581Verbrechen": 5165,
  "\u8b93\u6211\u5011": 5166,
  "\u9b6f": 5167,
  "\u2581erkennen": 5168,
  "\u662f\u4ec0\u4e48\u610f\u601d": 5169,
  "\u7a97": 5170,
  "\u4f60\u4e0d\u80fd": 5171,
  "\u5929\u624d": 5172,
  "\u79c1\u4eba": 5173,
  "\u2581Angriff": 5174,
  "\u2581gesund": 5175,
  "\u2581lautet": 5176,
  "\u542c\u7740": 5177,
  "\u6f02\u4eae\u7684": 5178,
  "\u2581K\u00fcche": 5179,
  "\u7b49\u6211": 5180,
  "\u2581Sheriff": 5181,
  "\u2581To": 5182,
  "\u2581krieg": 5183,
  "\u2581leer": 5184,
  "\u2581\u5927\u6982": 5185,
  "\u90a3\u4e48\u591a": 5186,
  "mon": 5187,
  "\u4f9d": 5188,
  "\u7f3a": 5189,
  "\u8bc0": 5190,
  "\u8f7b": 5191,
  "\u6ca1\u5173\u7cfb": 5192,
  "\u7a7f\u7740": 5193,
  "\u2581kannte": 5194,
  "\u6539\u8b8a": 5195,
  "\u6709\u6240": 5196,
  "60": 5197,
  "\u5e78\u8fd0": 5198,
  "\u9f9f": 5199,
  "\u2581zeig": 5200,
  "\u5168\u90fd": 5201,
  "\u54cd": 5202,
  "\u2581\u6536\u5230": 5203,
  "\u2581\u89aa\u611b\u7684": 5204,
  "\u70b8": 5205,
  "\u86c7": 5206,
  "\u2581Kugel": 5207,
  "\u2581\u6211\u559c\u6b61": 5208,
  "\u53cd\u5e94": 5209,
  "\u719f": 5210,
  "\u4e4b\u5f8c": 5211,
  "\u4e00\u822c": 5212,
  "\u6536\u62fe": 5213,
  "\u8981\u627e": 5214,
  "\u8abf\u67e5": 5215,
  "\u2581verantwortlich": 5216,
  "\u4eba\u751f": 5217,
  "\u50cf\u4e2a": 5218,
  "\u624d\u4f1a": 5219,
  "\u7c7b": 5220,
  "\u2581teilen": 5221,
  "\u2581verdienen": 5222,
  "\u5f97\u5230\u4e86": 5223,
  "\u7ecf": 5224,
  "\u2581bewegt": 5225,
  "\u2581\u6d77": 5226,
  "\u864e": 5227,
  "\u6230\u722d": 5228,
  "\u7206": 5229,
  "\u2581Sagt": 5230,
  "\u2581\u6211\u7ed9\u4f60": 5231,
  "\u2581\u6ca1\u6709\u4eba": 5232,
  "\u2581Loch": 5233,
  "\u75c5\u4eba": 5234,
  "zeit": 5235,
  "\u2581\u5750": 5236,
  "\u5ba2\u4eba": 5237,
  "\u6211\u53bb": 5238,
  "0": 5239,
  "\u2581euren": 5240,
  "\u2581fern": 5241,
  "\u2581furchtbar": 5242,
  "\u2581Erste": 5243,
  "\u665a\u5b89": 5244,
  "\u2581Jawohl": 5245,
  "\u2581Kennen": 5246,
  "\u574f\u4e86": 5247,
  "ei": 5248,
  "\u2581\u6211\u4ee5\u4e3a": 5249,
  "\u8d28": 5250,
  "\ue4c9": 5251,
  "\u2581K\u00f6nnten": 5252,
  "\u2581bekomme": 5253,
  "\u2581hm": 5254,
  "\u2581mitnehmen": 5255,
  "\u5065\u5eb7": 5256,
  "\u5f35": 5257,
  "\u67e5\u7406": 5258,
  "ay": 5259,
  "die": 5260,
  "\u2581Freude": 5261,
  "\u2581\u4f60\u8fd9\u4e2a": 5262,
  "\u7b97\u662f": 5263,
  "\u2581Gutes": 5264,
  "\u2581Hut": 5265,
  "\u4e0d\u4ecb\u610f": 5266,
  "\u5728\u6211\u7684": 5267,
  "\u7834\u574f": 5268,
  "\u2581Verstand": 5269,
  "\u59bb\u5b50": 5270,
  "\u6211\u7238": 5271,
  "\u2581\u4f60\u628a": 5272,
  "\u59d3": 5273,
  "\u8bc1": 5274,
  "\u4e0d\u6562": 5275,
  "\u5a18": 5276,
  "ud": 5277,
  "\u2581letztes": 5278,
  "\u5920": 5279,
  "\u871c": 5280,
  "\u2581\u5c0f\u5b50": 5281,
  "jo": 5282,
  "\u606f": 5283,
  "\u2581Lehrer": 5284,
  "\u2581Unsinn": 5285,
  "\u2581\u4ed6\u4eec\u662f": 5286,
  "\u2581Milch": 5287,
  "\u2581\u628a\u5b83": 5288,
  "\u8231": 5289,
  "\u2581Billy": 5290,
  "\u2581Rose": 5291,
  "\u2581irre": 5292,
  "\u2581\u91d1": 5293,
  "\u79c8": 5294,
  "\u7a0b\u5e8f": 5295,
  "\u7b06": 5296,
  "\u9f50": 5297,
  "\u2581\u597d\u597d": 5298,
  "\u8001\u662f": 5299,
  "\u8377": 5300,
  "\u9b54\u9b3c": 5301,
  "\u2581Engel": 5302,
  "\u2581Guck": 5303,
  "\u2581freue": 5304,
  "\u767d\u4eba": 5305,
  "\u7684\u5927": 5306,
  "\u7b49\u5f85": 5307,
  "\u2581Tommy": 5308,
  "\u2581gemeint": 5309,
  "\u5954": 5310,
  "\u2581Cool": 5311,
  "\u2581falschen": 5312,
  "\u2581\u6211\u5e0c\u671b\u4f60": 5313,
  "\u516c\u4e3b": 5314,
  "\u6d4b\u8bd5": 5315,
  "\u4f5c\u4e3a": 5316,
  "\u624b\u6307": 5317,
  "\u2581spreche": 5318,
  "\u2581\u6211\u9700\u8981\u4f60": 5319,
  "\u4e5f\u6703": 5320,
  "\u2581\u6770": 5321,
  "\u4f60\u5011\u7684": 5322,
  "\u2581Finde": 5323,
  "\u770b\u8d77\u4f86": 5324,
  "\u2581\u4f60\u786e\u5b9a": 5325,
  "\u2581\u544a\u8a34\u6211": 5326,
  "\u2581Hoch": 5327,
  "\u2581Video": 5328,
  "\u4e5f\u80fd": 5329,
  "\u5b50\u5f39": 5330,
  "\u9edb": 5331,
  "\u2581Knie": 5332,
  "\u2581h\u00e4ngt": 5333,
  "\u5e76\u6ca1\u6709": 5334,
  "\u2581\u884c\u4e86": 5335,
  "\u79df": 5336,
  "\u0435": 5337,
  "\u53ea\u4f1a": 5338,
  "\u2581\u4e54": 5339,
  "\u5feb\u8d70": 5340,
  "\u6211\u89c9\u5f97": 5341,
  "\u80fd\u627e\u5230": 5342,
  "\u2581Haufen": 5343,
  "\u2581\u5e72\u561b": 5344,
  "\u2581\u65e2\u7136": 5345,
  "\u2581\ue6d5": 5346,
  "\u65c1": 5347,
  "ek": 5348,
  "\u2581gibst": 5349,
  "\u2581\u6211\u4e5f\u4e0d\u77e5\u9053": 5350,
  "\u529f": 5351,
  "\u4f1a\u6709": 5352,
  "}{\\": 5353,
  "\u2581Norden": 5354,
  "\u5979\u5011": 5355,
  "\u2581nimmst": 5356,
  "\u2581\u5feb\u53bb": 5357,
  "\u80d6": 5358,
  "\u2581feiern": 5359,
  "\u2581\u5965": 5360,
  "\u2581\u6211\u88ab": 5361,
  "\u2581ge\u00e4ndert": 5362,
  "\u2581\u6211\u4ee5\u524d": 5363,
  "\u82b1\u4e86": 5364,
  "gg": 5365,
  "\u2581bauen": 5366,
  "\u4e4b\u4e2d": 5367,
  "AR": 5368,
  "\u2581\u5e2e\u6211": 5369,
  "\u2581\u5feb\u8dd1": 5370,
  "\u4e0a\u6821": 5371,
  "\u5883": 5372,
  "\u7684\u8840": 5373,
  "\u8db3\u591f": 5374,
  "\u2581entschieden": 5375,
  "\u2581singen": 5376,
  "\u2581interessant": 5377,
  "\u4e08\u592b": 5378,
  "\u5c0d\u4e0d\u8d77": 5379,
  "ov": 5380,
  "\u2581Dienst": 5381,
  "\u2581M\u00e4nnern": 5382,
  "\u83ef": 5383,
  "\u2581Oma": 5384,
  "\u2581schauen": 5385,
  "\u7684\u623f\u5b50": 5386,
  "hu": 5387,
  "\u4e00\u5468": 5388,
  "\u5831": 5389,
  "\u6211\u4eec\u4f1a": 5390,
  "\u4f60\u4e0d": 5391,
  "\u63a2\u5458": 5392,
  "\u2581Held": 5393,
  "\u2581Pause": 5394,
  "\u2581hie\u00df": 5395,
  "\u5e55": 5396,
  "hi": 5397,
  "\u2581\u7576": 5398,
  "\u4e92\u76f8": 5399,
  "\u597d\u7b11": 5400,
  "\u2581\u8b1d\u8b1d": 5401,
  "\u4e9b\u4ec0\u4e48": 5402,
  "\u72e6": 5403,
  "St": 5404,
  "\u2581danken": 5405,
  "\u5a5a": 5406,
  "\u6cd5\u5b98": 5407,
  "\u2581\u6c42\u4f60": 5408,
  "\u590d": 5409,
  "mi": 5410,
  "\u2581Haltet": 5411,
  "\u2581Falle": 5412,
  "\u2581Gespr\u00e4ch": 5413,
  "\u6d88": 5414,
  "\u6f14\u51fa": 5415,
  "\u8bf4\u6211": 5416,
  "\u2581Berg": 5417,
  "\u2581schau": 5418,
  "\u2581Wisst": 5419,
  "\u2581bl\u00f6d": 5420,
  "\u51fa\u6765\u7684": 5421,
  "\u6b63\u5f0f": 5422,
  "\u2581Amerikaner": 5423,
  "\u80fd\u4e0d\u80fd": 5424,
  "\u8fd9\u4e00\u70b9": 5425,
  "\u2581Karten": 5426,
  "\u2581\u6b63": 5427,
  "\u4e86\u4e00\u4e2a": 5428,
  "\u54b1\u4eec": 5429,
  "schaft": 5430,
  "\u2581schwierig": 5431,
  "\u5176\u5b83": 5432,
  "\u55b7": 5433,
  "\u2581seines": 5434,
  "\u51c6\u5907\u597d": 5435,
  "\u6216\u8bb8": 5436,
  "\ue6c7": 5437,
  "\u258113": 5438,
  "\u5956": 5439,
  "\u2581Howard": 5440,
  "\u2581Chi": 5441,
  "\u2581Unglaublich": 5442,
  "\u73af": 5443,
  "\u90fd\u6703": 5444,
  "\u2581k\u00fcmmert": 5445,
  "\u2581zuf\u00e4llig": 5446,
  "\u5b78\u6821": 5447,
  "\u2581herausfinden": 5448,
  "\u5fae": 5449,
  "\u6293\u5230": 5450,
  "\u5c3c\u514b": 5451,
  "\u7591": 5452,
  "\u2581\u5f00": 5453,
  "\u5c1d\u8bd5": 5454,
  "\u727a\u7272": 5455,
  "\u7684\u65b0": 5456,
  "Und": 5457,
  "\u2581Erinner": 5458,
  "\u2581gelaufen": 5459,
  "\u5728\u627e": 5460,
  "\u2581f\u00fchlst": 5461,
  "\u2581geschlagen": 5462,
  "\u2581Lieber": 5463,
  "\u4e00\u6bb5": 5464,
  "\u5728\u5bb6": 5465,
  "\u6aa2\u67e5": 5466,
  "\u2581Pa": 5467,
  "\u2581\u4e5f\u662f": 5468,
  "\u2581\u9577\u5b98": 5469,
  "\u2581\u4e0d\u7528\u4e86": 5470,
  "\u6298\u78e8": 5471,
  "\u2581kostet": 5472,
  "\u8b49\u660e": 5473,
  "\u2581sprach": 5474,
  "\u4f3c\u7684": 5475,
  "\u4ecb\u7ecd": 5476,
  "\u505a\u4e8b": 5477,
  "\u53ef\u4e0d\u662f": 5478,
  "\u2581Ohren": 5479,
  "\u5728\u90a3\u88e1": 5480,
  "\u5bf9\u4ed8": 5481,
  "\u662f\u8fd9\u6837": 5482,
  "\u751f\u5b58": 5483,
  "\u4e0d\u80af": 5484,
  "\u4ece\u6ca1": 5485,
  "\u52bf": 5486,
  "\u559d\u4e00\u676f": 5487,
  "\u2581\u4e00\u76f4": 5488,
  "\u2581\u6211\u5011\u662f": 5489,
  ":%": 5490,
  "\u2581gr\u00f6\u00dfte": 5491,
  "liche": 5492,
  "\u2581dr\u00fcber": 5493,
  "\u7684\u60f3\u6cd5": 5494,
  "\u2581welcher": 5495,
  "\u2581\u4ed6\u4e0d\u662f": 5496,
  "\u82f1\u56fd": 5497,
  "\u90a3\u908a": 5498,
  "\u2581\u4f60\u8ddf": 5499,
  "\u2581\u8ba9\u4f60": 5500,
  "\u2581\u8fd9\u662f\u6211\u7684": 5501,
  "\u4e5f\u4e0d\u80fd": 5502,
  "\u6572": 5503,
  "\u2581\u4e94": 5504,
  "\u2581\u6c34": 5505,
  "\u932f\u4e86": 5506,
  "ug": 5507,
  "\u2581fassen": 5508,
  "\u786e\u8ba4": 5509,
  "\u2581eingeladen": 5510,
  "\u2581l\u00e4ngst": 5511,
  "\u2581\u56e0\u70ba\u4f60": 5512,
  "\u4ed4": 5513,
  "\u5993\u5973": 5514,
  "\u5c31\u884c": 5515,
  "\u5dee\u4e0d\u591a": 5516,
  "8000}": 5517,
  "schen": 5518,
  "\u662f\u70ba\u4e86": 5519,
  "\u6e56": 5520,
  "\u9752": 5521,
  "\u624b\u4e0a": 5522,
  "\u78b0\u5230": 5523,
  "\u8ca8": 5524,
  "\u01ce": 5525,
  "\u2581\u624d": 5526,
  "\u2581\u7e7c\u7e8c": 5527,
  "\u4f6c": 5528,
  "\u2581n": 5529,
  "\u2581\u77e5\u9053\u5417": 5530,
  "\u665a\u9910": 5531,
  "\u7684\u65e5\u5b50": 5532,
  "\u2581Stra\u00dfen": 5533,
  "\u2581unseres": 5534,
  "\u4ece\u672a": 5535,
  "\u8a9e": 5536,
  "Ge": 5537,
  "\u2581Schwierigkeiten": 5538,
  "\u2581falsche": 5539,
  "\u5272": 5540,
  "\u54e5\u54e5": 5541,
  "\u6c38\u9060": 5542,
  "\u2581\u6885": 5543,
  "eln": 5544,
  "\u00e4h": 5545,
  "\u5bc6\u7801": 5546,
  "\u2581\u6211\u5011\u7684": 5547,
  "\u80a5": 5548,
  "\u2581Zur": 5549,
  "\u2581\u00fcbernehmen": 5550,
  "\u966a": 5551,
  "24": 5552,
  "po": 5553,
  "\u5b63": 5554,
  "\u6cd5\u5ead": 5555,
  "\u8f7d": 5556,
  "tz": 5557,
  "\u75ad": 5558,
  "\u7684\u60c5\u51b5": 5559,
  "\u2581Fluss": 5560,
  "\u65af\u57fa": 5561,
  "mm": 5562,
  "\u2581\u4f60\u597d\u5417": 5563,
  "\u6211\u6ca1\u6709": 5564,
  "500": 5565,
  "\u2581Tr\u00e4ume": 5566,
  "\u2581besorgen": 5567,
  "\u2581wovon": 5568,
  "\u2581\u4ee5\u524d": 5569,
  "\u5f97\u4e86": 5570,
  "\u2581\u56e0\u4e3a\u4ed6": 5571,
  "\u591a\u5c11\u94b1": 5572,
  "\u788e": 5573,
  "\u90a3\u4e48\u505a": 5574,
  "\u2581mitkommen": 5575,
  "\u2581sch\u00f6ner": 5576,
  "\u2581\u6211\u4eec\u4e0d\u80fd": 5577,
  "\u2581Ms": 5578,
  "\u54ea\u513f": 5579,
  "\u6740\u624b": 5580,
  "\u75af\u5b50": 5581,
  "\u58a8\u897f\u54e5": 5582,
  "\u5b66\u751f": 5583,
  "\u6746": 5584,
  "\u6c64": 5585,
  "\u770b\u6765": 5586,
  "\u2581Einige": 5587,
  "\u2581Hu": 5588,
  "\u2581Mistkerl": 5589,
  "\u5b89\u5a1c": 5590,
  "\u5de7": 5591,
  "\ue66f\ue64e": 5592,
  "\u674e": 5593,
  "\u7ed9\u4ed6\u4eec": 5594,
  "\u2581Carl": 5595,
  "\u2581Paar": 5596,
  "\u2581Sp": 5597,
  "\u52a1": 5598,
  "\u2581Gewalt": 5599,
  "\u2581werfen": 5600,
  "\u2581\u6211\u4eec\u5df2\u7ecf": 5601,
  "\u2581Gelegenheit": 5602,
  "\u51ef": 5603,
  "\u8996": 5604,
  "\u8bb0\u8005": 5605,
  "\u2581\u4e0d\u8fc7\u6211": 5606,
  "\u7435": 5607,
  "\u8d5a": 5608,
  "\u6597": 5609,
  "\u7ea7": 5610,
  "\u4e00\u5757": 5611,
  "\u6e96\u5099": 5612,
  "\u2581\u4f60\u662f\u4e2a": 5613,
  "\u2581\u5b8c\u5168": 5614,
  "\u5fc3\u91cc": 5615,
  "\u964d": 5616,
  "\u6751": 5617,
  "\u770b\u4e86": 5618,
  "\u9019\u6a23\u505a": 5619,
  "80": 5620,
  "\u2581schei\u00df": 5621,
  "\u2581\u53ea\u8981\u4f60": 5622,
  "\u5bcc": 5623,
  "\u8b66\u65b9": 5624,
  "\u67d0": 5625,
  "we": 5626,
  "\u5662": 5627,
  "\u77e5\u9053\u4e86": 5628,
  "laden": 5629,
  "\u2581Bereit": 5630,
  "\u2581\u8fd9\u91cc\u662f": 5631,
  "\u2581Tanz": 5632,
  "Mann": 5633,
  "\u968f": 5634,
  "\u2581Manche": 5635,
  "\u2581fair": 5636,
  "\u5230\u5904": 5637,
  "\u2581\u73b0\u5728\u6211": 5638,
  "\u601d\u8003": 5639,
  "\u2581schl\u00e4ft": 5640,
  "\u5411\u6211": 5641,
  "\u552f\u4e00": 5642,
  "\u2581neuer": 5643,
  "\u2581Hose": 5644,
  "\u2581Leider": 5645,
  "\u2581\u5b83\u5011": 5646,
  "\u559d\u4e86": 5647,
  "\u9084\u5728": 5648,
  "\u2581Tiere": 5649,
  "\u2581tr\u00e4gt": 5650,
  "\u4e00\u7247": 5651,
  "\u73b0": 5652,
  "\u78ba\u5b9a": 5653,
  "\u2581\u4e00\u65e6": 5654,
  "\u2581\u5abd\u7684": 5655,
  "\u60ca": 5656,
  "\u2581seien": 5657,
  "\u2581\u5426\u5219": 5658,
  "\u4e8c\u5341": 5659,
  "\u519b\u961f": 5660,
  "\u6bb5": 5661,
  "chi": 5662,
  "\u4f1a\u88ab": 5663,
  "\u662f\u600e\u4e48": 5664,
  "*": 5665,
  "\u2581entkommen": 5666,
  "\u2581\u5abd": 5667,
  "\u5389\u5bb3": 5668,
  "\u53ef\u6015\u7684": 5669,
  "\u7684\u513f\u5b50": 5670,
  "\u2581right": 5671,
  "\u4e00\u904d": 5672,
  "\u2581unterhalten": 5673,
  "\u2581\u5230\u5e95": 5674,
  "\u770b\u4e0d\u5230": 5675,
  "\u9489": 5676,
  "\u2581\u6240\u6709\u7684": 5677,
  "\u2581\u8fd9\u662f\u4e00\u4e2a": 5678,
  "\u2581brechen": 5679,
  "\u2581willkommen": 5680,
  "\u2581Freut": 5681,
  "\u2581\u7b2c\u4e00": 5682,
  "\u2581\u8b93": 5683,
  "\u7cdf": 5684,
  "\u8587": 5685,
  "\u2581Interesse": 5686,
  "\u2581hasst": 5687,
  "\u2581\u5176\u5be6": 5688,
  "\u524d\u9762": 5689,
  "\u710a": 5690,
  "\u2581h\u00e4ngen": 5691,
  "\u4e0d\u662f\u771f\u7684": 5692,
  "ong": 5693,
  "\u2581Danny": 5694,
  "\u2581\u6b22\u8fce": 5695,
  "\u62a4": 5696,
  "\u6b66": 5697,
  "ive": 5698,
  "\u2581Beweis": 5699,
  "\u63a5\u5230": 5700,
  "\u4e0b\u5348": 5701,
  "\u804a\u804a": 5702,
  "\u2581nieder": 5703,
  "\u66ff\u4f60": 5704,
  "\u82f1\u91cc": 5705,
  "\u2581schlie\u00dfen": 5706,
  "\u9762\u5305": 5707,
  "\u2581Todes": 5708,
  "\u2581\u6211\u5c31\u77e5\u9053": 5709,
  "\u554f\u984c": 5710,
  "\u6b0a": 5711,
  "\u8332": 5712,
  "\u2581Verstehe": 5713,
  "\u4e5f\u8a31": 5714,
  "\u70e7": 5715,
  "\u8ddf\u7740": 5716,
  "\u2581keinem": 5717,
  "\u2581\u6700\u8fd1": 5718,
  "\u6709\u591a\u5c11": 5719,
  "\u73a1": 5720,
  "si": 5721,
  "\u2581\u6211\u544a\u8bc9\u4f60": 5722,
  "\u2581\u670b\u53cb": 5723,
  "\u4ee5\u70ba": 5724,
  "\u2581Rom": 5725,
  "\u5bf9\u5979": 5726,
  "\u2581Niemals": 5727,
  "\u2581Wohl": 5728,
  "\u2581angetan": 5729,
  "\u2581beenden": 5730,
  "\u2581fragte": 5731,
  "\u6ce8": 5732,
  "AN": 5733,
  "\u2581Mond": 5734,
  "\u2581nachgedacht": 5735,
  "\u4e25\u91cd": 5736,
  "\u4ea4\u7ed9": 5737,
  "\u6beb\u65e0": 5738,
  "\u6eda": 5739,
  "\u53d7\u4f24": 5740,
  "\u2581echte": 5741,
  "\u82f1": 5742,
  "\u2581Pr\u00e4sidenten": 5743,
  "\u2581konntest": 5744,
  "\u2581\u522b\u518d": 5745,
  "\u2581\u8fd9\u662f\u4e2a": 5746,
  "\u00e4r": 5747,
  "\u2581Bericht": 5748,
  "\u2581Idioten": 5749,
  "\u2581Streit": 5750,
  "\u2581Thomas": 5751,
  "\u2581\u6211\u73fe\u5728": 5752,
  "\u504f": 5753,
  "\u2581melden": 5754,
  "\u4f60\u5f97": 5755,
  "\u8bf4\u8c0e": 5756,
  "\u2581dessen": 5757,
  "\u2581reich": 5758,
  "\u2581\u7f57": 5759,
  "\u505a\u7684\u4e8b": 5760,
  "\u770b\u6211": 5761,
  "\u2581Regen": 5762,
  "\u6bd5": 5763,
  "\u2581Labor": 5764,
  "\u2581Lieblings": 5765,
  "\u2581hallo": 5766,
  "\u2581\u6211\u611b\u4f60": 5767,
  "\u5bfb\u627e": 5768,
  "\u8c22": 5769,
  "\u9488": 5770,
  "\u2581Richard": 5771,
  "\u2581\u00fcberlebt": 5772,
  "\u515a": 5773,
  "\u6839\u672c\u4e0d": 5774,
  "\u7070": 5775,
  "\u80fd\u529b": 5776,
  "\u9080\u8bf7": 5777,
  "\u4e0d\u4e0a": 5778,
  "\u5730\u5740": 5779,
  "\u2581zufrieden": 5780,
  "\u2581\u5e03": 5781,
  "\u505a\u7231": 5782,
  "\u5267": 5783,
  "\u5f88\u4e45": 5784,
  "\u6709\u6c92\u6709": 5785,
  "\u77e5\u9053\u6211": 5786,
  "les": 5787,
  "\u8ddf\u8e2a": 5788,
  "\u592a\u591a\u4e86": 5789,
  "\u5976\u5976": 5790,
  "\u6280\u672f": 5791,
  "\u4ed6\u5988": 5792,
  "\u5973\u6027": 5793,
  "\u6eab": 5794,
  "\u7b80": 5795,
  "min": 5796,
  "\u2581Doc": 5797,
  "\u2581versteht": 5798,
  "\u9ad8\u4e2d": 5799,
  "\u2581\u4efb\u4f55": 5800,
  "\u7684\u786e": 5801,
  "\u8bf4\u4ed6": 5802,
  "\u5e26\u8d70": 5803,
  "\u2581Arme": 5804,
  "\u2581CIA": 5805,
  "\u2581Charles": 5806,
  "\u51fa\u6765\u4e86": 5807,
  "\u5bf9\u65b9": 5808,
  "\u4e0d\u50cf": 5809,
  "\u6492\u8c0e": 5810,
  "\u2581Sand": 5811,
  "\u526a": 5812,
  "\u53ea\u662f\u4e2a": 5813,
  "\u5b8c\u7f8e": 5814,
  "\u6027\u611f": 5815,
  "\u7bad": 5816,
  "\u2581Gro\u00dfartig": 5817,
  "\u2581Johnny": 5818,
  "\u2581Monsieur": 5819,
  "\u5934\u53d1": 5820,
  "\u5c55": 5821,
  "\u2581\ue652\ue145": 5822,
  "\u2581Leichen": 5823,
  "\u4e0d\u76f8\u4fe1": 5824,
  "\u5b89\u9759": 5825,
  "\u770b\u4f60": 5826,
  "\u8aaa\u4f60": 5827,
  "\u70ba\u4e86": 5828,
  "\u822a": 5829,
  "\u90fd\u80fd": 5830,
  "\u2581\u6211\u5e94\u8be5": 5831,
  "\u5e26\u6765": 5832,
  "\u2581\u662f\u8c01": 5833,
  "\u4f60\u7684\u540d\u5b57": 5834,
  "\u7956": 5835,
  "raum": 5836,
  "\u2581erinnert": 5837,
  "\u2581gehalten": 5838,
  "\u2581\u4e34": 5839,
  "\u53e5": 5840,
  "\u5a5a\u793c": 5841,
  "\u2581\u73b0\u5728\u4f60": 5842,
  "\u5230\u8fbe": 5843,
  "\u2581Sa": 5844,
  "\u2581mitgebracht": 5845,
  "\u2581Me": 5846,
  "\u2581She": 5847,
  "\u8d85\u8fc7": 5848,
  "\u8fd9\u5c31\u662f": 5849,
  "\u2581gefahren": 5850,
  "\u5206\u9418": 5851,
  "\u5f88\u9ad8\u5174": 5852,
  "\u600e\u4e48\u6837\u4e86": 5853,
  "\u624e": 5854,
  "\u03c1": 5855,
  "\u258122": 5856,
  "\u2581aufpassen": 5857,
  "\u5f00\u4e86": 5858,
  "\u2581Verschwinde": 5859,
  "\u6b32": 5860,
  "\u2581Bad": 5861,
  "\u2581Irgendwas": 5862,
  "\u4f73": 5863,
  "\u5206\u4eab": 5864,
  "gt": 5865,
  "\u2581schaffst": 5866,
  "\u7e77": 5867,
  "\u2581Keller": 5868,
  "\u584a": 5869,
  "\u8a18": 5870,
  "\u89c9": 5871,
  "\u990a": 5872,
  "\u2581Ihres": 5873,
  "\u2581ruft": 5874,
  "\u5176\u4e2d": 5875,
  "za": 5876,
  "\u2581Hoffentlich": 5877,
  "\u5b66\u4e60": 5878,
  "\u5fc5\u9808": 5879,
  "\u721b": 5880,
  "\u2581dringend": 5881,
  "\u63d0\u51fa": 5882,
  "\u9003\u8dd1": 5883,
  "\u2581trifft": 5884,
  "\u4f1f\u5927\u7684": 5885,
  "\u5de6": 5886,
  "\u2581Gern": 5887,
  "\u2581dankbar": 5888,
  "\u2581\u4ed6\u60f3": 5889,
  "\u516c\u5bd3": 5890,
  "\u544a\u8bc9\u5979": 5891,
  "13": 5892,
  "\u2581Phil": 5893,
  "\u2581Zehn": 5894,
  "\u2581beginnen": 5895,
  "\ue786": 5896,
  "\u2581Daten": 5897,
  "\u2581Wieder": 5898,
  "\u2581\u6709\u65f6\u5019": 5899,
  "\u2581\u8bb0\u5f97": 5900,
  "\u5976": 5901,
  "\u5f1f": 5902,
  "\u6709\u53ef\u80fd": 5903,
  "\u2581L\u00f6sung": 5904,
  "\u2581steh": 5905,
  "\u2581\u4ed6\u8aaa": 5906,
  "\u5979\u662f": 5907,
  "\u5f71\u54cd": 5908,
  "\u74f6": 5909,
  "\u76f4\u5230": 5910,
  "\u2581Restaurant": 5911,
  "\u56de\u5bb6\u4e86": 5912,
  "\u7f57\u9a6c": 5913,
  "haft": 5914,
  "\u2581Sogar": 5915,
  "\u641e\u7838\u4e86": 5916,
  "\u61c9": 5917,
  "\u800d": 5918,
  "\u2581Hintern": 5919,
  "\u2581gleiche": 5920,
  "\u2581\u6ce2": 5921,
  "\u760b\u4e86": 5922,
  "\u7ebf\u7d22": 5923,
  "\u7434": 5924,
  "\u2581brauchte": 5925,
  "\u2581\u9589\u5634": 5926,
  "\u5192\u9669": 5927,
  "\u2581\u4ed6\u4eec\u5728": 5928,
  "\u4e3a\u4ec0\u4e48\u8981": 5929,
  "mer": 5930,
  "\u2581Strand": 5931,
  "\u8abf": 5932,
  "\u5341\u4e8c": 5933,
  "\u5687": 5934,
  "low": 5935,
  "\u2581Urlaub": 5936,
  "\u2581soweit": 5937,
  "\u2581\u4f60\u8981\u6211": 5938,
  "\u5c45\u7136": 5939,
  "iv": 5940,
  "\u2581\u6211\u770b\u5230": 5941,
  "\u4eba\u7269": 5942,
  "\u2581\u65e9\u5b89": 5943,
  "\u2581\u7b97\u4e86": 5944,
  "\u7948\u7977": 5945,
  "\u2581\u57c3": 5946,
  "\u7b7e": 5947,
  "\u521a\u624d": 5948,
  "\u5c38\u4f53": 5949,
  "\u6d0b": 5950,
  "\u8ddf\u6211\u8aaa": 5951,
  "\u2581Nie": 5952,
  "\u2581\u5c11": 5953,
  "\u2581Fertig": 5954,
  "\u2581Har": 5955,
  "\u2581bringst": 5956,
  "\u7f6a\u72af": 5957,
  "ett": 5958,
  "\u5f88\u6e05\u695a": 5959,
  "\u73bb\u7483": 5960,
  "\u795e\u7236": 5961,
  "\u2581one": 5962,
  "\u2581\u5df2\u7d93": 5963,
  "\u5982\u679c\u6211": 5964,
  "\u5bf9\u6211\u4eec": 5965,
  "\u6b22\u8fce": 5966,
  "\u77e5\u9053\u4ed6": 5967,
  "\u2581Rache": 5968,
  "\u7ba1\u7406": 5969,
  "\u8bba": 5970,
  "\u95fb": 5971,
  "\u2581\u4ed6\u662f\u4e2a": 5972,
  "\u4e0d\u5f97": 5973,
  "\u8bf4\u660e": 5974,
  "\u2581Beim": 5975,
  "\u2581besteht": 5976,
  "\u53bb\u770b\u770b": 5977,
  "\u5766": 5978,
  "\u611f\u60c5": 5979,
  "\u2581Bau": 5980,
  "\u5de7\u514b\u529b": 5981,
  "\u2581\u8981\u662f\u4f60": 5982,
  "\u2581\u965b\u4e0b": 5983,
  "\u2581drehen": 5984,
  "\u5f92": 5985,
  "\u65c1\u8fb9": 5986,
  "\u7684\u8def": 5987,
  "\u2581Eddie": 5988,
  "\u6a5f\u6703": 5989,
  "\u8d0f": 5990,
  "\u2581Meilen": 5991,
  "\u76ee\u524d": 5992,
  "\u9f8d": 5993,
  "\u2581Neuigkeiten": 5994,
  "\u62ff\u4e86": 5995,
  "hm": 5996,
  "lt": 5997,
  "\u2581gr\u00f6\u00dfer": 5998,
  "\u2581\u4f60\u4e00\u5b9a": 5999,
  "\u4e8b\u5be6": 6000,
  "\u4f4f\u4e86": 6001,
  "\u6076\u9b54": 6002,
  "\u4fdd\u9669": 6003,
  "\u2581stellt": 6004,
  "\u2581wahnsinnig": 6005,
  "\u2581\u5b69\u5b50\u4eec": 6006,
  "\u6709\u4e86": 6007,
  "\u987a": 6008,
  "ker": 6009,
  "\u2581Waren": 6010,
  "\u53c3\u52a0": 6011,
  "\u5929\u5802": 6012,
  "\u597d\u591a\u4e86": 6013,
  "\\3": 6014,
  "\u2581herein": 6015,
  "\u2581verlangt": 6016,
  "\u2581\u6240\u4ee5\u6211\u4eec": 6017,
  "\u2581Seiten": 6018,
  "\u2581langweilig": 6019,
  "uck": 6020,
  "\u90a3\u5152": 6021,
  "\u2581geschlossen": 6022,
  "\u53f7\u7801": 6023,
  "\u5973\u751f": 6024,
  "\u5de8": 6025,
  "\u73b0\u573a": 6026,
  "ac": 6027,
  "\u2581eigenes": 6028,
  "\u2581mitten": 6029,
  "\u5f88\u5947\u602a": 6030,
  "\u6062\u590d": 6031,
  "\u63db": 6032,
  "\u76ee\u7684": 6033,
  "\u8a8d\u8b58": 6034,
  "\u900a": 6035,
  "Ein": 6036,
  "cHFFFFFF": 6037,
  "\u2581jagen": 6038,
  "\u2581\u00c4hm": 6039,
  "\u2581\u6211\u4eec\u5e94\u8be5": 6040,
  "\u7d05": 6041,
  "\u2581But": 6042,
  "\u2581Deckung": 6043,
  "\u2581fanden": 6044,
  "\u2581\u5bf9\u4e8e": 6045,
  "\u2581\u6211\u81ea\u5df1": 6046,
  "\u653b": 6047,
  "\u2581Fernsehen": 6048,
  "\u2581Ohr": 6049,
  "\u2581Pferde": 6050,
  "\u6f14\u5458": 6051,
  "\u70b3": 6052,
  "\u7684\u8863\u670d": 6053,
  "\u968f\u4fbf": 6054,
  "\u2581Kate": 6055,
  "\u57ce\u5821": 6056,
  "\u6211\u4eec\u53ef\u4ee5": 6057,
  "\u8fd0\u52a8": 6058,
  "\u2581\u4f60\u5728\u5e72\u4ec0\u4e48": 6059,
  "\u8bb8\u591a": 6060,
  "\u2581\u8c22\u4e86": 6061,
  "\u65e5\u5b50": 6062,
  "\u7684\u79d8\u5bc6": 6063,
  "\u8282\u76ee": 6064,
  "\u90fd\u53ef\u4ee5": 6065,
  "stand": 6066,
  "\u2581W\u00fcrdest": 6067,
  "\u2581getrunken": 6068,
  "\u2581\u6211\u8fd8\u662f": 6069,
  "\u6709\u4f55": 6070,
  "\u2581Kunden": 6071,
  "\u2581\u5c3d\u7ba1": 6072,
  "\u2581Lied": 6073,
  "\u2581Thema": 6074,
  "\u2581geplant": 6075,
  "\u2581\u6c92\u4eba": 6076,
  "\u72ec": 6077,
  "\u2581M\u00e4dels": 6078,
  "\u2581beginnt": 6079,
  "\u5212": 6080,
  "\u5cbf": 6081,
  "ham": 6082,
  "\u9818": 6083,
  "\u2581Ko": 6084,
  "\u2581Mi": 6085,
  "\u2581\u6211\u53d1\u8a93": 6086,
  "it\u00e4t": 6087,
  "\u7236": 6088,
  "ps": 6089,
  "\u2581Pro": 6090,
  "\u2581gestellt": 6091,
  "\u5468\u672b": 6092,
  "\u7684\u673a\u4f1a": 6093,
  "\u2581Lieutenant": 6094,
  "\u2581Wollt": 6095,
  "\u2581us": 6096,
  "\u5c31\u8fd9\u6837": 6097,
  "\u9a91": 6098,
  "\u2581Naja": 6099,
  "\u2581\u4e3a\u4ec0\u4e48\u4e0d": 6100,
  "\u8fd9\u4e2a\u4eba": 6101,
  "han": 6102,
  "\u2581Garten": 6103,
  "\u2581Such": 6104,
  "\u2581Werden": 6105,
  "\u751f\u7269": 6106,
  "\u2581Koffer": 6107,
  "\u4e00\u4f1a": 6108,
  "\u52a8\u624b": 6109,
  "\u60e0\u74b6": 6110,
  "\u6b50": 6111,
  "\u2581Chris": 6112,
  "\u2581Zuerst": 6113,
  "\u4e00\u5806": 6114,
  "\u2581\u8b93\u6211\u5011": 6115,
  "\u4e0a\u6b21": 6116,
  "\u514d": 6117,
  "\u597d\u6d88\u606f": 6118,
  "\u6454": 6119,
  "\u2581nachts": 6120,
  "\u4f34": 6121,
  "\u2581Code": 6122,
  "\u2581sch\u00e4tzen": 6123,
  "\u2581\u6211\u4eca\u5929": 6124,
  "\u4e86\u6211\u7684": 6125,
  "\u4ec0\u4e48\u610f\u601d": 6126,
  "\u5e9f": 6127,
  "ding": 6128,
  "fahren": 6129,
  "schlag": 6130,
  "\u5047\u88c5": 6131,
  "\u638c": 6132,
  "od": 6133,
  "\u2581gleichen": 6134,
  "\u2581ungef\u00e4hr": 6135,
  "\u6700\u540e\u4e00\u6b21": 6136,
  "\u6a23": 6137,
  "\u6c7d\u8f66": 6138,
  "\u9019\u9ebc\u8aaa": 6139,
  "\u9910\u5385": 6140,
  "ex": 6141,
  "\u2581reichen": 6142,
  "\u5922": 6143,
  "\u5b87\u5b99": 6144,
  "\u9664\u4e86": 6145,
  "\u2581Grab": 6146,
  "\u2581zuvor": 6147,
  "\u4f1a\u8bae": 6148,
  "\u5bb6\u7684": 6149,
  "\u96d9": 6150,
  "\u9b5a": 6151,
  "\u2581\u4e0b\u6b21": 6152,
  "\u628a\u81ea\u5df1": 6153,
  "\u845b": 6154,
  "ris": 6155,
  "\u2581\u6709\u6ca1\u6709": 6156,
  "\u60c5\u62a5": 6157,
  "ln": 6158,
  "\u2581Stock": 6159,
  "\u2581\u6211\u6ca1\u4e8b": 6160,
  "\u2581\u6700\u597d": 6161,
  "\u4f60\u5462": 6162,
  "\u522e": 6163,
  "\u8bf7\u6c42": 6164,
  "\u2581traf": 6165,
  "\u2581\u7531": 6166,
  "\u9192\u6765": 6167,
  "\u592a\u68d2\u4e86": 6168,
  "\u62ff\u7740": 6169,
  "\u6807": 6170,
  "ierung": 6171,
  "\u2581Besonderes": 6172,
  "\u2581l\u00fcgen": 6173,
  "\u4e0d\u89c1\u4e86": 6174,
  "\u53f6": 6175,
  "des": 6176,
  "An": 6177,
  "vo": 6178,
  "\u2581Colonel": 6179,
  "\u2581Erfahrung": 6180,
  "\u2581erw\u00e4hnt": 6181,
  "\u2581offensichtlich": 6182,
  "\u2581Planeten": 6183,
  "\u2581hilf": 6184,
  "\u6267\u884c": 6185,
  "\u2581Seien": 6186,
  "\u2581erreicht": 6187,
  "\u2581\u7842\u740c": 6188,
  "\u570b\u738b": 6189,
  "\u6c92\u932f": 6190,
  "\u2581find": 6191,
  "\u5f88\u96e3": 6192,
  "\u8054\u7edc": 6193,
  "\u2581Scherz": 6194,
  "\u2581peinlich": 6195,
  "wo": 6196,
  "nd": 6197,
  "\u2581My": 6198,
  "\u2581Sechs": 6199,
  "\u5e76\u4e0d\u662f": 6200,
  "\u65e0\u5173": 6201,
  "\u79bb\u5a5a": 6202,
  "ank": 6203,
  "\u6076\u5fc3": 6204,
  "\u9ea5": 6205,
  "\u2581Milit\u00e4r": 6206,
  "\u2581Strom": 6207,
  "\u2581Worauf": 6208,
  "\u4e00\u5b9a\u6703": 6209,
  "\u770b\u4e0a\u53bb": 6210,
  "\u7ad2": 6211,
  "\u6253\u6211": 6212,
  "\u7231\u60c5": 6213,
  "\u778e": 6214,
  "Wie": 6215,
  "\u2581gilt": 6216,
  "\u2581\u4f60\u80af\u5b9a": 6217,
  "\u2581\u4f60\u8be5": 6218,
  "\u5973\u738b": 6219,
  "\u6848\u5b50": 6220,
  "\u7d27\u6025": 6221,
  "\u8001\u7238": 6222,
  "\u2581indem": 6223,
  "\u2581vollkommen": 6224,
  "\u81c9": 6225,
  "\u8c37": 6226,
  "\u9020\u6210": 6227,
  "\u2581zeige": 6228,
  "\u800c\u8a00": 6229,
  "\u8fa6\u6cd5": 6230,
  "ungs": 6231,
  "\u2581Frag": 6232,
  "\u2581Jedenfalls": 6233,
  "\u2581obwohl": 6234,
  "\u7684\u8eab\u4efd": 6235,
  "\u7761\u89ba": 6236,
  "tu": 6237,
  "\u2581versteh": 6238,
  "\u4e56\u4e56": 6239,
  "\u5931\u8d25": 6240,
  "\u624b\u672f": 6241,
  "\u2581Obwohl": 6242,
  "\u2581\u522b\u52a8": 6243,
  "\u2581\u662f\u4e2a": 6244,
  "\u5373": 6245,
  "\u53c2\u4e0e": 6246,
  "\u5473\u9053": 6247,
  "\u6750": 6248,
  "\u9ea6\u514b": 6249,
  "\u2581\u8ddf\u6211": 6250,
  "\u4eb2\u81ea": 6251,
  "\u5169\u500b": 6252,
  "\u5efa\u7acb": 6253,
  "\u2581gezeigt": 6254,
  "\u2581\u4f60\u771f\u662f": 6255,
  "\u2581\u4f60\u77e5\u9053\u55ce": 6256,
  "\u4e0d\u51fa": 6257,
  "\u4e5f\u53ef\u4ee5": 6258,
  "\u6216\u662f": 6259,
  "\u884c\u52d5": 6260,
  "\u94f6": 6261,
  "\u2581Dreck": 6262,
  "\u2581Verantwortung": 6263,
  "\u2581\ue715": 6264,
  "\u5206\u6790": 6265,
  "\u54af": 6266,
  "\u770b\u898b": 6267,
  "\u8d44\u6599": 6268,
  "\u2581\u6211\u5bf9": 6269,
  "\u5fc3\u7406": 6270,
  "\u2581\u5979\u8bf4": 6271,
  "\u65e9\u9910": 6272,
  "\u2581Schatten": 6273,
  "\u671f\u5f85": 6274,
  "\u90a3\u88e1": 6275,
  "\u2581Sport": 6276,
  "\u2581sahen": 6277,
  "\u2581\u5fc5\u987b": 6278,
  "\u6293\u4f4f": 6279,
  "\u2581Farbe": 6280,
  "\u2581\u5411": 6281,
  "\u53eb\u4ed6": 6282,
  "\u662f\u600e\u4e48\u56de\u4e8b": 6283,
  "\u4eca": 6284,
  "\u7ecf\u8fc7": 6285,
  "\u77e5\u9053\u7684": 6286,
  "\u7842\u5993": 6287,
  "\u8b93\u5979": 6288,
  "\u7a76\u7adf": 6289,
  "tag": 6290,
  "\u2581Herrgott": 6291,
  "\u2581halbe": 6292,
  "\u53d1\u751f\u4e86\u4ec0\u4e48": 6293,
  "\u540c\u5fd7": 6294,
  "ok": 6295,
  "\u2581Steve": 6296,
  "\u5feb\u6a02": 6297,
  "\u6bcf\u4e2a": 6298,
  "\u7716": 6299,
  "\u88ad\u51fb": 6300,
  "\u904d": 6301,
  "ap": 6302,
  "lassen": 6303,
  "que": 6304,
  "\u2581Bl\u00f6dsinn": 6305,
  "\u2581diesmal": 6306,
  "\u2581\u4ea8\u5229": 6307,
  "\u6709\u4e00\u5929": 6308,
  "\u2581ergibt": 6309,
  "\u2581setzt": 6310,
  "tel": 6311,
  "\u2581Operation": 6312,
  "\u4e2d\u56fd": 6313,
  "\u4fdd\u8b49": 6314,
  "\u2581Nehmt": 6315,
  "\u2581\u4e00\u4e9b": 6316,
  "\u2581Martin": 6317,
  "\u97f3\u6a02": 6318,
  "ass": 6319,
  "\u4e00\u767e": 6320,
  "\u5386\u53f2": 6321,
  "[": 6322,
  "del": 6323,
  "\u505a\u5230": 6324,
  "\u51e0\u4e4e": 6325,
  "\u72b6\u51b5": 6326,
  "\u2581Runde": 6327,
  "\u2581\u6709\u70b9": 6328,
  "\u663e\u793a": 6329,
  "\u78c5": 6330,
  "\u5177": 6331,
  "\u6865": 6332,
  "\u2581\u99ac": 6333,
  "\u5c31\u662f\u8fd9\u6837": 6334,
  "ney": 6335,
  "\u2581Polizist": 6336,
  "\u2581\u7b2c\u4e8c": 6337,
  "\u6b20": 6338,
  "\u812b": 6339,
  "ack": 6340,
  "\u2581Robert": 6341,
  "\u8bb8": 6342,
  "\u2581Schauen": 6343,
  "\u2581bekommst": 6344,
  "\u7f16": 6345,
  "\u95ee\u95ee": 6346,
  "\u2581Schuss": 6347,
  "\u2581Welcher": 6348,
  "\u5348\u9910": 6349,
  "\u5371\u96aa": 6350,
  "\u53f3": 6351,
  "\u5931\u671b": 6352,
  "\u2581Mannes": 6353,
  "\u2581\u662f\u4ec0\u4e48": 6354,
  "\u2581\u79d1": 6355,
  "\u7a32": 6356,
  "\u7cdf\u7cd5": 6357,
  "rin": 6358,
  "\u2581jungen": 6359,
  "\u505a\u597d": 6360,
  "\u5f15\u64ce": 6361,
  "\u780d": 6362,
  "\u7b49\u8457": 6363,
  "\u2581Wirst": 6364,
  "\u2581blind": 6365,
  "\u76f8\u5f53": 6366,
  "\u2581but": 6367,
  "\u2581\u6211\u7684\u5929\u554a": 6368,
  "\u5141\u8bb8": 6369,
  "\u6c38\u8fdc\u4e0d\u4f1a": 6370,
  "ate": 6371,
  "\u2581gelogen": 6372,
  "\u2581irgendwelche": 6373,
  "\u2581schwach": 6374,
  "\u2581think": 6375,
  "\u2581\u5982": 6376,
  "\u2581\u90a3\u6837": 6377,
  "\u5f88\u5bb9\u6613": 6378,
  "\u65e5\u672c": 6379,
  "\u2581F\u00fc\u00dfe": 6380,
  "\u2581wahre": 6381,
  "\u2581\u4e5f\u8bb8\u4f60": 6382,
  "\u6211\u6765": 6383,
  "\u2581Holt": 6384,
  "\u84cb": 6385,
  "\u2581Flasche": 6386,
  "\u2581L\u00fcgen": 6387,
  "\u2581\u9ed1": 6388,
  "all": 6389,
  "\u2581Wert": 6390,
  "\u2581\u4f60\u600e\u9ebc": 6391,
  "\u4e0d\u7b97": 6392,
  "\u5019": 6393,
  "\u2581Stich": 6394,
  "\u2581about": 6395,
  "\u2581\u5982\u679c\u5979": 6396,
  "\u2581\u6211\u5f97\u8d70\u4e86": 6397,
  "\u2581\u8981\u4e0d\u8981": 6398,
  "\u6765\u5230": 6399,
  "\u731b": 6400,
  "\u831c": 6401,
  "\u9017": 6402,
  "\u2581\u4e4b\u540e": 6403,
  "\u66f4\u591a\u7684": 6404,
  "\u2581Schnee": 6405,
  "\u2581ihres": 6406,
  "\u74e3": 6407,
  "\u8d3e": 6408,
  "\u2581freuen": 6409,
  "\u2581zieh": 6410,
  "\u51f6\u624b": 6411,
  "\u7f6e": 6412,
  "\u9884": 6413,
  "\u2581erkl\u00e4rt": 6414,
  "\u2581\u4f60\u6709\u6ca1\u6709": 6415,
  "\u523b": 6416,
  "iger": 6417,
  "\u2581Stellen": 6418,
  "\u2581dauern": 6419,
  "\u2581rief": 6420,
  "\u2581\u90a3\u6211\u4eec": 6421,
  "\u98de\u884c": 6422,
  "\u2581Bleibt": 6423,
  "\u51fa\u53d1": 6424,
  "\u5f7c\u5f97": 6425,
  "\u76db": 6426,
  "\u8033\u6735": 6427,
  "\u2581Jedes": 6428,
  "\u2581\u897f": 6429,
  "\u6211\u6ca1": 6430,
  "\u90a3\u65f6": 6431,
  "\u2581M\u00fcll": 6432,
  "\u2581\u6211\u4ee5\u4e3a\u4f60": 6433,
  "\u5211": 6434,
  "\u2581Laut": 6435,
  "\u523a\u6fc0": 6436,
  "\u7b2c\u4e09": 6437,
  "\u2581Geschichten": 6438,
  "\u2581\u8981\u662f\u6211": 6439,
  "\u2581sprichst": 6440,
  "\u4e95": 6441,
  "\u4fc4": 6442,
  "\u820d": 6443,
  "\u83b7": 6444,
  "\u8ddf\u6211\u4eec": 6445,
  "\u2581lhnen": 6446,
  "\u59ec": 6447,
  "\u68ee\u6797": 6448,
  "\u7684\u8f66": 6449,
  "\u2581Wunsch": 6450,
  "\u2581vermutlich": 6451,
  "\u6ce8\u610f\u5230": 6452,
  "tor": 6453,
  "\u2581Danach": 6454,
  "\u51fa\u53bb\u4e86": 6455,
  "\u5230\u4f60": 6456,
  "\u538b\u529b": 6457,
  "\u611b\u4f60": 6458,
  "\u2581Reihe": 6459,
  "\u60f3\u8c61": 6460,
  "\u7adf\u7136": 6461,
  "\u8981\u8d70\u4e86": 6462,
  "\u2581Helden": 6463,
  "\u2581\u6211\u4e0d\u559c\u6b22": 6464,
  "\u2581schafft": 6465,
  "\u2581\u807d\u6211\u8aaa": 6466,
  "\u610f\u5927\u5229": 6467,
  "\u2581lhr": 6468,
  "\u2581z\u00e4hlt": 6469,
  "\u4e0d\u4f4f": 6470,
  "\u62a5\u8b66": 6471,
  "\u8b8a\u6210": 6472,
  "\u9748": 6473,
  "\u2581Story": 6474,
  "\u2581geschieht": 6475,
  "\u4e5f\u6c92": 6476,
  "\u50cf\u662f": 6477,
  "ach": 6478,
  "\u2581\u5973\u4eba": 6479,
  "\u6548": 6480,
  "igkeit": 6481,
  "\u2581Stark": 6482,
  "\u2581\u00e4hnlich": 6483,
  "\u8bbe\u8ba1": 6484,
  "\u9f20": 6485,
  "\u2581lebendig": 6486,
  "\u5b9d\u5b9d": 6487,
  "\u8d95": 6488,
  "\u2581Risiko": 6489,
  "\u2581at": 6490,
  "\u2581\u8c05\u8c05": 6491,
  "\u4e0d\u8a72": 6492,
  "\u5c38": 6493,
  "\u5f85\u5728": 6494,
  "\u89c4\u77e9": 6495,
  "\u4e24\u4e2a\u4eba": 6496,
  "\u7ec3": 6497,
  "45": 6498,
  "\u2581erschie\u00dfen": 6499,
  "\u2581\u6211\u662f\u4e2a": 6500,
  "\u5be6": 6501,
  "\u5e26\u4e86": 6502,
  "\u6298": 6503,
  "\u6b7b\u4eba": 6504,
  "\u7ed9\u4f60\u4eec": 6505,
  "\u2581entdeckt": 6506,
  "\u4e11": 6507,
  "\u65b7": 6508,
  "\u8bf4\u670d": 6509,
  "\u2581Carter": 6510,
  "\u2581Genug": 6511,
  "\u2581Sorry": 6512,
  "\u2581\u4f19\u8ba1\u4eec": 6513,
  "\u2581\u65e0": 6514,
  "\ue057": 6515,
  "\u2581\u4e0d\u6703": 6516,
  "\u72b6\u6001": 6517,
  "\u901f\u5ea6": 6518,
  "\u2581Fuck": 6519,
  "\u2581vertraut": 6520,
  "\u2581\u53e6\u5916": 6521,
  "\u534f\u8bae": 6522,
  "ale": 6523,
  "\u2581Oliver": 6524,
  "\u2581\u8d77\u6765": 6525,
  "\u4f50": 6526,
  "\u809a\u5b50": 6527,
  "\u8361": 6528,
  "\u2581funktionieren": 6529,
  "\u90a3\u7a2e": 6530,
  "\u2581Nachmittag": 6531,
  "\u2581\u4e00\u5b9a\u662f": 6532,
  "\u2581\u4f60\u73fe\u5728": 6533,
  "\u505c\u4e0b": 6534,
  "\u53bb\u54ea\u91cc": 6535,
  "\u2581Katze": 6536,
  "\u2581X": 6537,
  "\u2581stelle": 6538,
  "\u2581wart": 6539,
  "\u5f55": 6540,
  "\u2581Madame": 6541,
  "\u2581\u6211\u53c8": 6542,
  "\u2581\u674e": 6543,
  "\u4e49": 6544,
  "\u662f\u55ce": 6545,
  "\u252e": 6546,
  "\u6212": 6547,
  "\u770b\u5230\u7684": 6548,
  "\u805a": 6549,
  "\u8ddf\u4f60\u8aaa": 6550,
  "ende": 6551,
  "\u2581England": 6552,
  "\u4ed6\u4eec\u4f1a": 6553,
  "\u2581fantastisch": 6554,
  "\u2581\u4ed6\u6703": 6555,
  "\u2581Befehle": 6556,
  "\u2581Gef\u00e4llt": 6557,
  "\u2581bessere": 6558,
  "\u62c9\u65af": 6559,
  "\u804a\u5929": 6560,
  "IN": 6561,
  "\u2581lachen": 6562,
  "\u2581\u80af\u5b9a": 6563,
  "\u5510": 6564,
  "\u810f": 6565,
  "\u2581Dave": 6566,
  "\u2581Gegen": 6567,
  "\u2581\u505c\u4e0b": 6568,
  "\u2581\u6628\u5929": 6569,
  "\u628a\u8fd9": 6570,
  "\u7b54\u5e94": 6571,
  "\u2581geblieben": 6572,
  "\u751c": 6573,
  "\u8212\u670d": 6574,
  "\u2581bisher": 6575,
  "\u2581\u4e0d\u51c6": 6576,
  "\u53d6\u6d88": 6577,
  "\u6211\u7236\u4eb2": 6578,
  "\u2581\u4f60\u90fd": 6579,
  "\u2581\u65e9": 6580,
  "\u7761\u4e86": 6581,
  "\u795e\u7ecf": 6582,
  "\u591f\u4e86": 6583,
  "\u592a\u7a7a": 6584,
  "\u6d3e\u5c0d": 6585,
  "\u2581Gift": 6586,
  "\u2581Start": 6587,
  "\u2581verfolgt": 6588,
  "\u2581\u60f3\u8981": 6589,
  "\u5c41": 6590,
  "\u6050\u60e7": 6591,
  "\u7997": 6592,
  "\u2581ma": 6593,
  "\u2581Matt": 6594,
  "\u2581Schmerzen": 6595,
  "\u2581they": 6596,
  "\u4e00\u8fb9": 6597,
  "\u5806": 6598,
  "\u79d1\u5b66": 6599,
  "\u2581Braut": 6600,
  "\u2581\u4e0d\u9519": 6601,
  "\u2581\u5e0c\u671b\u4f60": 6602,
  "\u5173\u95ed": 6603,
  "\u5c0f\u5973\u5b69": 6604,
  "\u7684\u4e00\u90e8\u5206": 6605,
  "\u7a33": 6606,
  "\u5fb7\u56fd": 6607,
  "\u6211\u548c": 6608,
  "\u7ed1": 6609,
  "\u83b1\u8d63": 6610,
  "tisch": 6611,
  "\u2581weinen": 6612,
  "\u2581\u4e00\u5b9a": 6613,
  "\u5e72\u51c0": 6614,
  "\u68a6\u60f3": 6615,
  "\u9700\u8981\u4f60": 6616,
  "\u2581Glaub": 6617,
  "\u5730\u70b9": 6618,
  "\u2581fiel": 6619,
  "\u6709\u4e00\u4e9b": 6620,
  "\u9759": 6621,
  "qui": 6622,
  "\u2581\u65f6\u95f4": 6623,
  "\u5242": 6624,
  "\u2581Gesch\u00e4fte": 6625,
  "\u2581wirkt": 6626,
  "\u2581\u770b\u4f86": 6627,
  "\u525b\u525b": 6628,
  "\u2581Nerven": 6629,
  "\u2581Presse": 6630,
  "\u2581\u4ed6\u4eec\u8bf4": 6631,
  "\u2581\u5e15": 6632,
  "\u2581\u7f8e\u56fd": 6633,
  "\u4e24\u5929": 6634,
  "\u5f88\u5fd9": 6635,
  "\u751f\u65e5": 6636,
  "\u770b\u4e00\u4e0b": 6637,
  "\ue61d": 6638,
  "\u2581entf\u00fchrt": 6639,
  "\u2581\u5e72": 6640,
  "\u53cd\u5bf9": 6641,
  "\u5907": 6642,
  "\u597d\u4e0d\u597d": 6643,
  "\u2581Gentlemen": 6644,
  "\u2581Guter": 6645,
  "\u2581Jede": 6646,
  "\u2581US": 6647,
  "\u5413": 6648,
  "\u5c31\u6709": 6649,
  "\u5c3d\u5feb": 6650,
  "\u795e\u79d8": 6651,
  "\u90fd\u6c92\u6709": 6652,
  "\u2581\u4f60\u4eca\u5929": 6653,
  "\u2581\u591a\u8c22": 6654,
  "\u2581dorthin": 6655,
  "\u2581schlau": 6656,
  "\u2581\u4f5c\u4e3a": 6657,
  "\u2581Gast": 6658,
  "\u6559\u6211": 6659,
  "\u2581Kurs": 6660,
  "\u2581Signal": 6661,
  "\u2581\u54ea": 6662,
  "\u2581\u660e\u767d": 6663,
  "\u4e0d\u6e05\u695a": 6664,
  "\u6d88\u5931\u4e86": 6665,
  "\ue66f": 6666,
  "\u2581Drachen": 6667,
  "\u2581Endlich": 6668,
  "\u2581Gas": 6669,
  "\u2581jedenfalls": 6670,
  "\u2581\u5f88\u591a": 6671,
  "\u4e00\u4eba": 6672,
  "\u542c\u8bf4": 6673,
  "\u610f\u8bc6\u5230": 6674,
  "\u6839\u672c": 6675,
  "\u9593": 6676,
  "\u2581\u4f60\u9084": 6677,
  "\u2581\u6211\u5728\u60f3": 6678,
  "\u540e\u6094": 6679,
  "\u6c38": 6680,
  "\u770b\u5230\u4ed6": 6681,
  "\u89c4\u5219": 6682,
  "\u2581Su": 6683,
  "\u2581\u4f60\u6c92\u4e8b\u5427": 6684,
  "\u4e4c": 6685,
  "\u591a\u4e45\u4e86": 6686,
  "\u2581Erinnerung": 6687,
  "\u516c\u53f8\u7684": 6688,
  "\u72af\u4e86": 6689,
  "\u2581West": 6690,
  "\u2581locker": 6691,
  "\u4e5f\u6c92\u6709": 6692,
  "\u53ea\u60f3": 6693,
  "\u8d3a": 6694,
  "\u2581Brust": 6695,
  "\u5531\u6b4c": 6696,
  "\u70c8": 6697,
  "\u8b49\u64da": 6698,
  "\u8bd7": 6699,
  "\u2581Sprich": 6700,
  "\u2581Wach": 6701,
  "\u4ff1\u4e50\u90e8": 6702,
  "\u5f31": 6703,
  "\u653e\u677e": 6704,
  "\u6740\u4e86\u6211": 6705,
  "\u2581\u00fcbrigens": 6706,
  "\u5df2\u7ecf\u6b7b\u4e86": 6707,
  "\u6211\u4e0d\u4f1a": 6708,
  "gehen": 6709,
  "\u2581Her": 6710,
  "\u2581Z\u00e4hne": 6711,
  "\u2581\u4e0a\u9762": 6712,
  "\u2581\u5305\u62ec": 6713,
  "\u5f88\u62b1\u6b49": 6714,
  "\u89c1\u5230\u4f60": 6715,
  "Ch": 6716,
  "\u2581G\u00e4ste": 6717,
  "\u4ec0\u4e48\u90fd": 6718,
  "\u2581Kuchen": 6719,
  "\u2581Rein": 6720,
  "\u4e0d\u5728\u4e4e": 6721,
  "\u7b54": 6722,
  "\u8fa8": 6723,
  "\u90fd\u77e5\u9053": 6724,
  "Da": 6725,
  "\u2581Darauf": 6726,
  "\u2581Zweifel": 6727,
  "\u2581\u542c\u8d77\u6765": 6728,
  "\u90fd\u88ab": 6729,
  "\u2581holt": 6730,
  "\u4f1a\u4e0d\u4f1a": 6731,
  "\u59b9": 6732,
  "\u6e9c": 6733,
  "\u71df": 6734,
  "pf": 6735,
  "\u2581isst": 6736,
  "\u2581\u4f60\u4e0d\u60f3": 6737,
  "\u628a\u4ed6\u4eec": 6738,
  "\u6bd4\u8cfd": 6739,
  "\u78e8": 6740,
  "\u9f13": 6741,
  "sel": 6742,
  "\u4e0d\u5bf9": 6743,
  "\u5e26\u4f60": 6744,
  "\u653e\u5fc3": 6745,
  "\u7d50": 6746,
  "\u2581\u4ed6\u5c31": 6747,
  "\u59d0": 6748,
  "\u5e74\u4e86": 6749,
  "\u2581Zufall": 6750,
  "\u6b63\u662f": 6751,
  "\u742a": 6752,
  "\u2581\u5f7c\u5f97": 6753,
  "\u89c2": 6754,
  "\u2581Zeitung": 6755,
  "\u2581stehlen": 6756,
  "\u2581\u4f60\u4e5f\u662f": 6757,
  "\u2581\u65e0\u8bba": 6758,
  "\u547c\u53eb": 6759,
  "\u5c31\u4e0d\u80fd": 6760,
  "\u67d0\u4eba": 6761,
  "\u8fd9\u4e0d\u662f": 6762,
  "mit": 6763,
  "\u2581Fang": 6764,
  "\u2581Lager": 6765,
  "\u2581erster": 6766,
  "\u4e0d\u8212\u670d": 6767,
  "\u2581klug": 6768,
  "\u67d0\u79cd": 6769,
  "\u7bb1\u5b50": 6770,
  "ita": 6771,
  "\u2581Schick": 6772,
  "\u2581\u4f60\u6253\u7b97": 6773,
  "\u5df4\u9ece": 6774,
  "\u6642\u5019": 6775,
  "\u6b8b": 6776,
  "\u770b\u8457": 6777,
  "\u2581fahr": 6778,
  "\u2581w\u00fcnschen": 6779,
  "\u6c92\u4eba": 6780,
  "\u8c6c": 6781,
  "\u2581Finch": 6782,
  "\u2581Form": 6783,
  "\u2581Schweine": 6784,
  "\u2581\u5979\u4f1a": 6785,
  "\u2581\u6211\u4eec\u80fd": 6786,
  "\u4f86\u81ea": 6787,
  "\u2581Elena": 6788,
  "\u2581\u5012": 6789,
  "\u53c8\u4e0d\u662f": 6790,
  "\u6211\u513f\u5b50": 6791,
  "\u6709\u6548": 6792,
  "art": 6793,
  "stein": 6794,
  "\u505a\u4e2a": 6795,
  "\u653b\u64ca": 6796,
  "\u6709\u94b1": 6797,
  "\u2581Gro\u00dfer": 6798,
  "\u2581geschossen": 6799,
  "\u2581\u4ed6\u5011\u6703": 6800,
  "\u2581\u4f60\u4ed6\u5988\u7684": 6801,
  "\u542c\u89c1": 6802,
  "\u4e00\u8f86": 6803,
  "\u4e0d\u91cd\u8981": 6804,
  "\u53bb\u8fc7": 6805,
  "\u5e8a\u4e0a": 6806,
  "\u8fa6\u516c\u5ba4": 6807,
  "\u2581\u4f60\u4e3a\u4ec0\u4e48\u4e0d": 6808,
  "\u2581stehst": 6809,
  "\u52de": 6810,
  "\u2581freut": 6811,
  "\u2581\u4f60\u592a": 6812,
  "\u5728\u4ed6": 6813,
  "\u6212\u6307": 6814,
  "\u2581verbringen": 6815,
  "\u2581\u611f\u89c9": 6816,
  "\u60e8": 6817,
  "\u64a4": 6818,
  "\u2581N\u00e4chste": 6819,
  "\u2581\u4f60\u5148": 6820,
  "\u6253\u6270": 6821,
  "\u2581Solange": 6822,
  "\u4f60\u7236\u4eb2": 6823,
  "\u5dee\u70b9": 6824,
  "\u8056": 6825,
  "\u96fb\u5f71": 6826,
  "\u2581f\u00e4ngt": 6827,
  "\u2581pass": 6828,
  "\u2581zweiten": 6829,
  "\u5a5a\u59fb": 6830,
  "\u997c": 6831,
  "igt": 6832,
  "\u2581Lo": 6833,
  "\u2581Tats\u00e4chlich": 6834,
  "\u4e13\u5bb6": 6835,
  "\u79fb\u52a8": 6836,
  "\u2581Wurde": 6837,
  "\u2581hassen": 6838,
  "\u2581\u5c24\u5176\u662f": 6839,
  "\u4e70\u4e86": 6840,
  "\u5152\u5b50": 6841,
  "\u5706": 6842,
  "\u90e8\u961f": 6843,
  "cho": 6844,
  "\u2581Mittel": 6845,
  "\u2581Prozent": 6846,
  "\u52a8\u4f5c": 6847,
  "\u8d3c": 6848,
  "\u95f2": 6849,
  "\u2581wichtiger": 6850,
  "\u8fd8\u597d\u5417": 6851,
  "\u2581Gestern": 6852,
  "\u5ba3\u5e03": 6853,
  "\u5c16": 6854,
  "\u5e86\u795d": 6855,
  "\u2581Prinz": 6856,
  "\u2581ha": 6857,
  "\u6b63\u597d": 6858,
  "kommen": 6859,
  "\u2581aufgeben": 6860,
  "\u2581if": 6861,
  "\u51fa\u53e3": 6862,
  "\u53e6\u5916": 6863,
  "\u5f00\u95e8": 6864,
  "\u2581Di": 6865,
  "\u2581Kohle": 6866,
  "\u2581Minister": 6867,
  "\u2581abge": 6868,
  "\u51f6": 6869,
  "\u7eff": 6870,
  "\u8b66\u5c40": 6871,
  "\u2581\u6211\u4e0d\u77e5\u9053\u4f60": 6872,
  "\u5f88\u5feb\u5c31": 6873,
  "\u9858\u610f": 6874,
  "\ue6e4": 6875,
  "\u2581wof\u00fcr": 6876,
  "\u4e56": 6877,
  "\u540a": 6878,
  "\u5931\u8e2a": 6879,
  "\u599e": 6880,
  "\u5a01\u5c14": 6881,
  "ec": 6882,
  "\u2581\u6211\u8bb0\u5f97": 6883,
  "\u516c\u56ed": 6884,
  "\u5360": 6885,
  "\u6765\u770b": 6886,
  "\u2581Hirn": 6887,
  "\u2581Star": 6888,
  "\u2581ange": 6889,
  "\u2581erwachsen": 6890,
  "\u2581gefeuert": 6891,
  "\u2581\u4e0d\u7ba1\u4f60": 6892,
  "\u53d7\u5bb3\u8005": 6893,
  "\u9019\u908a": 6894,
  "\u2581Louis": 6895,
  "\u2581existiert": 6896,
  "\u2581\u5409\u59c6": 6897,
  "\u521b\u9020": 6898,
  "\u60f3\u8d77": 6899,
  "\u6765\u8fd9": 6900,
  "\u2581\u4f60\u5728\u8bf4\u4ec0\u4e48": 6901,
  "\u2581\u76ee\u524d": 6902,
  "\u51e0\u5929": 6903,
  "\u76ff": 6904,
  "\ue707\ue145": 6905,
  "tes": 6906,
  "\u2581Post": 6907,
  "\u2581real": 6908,
  "\u5bf9\u4e0d\u5bf9": 6909,
  "\u5e9f\u8bdd": 6910,
  "\u6709\u673a\u4f1a": 6911,
  "\u822c": 6912,
  "\u2581Gras": 6913,
  "\u2581\u4f60\u61c9\u8a72": 6914,
  "\u5e72\u5417": 6915,
  "\u2581behandelt": 6916,
  "\u2581voraus": 6917,
  "\u2581\u6b63\u5728": 6918,
  "\u624b\u91cc": 6919,
  "\u2581Vertrag": 6920,
  "\u2581Welches": 6921,
  "\u2581\u795e": 6922,
  "\u548c\u6211\u4eec": 6923,
  "\u656c": 6924,
  "\u2581Ganze": 6925,
  "\u2581Gr\u00f6\u00dfe": 6926,
  "\u2581Leck": 6927,
  "\u2581hinterlassen": 6928,
  "\u2581\u4f60\u6c92": 6929,
  "\u2581\u6211\u4ee5\u70ba": 6930,
  "\u2581\u771f\u7684\u55ce": 6931,
  "\u4e0d\u4e00\u6a23": 6932,
  "\u5916\u5957": 6933,
  "\u9001\u5230": 6934,
  "app": 6935,
  "\u2581Jerry": 6936,
  "\u2581erlaubt": 6937,
  "\u611a\u8822\u7684": 6938,
  "\u6709\u4e00\u500b": 6939,
  "\u2581Soldat": 6940,
  "\u2581Zahlen": 6941,
  "\u4f60\u770b": 6942,
  "\u73cd": 6943,
  "\u8179": 6944,
  "\u9635": 6945,
  "\u2581Zeitpunkt": 6946,
  "\u65f6\u4ee3": 6947,
  "\u6f22": 6948,
  "\u884c\u4e3a": 6949,
  "\u8fd9\u4e9b\u4eba": 6950,
  "23": 6951,
  "plan": 6952,
  "\u258160": 6953,
  "\u2581t\u00f6tet": 6954,
  "\u5e95\u4e0b": 6955,
  "\u6b64\u4e8b": 6956,
  "\u80fd\u5920": 6957,
  "\u6709\u95dc": 6958,
  "\u7801": 6959,
  "\u2581Fahrt": 6960,
  "\u5370\u5ea6": 6961,
  "\u5973\u5deb": 6962,
  "\u66ff\u6211": 6963,
  "\u8ffd\u8e2a": 6964,
  "\u2581Winter": 6965,
  "\u2581angegriffen": 6966,
  "\u2581\u6211\u89c9\u5f97\u4f60": 6967,
  "\u2581\u770b\u770b\u4f60": 6968,
  "ey": 6969,
  "\u2581Pfund": 6970,
  "\u2581fragt": 6971,
  "\u2581\u653e\u4e0b": 6972,
  "\u542c\u8fc7": 6973,
  "\u7684\u6b7b": 6974,
  "\u8d1f": 6975,
  "OR": 6976,
  "\u2581freundlich": 6977,
  "\u2581\u4f46\u5982\u679c": 6978,
  "\u2581\u4f60\u4e0d\u6703": 6979,
  "\u53d7\u4e0d\u4e86": 6980,
  "\u597d\u4eba": 6981,
  "\u9000\u51fa": 6982,
  "\u2581Fass": 6983,
  "\u2581vorhin": 6984,
  "\u5948": 6985,
  "\u6545": 6986,
  "\u76d1\u89c6": 6987,
  "\u2581\u5f53\u65f6": 6988,
  "\u2581\u6211\u4eec\u53bb": 6989,
  "\u8b49": 6990,
  "\u964c\u751f\u4eba": 6991,
  "\u2581Daniel": 6992,
  "\u2581leiden": 6993,
  "\u2581n\u00e4chstes": 6994,
  "\u2581passen": 6995,
  "\u7684\u597d": 6996,
  "\u2581\u54c8\u5229": 6997,
  "\u2581\u8ba9\u4ed6\u4eec": 6998,
  "\u4e0d\u592a\u597d": 6999,
  "\u6027\u7684": 7000,
  "\u6211\u9700\u8981": 7001,
  "\u2581\u77e5\u9053\u4e86": 7002,
  "\u2581Flucht": 7003,
  "\u611f\u8c22": 7004,
  "\u7159": 7005,
  "\u8981\u662f": 7006,
  "\u2581\u03a4": 7007,
  "\u79fb": 7008,
  "\u2581Sal": 7009,
  "\u2581\u7537\u4eba": 7010,
  "\u5145": 7011,
  "\u2581erz\u00e4hlte": 7012,
  "\u2581kennenzulernen": 7013,
  "\u2581schlechter": 7014,
  "\u2581\u7b2c": 7015,
  "\u5012\u662f": 7016,
  "\u2581Botschaft": 7017,
  "\u2581Medizin": 7018,
  "\u2581Sack": 7019,
  "\u2581ziehe": 7020,
  "\u7f8e\u4e3d\u7684": 7021,
  "\u898b\u5230": 7022,
  "\u8bb2\u8bdd": 7023,
  "\u964d\u843d": 7024,
  "\u505a\u5230\u4e86": 7025,
  "\u505a\u5f97": 7026,
  "\u8c9d": 7027,
  "\u949f": 7028,
  "\u2581Gro\u00dfvater": 7029,
  "\u5c4e": 7030,
  "\u684c": 7031,
  "lan": 7032,
  "\u2581\u4e0d\u662f\u6211": 7033,
  "\u4e0b\u4e86": 7034,
  "\u672f": 7035,
  "\u8070\u660e": 7036,
  "\u2581W\u00e4hrend": 7037,
  "\u2581gingen": 7038,
  "\u2581\u00e4hm": 7039,
  "\u7528\u4e86": 7040,
  "\u2581200": 7041,
  "\u2581Geister": 7042,
  "\u2581\u5982\u4f55": 7043,
  "\u5e94\u8be5\u662f": 7044,
  "\u7528\u6765": 7045,
  "\u0398": 7046,
  "\u2581Termin": 7047,
  "\u2581Verstanden": 7048,
  "\u2581\u6211\u53ef\u4e0d": 7049,
  "\u53bb\u54ea\u4e86": 7050,
  "\u660f": 7051,
  "\u7684\u7535\u8bdd": 7052,
  "\u2581\u542c": 7053,
  "\u2581\u6211\u77e5\u9053\u6211": 7054,
  "\u5f97\u597d": 7055,
  "\u6e05\u7406": 7056,
  "\u8c6a": 7057,
  "\u8d85\u7ea7": 7058,
  "\u906d": 7059,
  "dem": 7060,
  "\u2581Rachel": 7061,
  "\u2581Zauber": 7062,
  "\u2581\u53bb\u4f60\u7684": 7063,
  "\u5abd": 7064,
  "\u5c5e\u4e8e": 7065,
  "90": 7066,
  "\u2581Panik": 7067,
  "\u5b69\u5b50\u5011": 7068,
  "\u6d6a": 7069,
  "\u9986": 7070,
  "\u2581langer": 7071,
  "\u4ea8\u5229": 7072,
  "\u6211\u7684\u670b\u53cb": 7073,
  "\u6253\u958b": 7074,
  "\u65e0\u804a": 7075,
  "berg": 7076,
  "\u2581Akte": 7077,
  "\u2581Black": 7078,
  "\u4fd7": 7079,
  "\u93ae": 7080,
  "tin": 7081,
  "\u2581Autos": 7082,
  "\u2581Can": 7083,
  "\u2581Polizisten": 7084,
  "\u2581Ton": 7085,
  "\u2581\u4e3a\u4f55": 7086,
  "\u554f\u4f60": 7087,
  "\u5728\u6b64": 7088,
  "\u6211\u559c\u6b22": 7089,
  "\u6d6a\u6f2b": 7090,
  "\u9650": 7091,
  "70": 7092,
  "\u2581Selbstmord": 7093,
  "\u662f\u5c0d\u7684": 7094,
  "\u7684\u90a3": 7095,
  "\u2581Date": 7096,
  "\u2581Englisch": 7097,
  "\u789e\u740c": 7098,
  "\u2581\u8dd1": 7099,
  "\u51b3": 7100,
  "\u6ca1\u6709\u4eba": 7101,
  "tion": 7102,
  "\u2581Geheimnisse": 7103,
  "\u2581\u9019\u91cc": 7104,
  "\u2581\u90a3\u662f\u6211": 7105,
  "\u4f5c\u5bb6": 7106,
  "\u5e74\u4ee3": 7107,
  "\u653e\u68c4": 7108,
  "\u2581Vorstellung": 7109,
  "\u53ea\u662f\u60f3": 7110,
  "geben": 7111,
  "\u2581\u8fd8\u8981": 7112,
  "\u4e00\u652f": 7113,
  "\u4f17": 7114,
  "\u4f26\u6566": 7115,
  "\u25813.": 7116,
  "\u4e0b\u8f66": 7117,
  "\u4e1f": 7118,
  "\u4e5f\u5f88": 7119,
  "\u60f3\u7684": 7120,
  "ies": 7121,
  "\u2581Ar": 7122,
  "\u2581Pflicht": 7123,
  "\u2581welchem": 7124,
  "\u2581\u4f60\u4ee5\u4e3a": 7125,
  "\u716e": 7126,
  "ink": 7127,
  "\u2581Dreh": 7128,
  "\u2581schuld": 7129,
  "\u80cc\u53db": 7130,
  "\u2581Steig": 7131,
  "\u2581\u6211\u5011\u9700\u8981": 7132,
  "\u2581\u6211\u77e5\u9053\u4e86": 7133,
  "\u6bd5\u4e1a": 7134,
  "\u2581Test": 7135,
  "\u2581arbeitest": 7136,
  "\u2581\u559d": 7137,
  "\u6d17\u6fa1": 7138,
  "\u9019\u4e8b": 7139,
  "\u2581Ra": 7140,
  "\u2581L\u00fcgner": 7141,
  "\u2581\u4f60\u770b\u5230": 7142,
  "\u50b7\u5bb3": 7143,
  "\u5927\u9ebb": 7144,
  "\u5de6\u53f3": 7145,
  "\u626d": 7146,
  "\u2581wusstest": 7147,
  "In": 7148,
  "\u2581\u6211\u5011\u5728": 7149,
  "\u2581\u81ea": 7150,
  "\u2581\u4f60\u53ef": 7151,
  "\u5835": 7152,
  "\u2022": 7153,
  "\u2581Verr\u00e4ter": 7154,
  "\u2581now": 7155,
  "\u2581want": 7156,
  "\u6e38\u6cf3": 7157,
  "\u8ba4": 7158,
  "\u2581Bald": 7159,
  "\u2581Br\u00fccke": 7160,
  "\u2581einzigen": 7161,
  "\u2581\u7f85": 7162,
  "\u57cb": 7163,
  "\u63d0\u9192": 7164,
  "\u6b63\u786e": 7165,
  "\u2581Acht": 7166,
  "\u2581Kuss": 7167,
  "\u2581mo": 7168,
  "\u2581wurdest": 7169,
  "\u4f60\u53bb": 7170,
  "\u2581Schande": 7171,
  "\u2581treten": 7172,
  "\u518d\u6765": 7173,
  "\u8c93": 7174,
  "\u8d70\u8def": 7175,
  "\u2581Davon": 7176,
  "\u2581Verdammte": 7177,
  "\u2581spiele": 7178,
  "\u4e0d\u516c\u5e73": 7179,
  "\u5468\u56f4": 7180,
  "\u5f04\u5230": 7181,
  "\u898b\u904e": 7182,
  "\u9709": 7183,
  "\u2581Antworten": 7184,
  "\u2581schaffe": 7185,
  "\u2581vorn": 7186,
  "\u4e0d\u5982": 7187,
  "\u6211\u5bb6": 7188,
  "mp": 7189,
  "\u2581fragst": 7190,
  "\u4ee5\u5f8c": 7191,
  "\u4fbf\u5b9c": 7192,
  "\u6b78": 7193,
  "\u884c\u674e": 7194,
  "\u2581Pe": 7195,
  "\u2581need": 7196,
  "\u2581satt": 7197,
  "\u2581\u4f60\u8981\u662f": 7198,
  "\u2581\u4f60\u9019": 7199,
  "\u5728\u4e0a\u9762": 7200,
  "\u2581Car": 7201,
  "\u2581Halte": 7202,
  "\u2581solchen": 7203,
  "\u2581st\u00f6ren": 7204,
  "\u8c0b": 7205,
  "\u2581k\u00fcssen": 7206,
  "\u5efa\u8b70": 7207,
  "\u6574\u500b": 7208,
  "\u8bd5\u7740": 7209,
  "verst\u00e4ndlich": 7210,
  "\u2581g\u00e4be": 7211,
  "\u4e0d\u662f\u6211": 7212,
  "\u5077\u4e86": 7213,
  "\u58d3": 7214,
  "\u6162\u6162": 7215,
  "\u6e7f": 7216,
  "\u4e14": 7217,
  "\u4e16\u7eaa": 7218,
  "\u5355\u72ec": 7219,
  "\u6211\u5df2\u7ecf": 7220,
  "\u7dca": 7221,
  "\u8fd9\u4e00": 7222,
  "\u2581geglaubt": 7223,
  "\u4e13": 7224,
  "\u62b1\u6028": 7225,
  "\u8bf4\u8bf4": 7226,
  "\u2581Aufh\u00f6ren": 7227,
  "\u2581Vergessen": 7228,
  "\u2581fing": 7229,
  "\u2581Feld": 7230,
  "\u2581Projekt": 7231,
  "\u8f66\u5b50": 7232,
  "\u2581Officer": 7233,
  "\u80ce": 7234,
  "\u80dc\u5229": 7235,
  "\u2581Hure": 7236,
  "\u2581L\u00fcge": 7237,
  "\u2581\u4e00\u8d77": 7238,
  "\u2581\u5bf6\u8c9d": 7239,
  "\u8bb0\u4f4f": 7240,
  "\u9810": 7241,
  "\u2581Killer": 7242,
  "\u2581Rufen": 7243,
  "\u2581Schul": 7244,
  "\u4e24\u6b21": 7245,
  "\u6709\u7528": 7246,
  "\u67cf\u6797": 7247,
  "keit": 7248,
  "\u2581\u5916\u9762": 7249,
  "\u2581\ue6d4": 7250,
  "\u6765\u8fd9\u513f": 7251,
  "\u6ca1\u6709\u4efb\u4f55": 7252,
  "\u8cb4": 7253,
  "form": 7254,
  "ip": 7255,
  "off": 7256,
  "\u2581Knochen": 7257,
  "\u2581Well": 7258,
  "\u2581oh": 7259,
  "\u2581sch\u00f6nes": 7260,
  "\u4f60\u548c": 7261,
  "\u4f86\u5427": 7262,
  "\u586b": 7263,
  "\u9084\u8981": 7264,
  "21": 7265,
  "\u2581Au": 7266,
  "\u2581Kleider": 7267,
  "\u2581Pl\u00e4ne": 7268,
  "\u2581Schlacht": 7269,
  "\u2581sch": 7270,
  "\u2581\u662f\u771f\u7684": 7271,
  "\u2581\u7136\u800c": 7272,
  "\u52c7\u6562": 7273,
  "\u5c45": 7274,
  "\u6211\u55ce": 7275,
  "\u6d31": 7276,
  "{": 7277,
  "{\\": 7278,
  "\u2581erinnerst": 7279,
  "\u2581\u8981\u4e48": 7280,
  "\u4eba\u5bb6": 7281,
  "\u4ec0\u9ebc\u6642\u5019": 7282,
  "\u590f\u5929": 7283,
  "\u5bdf": 7284,
  "\u7684\u6240\u6709": 7285,
  "\u95fd": 7286,
  "\u2581Fr\u00e4ulein": 7287,
  "\u2581Sturm": 7288,
  "\u5730\u4e0b": 7289,
  "ring": 7290,
  "\u2581dunkel": 7291,
  "\u2581\u53ef\u60dc": 7292,
  "\u5168\u662f": 7293,
  "\u5a74\u513f": 7294,
  "\u5f88\u7f8e": 7295,
  "\u5fd7": 7296,
  "\u628a\u4f60\u7684": 7297,
  "\u638c\u63e1": 7298,
  "\u90e8\u95e8": 7299,
  "\u2581Bastard": 7300,
  "\u2581Karriere": 7301,
  "\u2581Lucy": 7302,
  "\u2581\u4f46\u6211\u5011": 7303,
  "\u2581\u90a3\u6211\u5c31": 7304,
  "\u66f4\u597d\u7684": 7305,
  "\u6d6a\u8d39": 7306,
  "\u8001\u516c": 7307,
  "ST": 7308,
  "fi": 7309,
  "\u2581beobachtet": 7310,
  "\u2581zumindest": 7311,
  "\u53ef\u80fd\u6703": 7312,
  "\u6700\u91cd\u8981\u7684": 7313,
  "\ue6a7": 7314,
  "\u2581Klo": 7315,
  "\u4f55\u65f6": 7316,
  "\u6276": 7317,
  "\u62dc\u8088": 7318,
  "\u6709\u7a7a": 7319,
  "\u6761\u4ef6": 7320,
  "\u8c0b\u7714": 7321,
  "\u53d1\u5c04": 7322,
  "\u7532": 7323,
  "So": 7324,
  "\u4e00\u665a": 7325,
  "\u6709\u95ee\u9898": 7326,
  "\u2581kontrollieren": 7327,
  "\u2581\u00e4lter": 7328,
  "\u2581\u4e24": 7329,
  "\u2581\u665a\u4e0a\u597d": 7330,
  "\u78a7": 7331,
  "\u8209": 7332,
  "\u8bb0\u5fc6": 7333,
  "\u9178": 7334,
  "\u2581Nenn": 7335,
  "\u2581Sch\u00fcler": 7336,
  "\u2581Se": 7337,
  "\u4efb\u4f55\u4e8b": 7338,
  "\u5999": 7339,
  "\u5f97\u591a": 7340,
  "\u7684\u751f\u547d": 7341,
  "\u8fd9\u4e2a\u5730\u65b9": 7342,
  "\u2581entt\u00e4uscht": 7343,
  "\u2581unschuldig": 7344,
  "\u791a": 7345,
  "\u7f8e\u56fd\u4eba": 7346,
  "\u8ba2": 7347,
  "\u2581Fest": 7348,
  "\u4eba\u5011": 7349,
  "\u4eba\u985e": 7350,
  "\u7684\u5b89\u5168": 7351,
  "\u8ba9\u5b83": 7352,
  "\u96fb\u8a71": 7353,
  "ny": 7354,
  "\u2581Doug": 7355,
  "\u2581\u767d": 7356,
  "\u5973\u5152": 7357,
  "\u9a97": 7358,
  "sche": 7359,
  "\u2581\u8981\u4e0d": 7360,
  "\u2581\u8bb0\u4f4f": 7361,
  "\u4e60\u60ef": 7362,
  "\u592a\u9633": 7363,
  "\u610f\u4e49": 7364,
  "\u2581weiteren": 7365,
  "\u5b66\u4f1a": 7366,
  "\u5b8c\u7f8e\u7684": 7367,
  "\u8fd9\u4e48\u60f3": 7368,
  "\ue802": 7369,
  "\u2581Programm": 7370,
  "\u2581denk": 7371,
  "\u2581\u5f88\u9ad8\u5174": 7372,
  "\u2581\u6211\u4e0d\u9700\u8981": 7373,
  "\u5224": 7374,
  "\u6355": 7375,
  "\u6d01": 7376,
  "\u957f\u5927": 7377,
  "\u2581Staaten": 7378,
  "\u59b9\u59b9": 7379,
  "\u80af\u5b9a\u662f": 7380,
  "\u2581\u8d70\u5f00": 7381,
  "\u2581\u8fd9\u5c31\u662f\u6211": 7382,
  "\u5145\u6ee1": 7383,
  "\u56de\u4e8b": 7384,
  "\u2581Gro\u00dfmutter": 7385,
  "\u2581Zeugen": 7386,
  "\u5362": 7387,
  "\u62d2\u7d55": 7388,
  "\u662f\u8981": 7389,
  "\u89d2\u8272": 7390,
  "\u00e4ng": 7391,
  "\u2581\u6211\u60f3\u77e5\u9053": 7392,
  "\u4e2d\u60c5\u5c40": 7393,
  "\u5f53\u6211": 7394,
  ")...": 7395,
  "pp": 7396,
  "\u2581Vampir": 7397,
  "\u5353": 7398,
  "\u539a": 7399,
  "\u2581Bauch": 7400,
  "\u2581Brot": 7401,
  "\u65c5\u9986": 7402,
  "\u7aa5": 7403,
  "\u7c97": 7404,
  "\u2581Hm": 7405,
  "\u4ea1": 7406,
  "\u5e2b": 7407,
  "\u2581M\u00fche": 7408,
  "\u5361\u8f66": 7409,
  "\u542c\u542c": 7410,
  "gang": 7411,
  "\u2581Herzlich": 7412,
  "\u2581\u9019\u662f\u4ec0\u9ebc": 7413,
  "\u5eab": 7414,
  "\u72e0": 7415,
  "\u7f8e\u4e3d": 7416,
  "\u9435": 7417,
  "\u2581see": 7418,
  "\u2581\u81ea\u4ece": 7419,
  "\u68c0": 7420,
  "zug": 7421,
  "\u2581Entweder": 7422,
  "\u6253\u6b7b": 7423,
  "\u6295\u964d": 7424,
  "\u2581Zustand": 7425,
  "\u5e74\u7684": 7426,
  "rt": 7427,
  "\u2581Jeden": 7428,
  "\u2581USA": 7429,
  "\u2581verfolgen": 7430,
  "\u2581\u5b89\u5a1c": 7431,
  "\u56e0\u4e3a\u6211": 7432,
  "\u600e\u9ebd": 7433,
  "\u7684\u4e00\u4e2a": 7434,
  "\u7684\u610f\u601d": 7435,
  "ath": 7436,
  "\u2581Million": 7437,
  "\u5bf6\u8c9d": 7438,
  "\u5f88\u4e0d\u9519": 7439,
  "\u8fc7\u7684": 7440,
  "\u2581Ne": 7441,
  "\u2581hingehen": 7442,
  "\u2581\u90a3\u597d": 7443,
  "\u5b54": 7444,
  "machen": 7445,
  "\u2581Hexe": 7446,
  "\u2581Street": 7447,
  "\u2581Willen": 7448,
  "\u2581\u5230\u4e86": 7449,
  "\u2581\u597d\u6781\u4e86": 7450,
  "\u4e0d\u5c11": 7451,
  "\u574e": 7452,
  "\u2581\u4e0d\u4e0d\u4e0d": 7453,
  "\u536b": 7454,
  "\u7684\u5973\u513f": 7455,
  "spiel": 7456,
  "\u2581Kevin": 7457,
  "\u2581Laura": 7458,
  "\u2581\u79bb": 7459,
  "\u95ea": 7460,
  "\u2581Rock": 7461,
  "\u2581Sieg": 7462,
  "\u2581daraus": 7463,
  "\u2581\u7678": 7464,
  "\u4e94\u5341": 7465,
  "\u6211\u7684\u624b": 7466,
  "\u6709\u8fc7": 7467,
  "\u7a7a\u95f4": 7468,
  "Wo": 7469,
  "\u4e00\u7fa4": 7470,
  "\u4e4b\u5916": 7471,
  "18\\": 7472,
  "\u4ee4\u6211": 7473,
  "\u684c\u5b50": 7474,
  "\u770b\u904e": 7475,
  "\u2581Zucker": 7476,
  "\u2581w\u00fcnsche": 7477,
  "\u2581\u8fd9\u662f\u4f60": 7478,
  "\u6295\u7968": 7479,
  "\u641c\u7d22": 7480,
  "\u725b\u5976": 7481,
  "\u2581Cal": 7482,
  "\u2581Reich": 7483,
  "\u2581Sch\u00f6nheit": 7484,
  "\u2581scharf": 7485,
  "\u5f88\u4e45\u4e86": 7486,
  "\u2581Ideen": 7487,
  "\u2581Notfall": 7488,
  "\u2581bester": 7489,
  "\u2581\u4f46\u662f\u4ed6": 7490,
  "\u4ece\u6765\u6ca1\u6709": 7491,
  "\u9f3b\u5b50": 7492,
  "\u2581Ober": 7493,
  "\u2581Verstehen": 7494,
  "\u2581\u6c92\u95dc\u4fc2": 7495,
  "\u661f\u7403": 7496,
  "\u6709\u4efb\u4f55": 7497,
  "gar": 7498,
  "vor": 7499,
  "\u2581\u5b9e\u9645\u4e0a": 7500,
  "\u5728\u90a3\u5152": 7501,
  "\u965b\u4e0b": 7502,
  "ort": 7503,
  "\u2581Holz": 7504,
  "\u2581Steuer": 7505,
  "\u2581st\u00e4rker": 7506,
  "\u2581\u4e00\u5b9a\u8981": 7507,
  "\u2581\u6709\u65f6": 7508,
  "\u8d34": 7509,
  "\u2581nachdenken": 7510,
  "\u2581\u4e0a\u5e1d\u554a": 7511,
  "\u2581\u4e24\u4e2a": 7512,
  "\u2581\u73ed": 7513,
  "\u6d6e": 7514,
  "\u8e0f": 7515,
  "bb": 7516,
  "\u2581Talent": 7517,
  "\u2581Trick": 7518,
  "\u2581versuch": 7519,
  "\u53e6\u4e00\u500b": 7520,
  "\u5730\u56fe": 7521,
  "\u72c4": 7522,
  "\u73b0\u5b9e": 7523,
  "\u80fd\u770b\u5230": 7524,
  "\u2581Pete": 7525,
  "\u2581\u56de\u5230": 7526,
  "\u2581\u8036": 7527,
  "\u6848\u4ef6": 7528,
  "voll": 7529,
  "\u2581Or": 7530,
  "\u4e26\u4e0d": 7531,
  "\u6876": 7532,
  "\u2581ficken": 7533,
  "\u5e05": 7534,
  "\u6bcf\u4e2a\u4eba\u90fd": 7535,
  "\u8a18\u5f97": 7536,
  "\u8bc1\u4eba": 7537,
  "\u8fdb\u4e86": 7538,
  "nie": 7539,
  "\u2581Hinter": 7540,
  "\u2581\u5409": 7541,
  "\u5b9e\u9a8c": 7542,
  "\u653e\u5230": 7543,
  "\u70b9\u513f": 7544,
  "\u8868\u73b0": 7545,
  "\u8981\u4f60": 7546,
  "ep": 7547,
  "\u53f8\u673a": 7548,
  "\u6574\u5929": 7549,
  "\u2581Wollte": 7550,
  "\u2581gebraucht": 7551,
  "\u2581\u4f60\u9084\u597d\u55ce": 7552,
  "\u2581\u606d\u559c": 7553,
  "\u2581\u60f3\u60f3": 7554,
  "\u2581\u6c38\u8fdc": 7555,
  "\u600e": 7556,
  "\u8ba8": 7557,
  "don": 7558,
  "\u2581\u54b1\u5011": 7559,
  "\u5438\u5f15": 7560,
  "\u6559\u80b2": 7561,
  "\u2581warm": 7562,
  "\u2581\u4f60\u53ea\u662f": 7563,
  "\u2581Werde": 7564,
  "\u2581she": 7565,
  "\u5e74\u8f15": 7566,
  "\u6602": 7567,
  "\u76d2": 7568,
  "\u8981\u505a": 7569,
  "\u2581Wolf": 7570,
  "\u2581enden": 7571,
  "\u2581\ue6d6": 7572,
  "\u770b\u5230\u6211": 7573,
  "\u2581Grenze": 7574,
  "\u2581Langsam": 7575,
  "\u2581Schloss": 7576,
  "\u2581gebrauchen": 7577,
  "\u2581\u00fcberzeugt": 7578,
  "\u533b": 7579,
  "\u8001\u670b\u53cb": 7580,
  "\u904e\u4e86": 7581,
  "\u2581woanders": 7582,
  "\u2581\u4f60\u5f88": 7583,
  "\u2581\u5176\u4ed6": 7584,
  "\u60e1": 7585,
  "\u90fd\u5f88": 7586,
  "\u2581Cop": 7587,
  "\u2581Flughafen": 7588,
  "\u2581Vi": 7589,
  "\u2581\u5982\u679c\u662f": 7590,
  "\u4e00\u5927": 7591,
  "\u6ca1\u529e\u6cd5": 7592,
  "\u7684\u6848\u5b50": 7593,
  "\u2581MANN": 7594,
  "\u2581Madam": 7595,
  "\u2581\u970d": 7596,
  "\u8fd9\u79cd\u4e8b": 7597,
  "\u902e\u6355": 7598,
  "\u2581Alkohol": 7599,
  "\u2581z": 7600,
  "\u2581\u6211\u5011\u8d70": 7601,
  "\u2581\u6bcf\u4e2a\u4eba\u90fd": 7602,
  "\u4e3b\u4eba": 7603,
  "\u5f8c\u9762": 7604,
  "\u7f8e\u5973": 7605,
  "\u826f": 7606,
  "\u89e3\u6c7a": 7607,
  "\u96a8": 7608,
  "\u2581or": 7609,
  "\u2581verhindern": 7610,
  "\u2581\u6211\u597d": 7611,
  "\u7d66\u4ed6": 7612,
  "ance": 7613,
  "\u00e4n": 7614,
  "\u2581setz": 7615,
  "\u2581\u00fcberlegen": 7616,
  "\u4e09\u5929": 7617,
  "\u662f\u6211\u4eec\u7684": 7618,
  "\u2581Dazu": 7619,
  "\u2581Fahrer": 7620,
  "\u2581Wetter": 7621,
  "\u2581\u9ea6\u514b": 7622,
  "\u54ea\u4e2a": 7623,
  "\u6570\u5b57": 7624,
  "\u8d63": 7625,
  "\u2581Fast": 7626,
  "\u2581\u5920\u4e86": 7627,
  "\u2581\u751c\u5fc3": 7628,
  "\u5ac9\u5992": 7629,
  "\u611a\u8822": 7630,
  "\u8054\u90a6": 7631,
  "\u80fd\u5426": 7632,
  "\u2581Lily": 7633,
  "\u2581Yo": 7634,
  "\u2581\u6211\u4e0d\u5728\u4e4e": 7635,
  "\u5fc5\u8981": 7636,
  "\u7bc0": 7637,
  "\u8dcc": 7638,
  "\u2581Schnauze": 7639,
  "\u2581fa": 7640,
  "\u2581vermisse": 7641,
  "\u2581\u7136\u540e\u6211": 7642,
  "\u627e\u5230\u7684": 7643,
  "\u673a\u5668\u4eba": 7644,
  "\u67d0\u4e9b": 7645,
  "\u7167\u9867": 7646,
  "\u7a0e": 7647,
  "\u9019\u6a23\u7684": 7648,
  "\u90fd\u884c": 7649,
  "\u2581geheiratet": 7650,
  "\u2581sowas": 7651,
  "\u2581umsonst": 7652,
  "\u2581verdammter": 7653,
  "\u2581\u5f53\u7136\u4e86": 7654,
  "\u9875": 7655,
  "\u2581Einheit": 7656,
  "\u2581Hoheit": 7657,
  "\u2581Wor\u00fcber": 7658,
  "\u2581\u56e0\u4e3a\u6211\u4eec": 7659,
  "\u2581\u7b49\u4f60": 7660,
  "\u4e0d\u8d77": 7661,
  "\u5b9e\u9a8c\u5ba4": 7662,
  "\u62a2\u52ab": 7663,
  "\u975c": 7664,
  "1\\3": 7665,
  "\u2581Kon": 7666,
  "\u2581\ue707\ue145": 7667,
  "\u683c\u65af": 7668,
  "\u9019\u6b21": 7669,
  "\u2581Griff": 7670,
  "\u2581there": 7671,
  "\u7a97\u6237": 7672,
  "rie": 7673,
  "\u2581ver\u00e4ndern": 7674,
  "\u2581\u5225\u64d4\u5fc3": 7675,
  "\u2581\u5728\u8fd9": 7676,
  "\u5c3a": 7677,
  "wagen": 7678,
  "\u2581Westen": 7679,
  "\u2581f\u00fchlte": 7680,
  "\u2581\u53ea\u80fd": 7681,
  "\u2581\u7b49\u4e0b": 7682,
  "\u600e\u9ebc\u8aaa": 7683,
  "\u6b62": 7684,
  "\u9577\u5b98": 7685,
  "\u2581China": 7686,
  "\u2581Leo": 7687,
  "\u2581Pistole": 7688,
  "\u2581Sprache": 7689,
  "\u2581geklaut": 7690,
  "\u2581\u5168\u90e8": 7691,
  "\u5370\u8c61": 7692,
  "\u559c\u6b22\u4f60": 7693,
  "\u7684\u9322": 7694,
  "teil": 7695,
  "\u2581\u6211\u7238": 7696,
  "\u2581Direktor": 7697,
  "\u2581Papier": 7698,
  "\u2581\u9019\u662f\u6211": 7699,
  "\u4e2a\u6708": 7700,
  "\u500d": 7701,
  "\u514b\u62c9": 7702,
  "\u56f4": 7703,
  "\u6253\u67b6": 7704,
  "\u667a": 7705,
  "\u6b7b\u6389": 7706,
  "\u96c7": 7707,
  "io": 7708,
  "\u2581schickt": 7709,
  "\u5929\u54ea": 7710,
  "\u5f88\u9ad8\u8208": 7711,
  "\u5f8b\u5e2b": 7712,
  "\u2581Emily": 7713,
  "\u2581Feinde": 7714,
  "\u2581bat": 7715,
  "\u5e2e\u4ed6": 7716,
  "\u7740\u6211": 7717,
  "gi": 7718,
  "tro": 7719,
  "\u2581N\u00e4chstes": 7720,
  "\u2581angesehen": 7721,
  "\u2581liebte": 7722,
  "\u4e2d\u95f4": 7723,
  "\u5173\u6389": 7724,
  "\u662f\u4e00\u500b": 7725,
  "\u8ddf\u8457": 7726,
  "erweise": 7727,
  "\u2581Krankheit": 7728,
  "\u2581Priester": 7729,
  "\u4e0d\u540c\u7684": 7730,
  "\u5e72\u6d3b": 7731,
  "\u628a\u8fd9\u4e2a": 7732,
  "\u660e\u661f": 7733,
  "ev": 7734,
  "\u2581\u6211\u5011\u90fd": 7735,
  "\u2581\u628a\u4f60\u7684": 7736,
  "\u2581\u6839\u636e": 7737,
  "\u5df1": 7738,
  "\u77f3\u5934": 7739,
  "\u94a1": 7740,
  "age": 7741,
  "\u2581re": 7742,
  "\u623f\u9593": 7743,
  "\u654c": 7744,
  "\u7e3d\u7d71": 7745,
  "22": 7746,
  "dienst": 7747,
  "\u4e0d\u80fd\u518d": 7748,
  "\u6467\u6bc1": 7749,
  "\u6a39": 7750,
  "\u72e5": 7751,
  "\u7f8e\u597d": 7752,
  "\u2581Stefan": 7753,
  "\u2581abholen": 7754,
  "\u2581\u6211\u4ece": 7755,
  "\u5168\u8eab": 7756,
  "\u7f62": 7757,
  "\u8bbd": 7758,
  "\u2581schicke": 7759,
  "\u2581\u4e54\u6cbb": 7760,
  "\u52b2": 7761,
  "\u54c8\u5229": 7762,
  "\u5e36\u8457": 7763,
  "\u627e\u4eba": 7764,
  "\u7d66\u5979": 7765,
  "\u2581Hemd": 7766,
  "\u2581trauen": 7767,
  "\u5de5\u4f5c\u4e86": 7768,
  "\u626b": 7769,
  "\u641c": 7770,
  "\u771f\u7684\u662f": 7771,
  "\u7f69": 7772,
  "\u8be5\u600e\u4e48\u529e": 7773,
  "\u90fd\u4e0d\u77e5\u9053": 7774,
  "\u2581zur\u00fcckkommen": 7775,
  "\u2581\u4f60\u6765": 7776,
  "\u2581\u521a\u624d": 7777,
  "\u548c\u6211\u4e00\u8d77": 7778,
  "\u5f1f\u5f1f": 7779,
  "\u6e34\u671b": 7780,
  "\u8001\u95c6": 7781,
  "\u91c7": 7782,
  "ther": 7783,
  "\u2581Heilige": 7784,
  "\u7684\u773c\u775b": 7785,
  "\u96be\u8fc7": 7786,
  "\ue117": 7787,
  "\u2581B\u00fcrger": 7788,
  "\u2581Ki": 7789,
  "\u2581Patienten": 7790,
  "\u2581S\u00fcden": 7791,
  "\u2581\u4ed6\u4eec\u90fd": 7792,
  "\u2581\u516d": 7793,
  "\u5951": 7794,
  "\u5f88\u5c11": 7795,
  "\u61f7": 7796,
  "\u8b66\u63a2": 7797,
  "\u2581Toilette": 7798,
  "\u2581Trottel": 7799,
  "\u2581Wesen": 7800,
  "\u2581komplett": 7801,
  "\u2581\u5c71\u59c6": 7802,
  "\u4e0d\u6015": 7803,
  "\u5154\u5b50": 7804,
  "\u652f\u7968": 7805,
  "\u9001\u6211": 7806,
  "wie": 7807,
  "\u2581Kurz": 7808,
  "\u50f9": 7809,
  "\u5c31\u4e0d": 7810,
  "\u6211\u7684\u540d\u5b57": 7811,
  "\u2581einiges": 7812,
  "\u2581schmeckt": 7813,
  "\u5373\u5c06": 7814,
  "\u5c31\u77e5\u9053": 7815,
  "\u63cf\u8ff0": 7816,
  "\u96de": 7817,
  "\u2581Erkl\u00e4rung": 7818,
  "\u2581bemerkt": 7819,
  "\u4e00\u751f": 7820,
  "\u53a8": 7821,
  "\u5fcd": 7822,
  "\u64ad": 7823,
  "\u6a13": 7824,
  "\u7537\u53cb": 7825,
  "\u8a5e": 7826,
  "\u00c3": 7827,
  "\u2581\u745e": 7828,
  "\u71c8": 7829,
  "\u7684\u80fd\u529b": 7830,
  "\u9084\u80fd": 7831,
  "\u2581Kapit\u00e4n": 7832,
  "\u2581Magie": 7833,
  "\u2581\u675c": 7834,
  "\u4e00\u5343": 7835,
  "\u6ce5": 7836,
  "\u7248": 7837,
  "bel": 7838,
  "\u2581getrennt": 7839,
  "\u2581gezogen": 7840,
  "\u53bb\u90a3\u91cc": 7841,
  "\u652f\u63f4": 7842,
  "\u7b11\u8bdd": 7843,
  "\u897f\u73ed\u7259": 7844,
  "\u8bf4\u662f": 7845,
  "ish": 7846,
  "\u2581\u00d6l": 7847,
  "\u2581\u7d04\u7ff0": 7848,
  "\u60e9\u7f5a": 7849,
  "\u6ee1\u8db3": 7850,
  "\u7a7f\u8fc7": 7851,
  "\u8fc7\u5f97": 7852,
  "\u963f\u5c14": 7853,
  "\u2581Alice": 7854,
  "\u2581besprechen": 7855,
  "\u2581\u73b0\u5728\u6211\u4eec": 7856,
  "\u5171\u540c": 7857,
  "\u662f\u6700": 7858,
  "\u7838": 7859,
  "\u9053\u5fb7": 7860,
  "\u958b\u5fc3": 7861,
  "one": 7862,
  "\u2581\u4f60\u662f\u8aaa": 7863,
  "\u2581\u5982\u679c\u4f60\u4e0d": 7864,
  "\u2581\u5df2": 7865,
  "\u5c55\u793a": 7866,
  "\u5e72\u4e86": 7867,
  "\u8303": 7868,
  "if": 7869,
  "port": 7870,
  "\u2581Heim": 7871,
  "\u2581Tim": 7872,
  "\u2581\u795d": 7873,
  "\u2581\u795d\u4f60": 7874,
  "\u4e0d\u904e": 7875,
  "\u53eb\u4ec0\u4e48": 7876,
  "\u5934\u4e0a": 7877,
  "\u7684\u7236\u4eb2": 7878,
  "\u793e": 7879,
  "\u2581\u4f60\u770b\u8d77\u6765": 7880,
  "\u2581\u6211\u9084": 7881,
  "\u963f\u59e8": 7882,
  "\u2581\u5967": 7883,
  "\u6ef4": 7884,
  "\u71d2": 7885,
  "\u7684\u8ba1\u5212": 7886,
  "\u80a1": 7887,
  "\u8299": 7888,
  "\u9ce5": 7889,
  "\u2581knapp": 7890,
  "\u2581suchst": 7891,
  "\u2581\u4e0d\u662f\u55ce": 7892,
  "\u8b1d": 7893,
  "\u8fa3": 7894,
  "\u2581Fa": 7895,
  "\u2581\u6211\u4e00\u76f4\u5728": 7896,
  "\u544a\u8bc9\u4ed6\u4eec": 7897,
  "\u60f3\u5ff5": 7898,
  "\u6975": 7899,
  "\u6db2": 7900,
  "\u97e6": 7901,
  "\ue679": 7902,
  "sam": 7903,
  "\u2581G\u00f6tter": 7904,
  "\u2581schlie\u00dflich": 7905,
  "\u2581\u4f46\u8fd9": 7906,
  "\u2581\u8001\u7238": 7907,
  "\u4f60\u7238": 7908,
  "\u5341\u5e74": 7909,
  "\u5386": 7910,
  "\u5fc3\u60c5": 7911,
  "\u00fcr": 7912,
  "\u2581\u5565": 7913,
  "\u4fdd\u5b89": 7914,
  "\u5e3d": 7915,
  "\u627f\u53d7": 7916,
  "\u662f\u56e0\u70ba": 7917,
  "\u2581Rick": 7918,
  "\u2581Trink": 7919,
  "\u2581\u6211\u76f8\u4fe1\u4f60": 7920,
  "\u5f88\u559c\u6b22": 7921,
  "\u7adf": 7922,
  "elle": 7923,
  "ette": 7924,
  "\u2581\u5c31\u662f\u8fd9\u6837": 7925,
  "\u540d\u5355": 7926,
  "\u5e0c\u671b\u4f60": 7927,
  "\u5f97\u5f88\u597d": 7928,
  "\u66f4\u52a0": 7929,
  "\u624b\u4e0b": 7930,
  "\u820a": 7931,
  "\u8bc6": 7932,
  "\u2581Finden": 7933,
  "\u2581Song": 7934,
  "\u2581blieb": 7935,
  "\u7687\u540e": 7936,
  "\u8d70\u5230": 7937,
  "\u95f4\u8c0d": 7938,
  "35": 7939,
  "\u2581desto": 7940,
  "ub": 7941,
  "\u2581Nett": 7942,
  "\u2581erlebt": 7943,
  "\u6700\u5f8c": 7944,
  "\u7ea2\u8272": 7945,
  "\u8239\u4e0a": 7946,
  "\u8b93\u4ed6\u5011": 7947,
  "\u9ad8\u8208": 7948,
  "\u9b42": 7949,
  "~": 7950,
  "\u2581schrieb": 7951,
  "\u4e00\u70b9\u90fd\u4e0d": 7952,
  "\u5343\u4e07": 7953,
  "\u541b": 7954,
  "\u5bbd": 7955,
  "\u737a": 7956,
  "bringen": 7957,
  "kin": 7958,
  "ziehen": 7959,
  "\u2581mochte": 7960,
  "\u2581\u544a\u8bc9\u4ed6": 7961,
  "\u2581\u6211\u542c\u8bf4": 7962,
  "\u793c\u62dc": 7963,
  "\u8ac7\u8ac7": 7964,
  "gekommen": 7965,
  "lichen": 7966,
  "tur": 7967,
  "\u2581Unterst\u00fctzung": 7968,
  "\u2581vorbereitet": 7969,
  "\u628a\u624b": 7970,
  "\u7092": 7971,
  "\u88e4\u5b50": 7972,
  "\u8bf4\u5f97\u5bf9": 7973,
  "\u2581gehofft": 7974,
  "\u2581\u540e\u6765": 7975,
  "\u2581\u653e\u5f00\u6211": 7976,
  "\u62a5\u9053": 7977,
  "\u751a\u9ebc": 7978,
  "\u90a3\u6b21": 7979,
  "\u2581Aufmerksamkeit": 7980,
  "\u2581Montag": 7981,
  "\u2581Nachdem": 7982,
  "\u2581Versuchen": 7983,
  "\u4e5f\u4e0d\u6703": 7984,
  "\u5c16\u53eb": 7985,
  "\u6559\u4f60": 7986,
  "\u7a46": 7987,
  "\u2581Fr\u00fcher": 7988,
  "\u2581bewusst": 7989,
  "\u2581\u5176\u4ed6\u4eba": 7990,
  "\u6e05\u9192": 7991,
  "\u751f\u6c23": 7992,
  "\u9b27": 7993,
  "\u2581Geburt": 7994,
  "\u2581Krebs": 7995,
  "\u2581Mister": 7996,
  "\u2581Theater": 7997,
  "\u2581eh": 7998,
  "\u2581them": 7999,
  "\u2581\u4f60\u5bf9": 8000,
  "\u2581\u4fdd\u6301": 8001,
  "\u4e54\u6cbb": 8002,
  "\u52a0\u6cb9": 8003,
  "\u5929\u6c14": 8004,
  "\u6700\u9ad8": 8005,
  "\u7533\u8bf7": 8006,
  "\u8fd9\u6837\u8bf4": 8007,
  "\u2581Luke": 8008,
  "\u2581Regel": 8009,
  "\u2581beendet": 8010,
  "\u2581morgens": 8011,
  "\u2581sa\u00df": 8012,
  "\u2581\u4f60\u4e0d\u7528": 8013,
  "\u5230\u8655": 8014,
  "\u5c4b\u5b50": 8015,
  "\u65af\u5148\u751f": 8016,
  "\u771f\u5b9e": 8017,
  "\u9858": 8018,
  "\u85cf\u5728": 8019,
  "\u8d70\u7684": 8020,
  "\u2581\u0435": 8021,
  "\u5382": 8022,
  "\u5feb\u8981": 8023,
  "\u827a\u672f": 8024,
  "\u8d5e": 8025,
  "\u8fd9\u70b9": 8026,
  "\u961f\u957f": 8027,
  "\u2581Gerade": 8028,
  "\u2581Han": 8029,
  "\u4e0d\u518d\u662f": 8030,
  "\u6218\u58eb": 8031,
  "\u7eaf": 8032,
  "\u2581Erinnerungen": 8033,
  "\u2581\u53ef\u4f60": 8034,
  "\u2581\u8fea": 8035,
  "\u4e0d\u591a": 8036,
  "\u52a0\u5dde": 8037,
  "\u5b83\u662f": 8038,
  "\u6c57": 8039,
  "\u7684\u5473\u9053": 8040,
  "\u8f15": 8041,
  "\u2581Allerdings": 8042,
  "\u2581Ta": 8043,
  "\u2581begegnet": 8044,
  "\u2581\u5f17\u5170\u514b": 8045,
  "\u2581Gleiche": 8046,
  "\u2581Quelle": 8047,
  "\u6c92\u8fa6\u6cd5": 8048,
  "\u7947": 8049,
  "\u89ba": 8050,
  "\ue5e6\ue5fb": 8051,
  "ball": 8052,
  "ock": 8053,
  "\u4e4b\u7c7b\u7684": 8054,
  "\u5e7b\u60f3": 8055,
  "\u73a9\u5177": 8056,
  "Oh": 8057,
  "oo": 8058,
  "\u2581\u6211\u6709\u4e2a": 8059,
  "\u5206\u624b": 8060,
  "\u627e\u5230\u5979": 8061,
  "\u6c7a": 8062,
  "EL": 8063,
  "\u2581bieten": 8064,
  "\u2581fliegt": 8065,
  "\u2581ums": 8066,
  "\u2581\u6574\u4e2a": 8067,
  "\u4e0b\u6b21": 8068,
  "\u5219": 8069,
  "\u7c21\u55ae": 8070,
  "\u8bf4\u51fa": 8071,
  "\u8f6f": 8072,
  "\u2581City": 8073,
  "\u2581abzu": 8074,
  "\u2581eurer": 8075,
  "\u2581versuchte": 8076,
  "wir": 8077,
  "\u2581Vertrau": 8078,
  "\u2581abhauen": 8079,
  "\u2581gekriegt": 8080,
  "\u2581nutzen": 8081,
  "\u2581\u6240\u4ee5\u4ed6": 8082,
  "\u53c2": 8083,
  "\u54ea\u5152": 8084,
  "\u5c3d\u91cf": 8085,
  "\u6b47": 8086,
  "\u00c4": 8087,
  "\u2581Mac": 8088,
  "\u65d7": 8089,
  "\u6771": 8090,
  "\u2581Agenten": 8091,
  "\u7236\u89aa": 8092,
  "La": 8093,
  "\u2581Chuck": 8094,
  "\u2581\u00e4ndert": 8095,
  "\u2581\u628a\u6211": 8096,
  "\u4e0d\u5920": 8097,
  "\u5916\u661f\u4eba": 8098,
  "\u5927\u4e8b": 8099,
  "\u6491": 8100,
  "\u7279\u6b8a": 8101,
  "Re": 8102,
  "\u2581scheinen": 8103,
  "\u4e0d\u65ad": 8104,
  "\u4ef6\u4e8b": 8105,
  "\u5c31\u5feb": 8106,
  "\u7684\u547d\u4ee4": 8107,
  "\u2581Prozess": 8108,
  "\u2581Spiegel": 8109,
  "\u2581Stuhl": 8110,
  "\u2581mindestens": 8111,
  "\u2581schwimmen": 8112,
  "\u2581verboten": 8113,
  "\u2581\u4f60\u88ab": 8114,
  "\u524d\u8fdb": 8115,
  "\u6bcf\u6b21": 8116,
  "\u2581Perfekt": 8117,
  "\u2581nehm": 8118,
  "\u2581vergeben": 8119,
  "\u2581Heimat": 8120,
  "\u4e8b\u6545": 8121,
  "\u624b\u6a5f": 8122,
  "\u627e\u4ed6": 8123,
  "\u62a5\u7eb8": 8124,
  "\u90fd\u6c92": 8125,
  "\u4ece\u4e0d": 8126,
  "\u7ed1\u67b6": 8127,
  "\u807d\u6211\u8aaa": 8128,
  "\u2581wehtun": 8129,
  "\u2581\u63a5\u4e0b\u6765": 8130,
  "\u4e00\u689d": 8131,
  "\u53cd\u6297": 8132,
  "\u6211\u4eec\u5c31": 8133,
  "\u6570\u636e": 8134,
  "\u662f\u4ed6\u7684": 8135,
  "\u6843": 8136,
  "\u7559\u8a00": 8137,
  "\u2581Harold": 8138,
  "\u2581Ihm": 8139,
  "\u2581\u5f88\u5feb": 8140,
  "\u2581\u6211\u80af\u5b9a": 8141,
  "\u2581\u6309": 8142,
  "\u2581\u8bf7\u95ee": 8143,
  "\u2581\u8fd9\u5bb6\u4f19": 8144,
  "\u5c24": 8145,
  "\u63d0\u8d77": 8146,
  "\u6742\u5fd7": 8147,
  "\u7a7f\u4e0a": 8148,
  "\ue784": 8149,
  "ator": 8150,
  "\u5f88\u5f00\u5fc3": 8151,
  "\u7684\u5bb6": 8152,
  "\u7830": 8153,
  "\u8ddd\u79bb": 8154,
  "\u2581Trotzdem": 8155,
  "\u56de\u5934": 8156,
  "\u67d0\u4e2a": 8157,
  "\u7ffc": 8158,
  "\u03a9": 8159,
  "\u2581einander": 8160,
  "\u2581klasse": 8161,
  "\u2581\u77b7": 8162,
  "\u5728\u4f60\u7684": 8163,
  "\u9a7e\u9a76": 8164,
  "ron": 8165,
  "\u2581Schneller": 8166,
  "\u2581\u6211\u624d\u4e0d": 8167,
  "\u4f9d\u7136": 8168,
  "\u5728\u7b49": 8169,
  "\u7626": 8170,
  "\u8fd9\u5bb6\u4f19": 8171,
  "\u2581Gewehr": 8172,
  "\u2581Y": 8173,
  "\u2581selben": 8174,
  "\u2581\u653e\u677e": 8175,
  "\u4e00\u5bf9": 8176,
  "\u4f4f\u624b": 8177,
  "\u6253\u7535\u8bdd\u7ed9": 8178,
  "\u7ed9\u4f60\u7684": 8179,
  "\u2581Jean": 8180,
  "\u2581lebst": 8181,
  "\u4ff1": 8182,
  "\u50cf\u4f60": 8183,
  "\u5174\u594b": 8184,
  "\u5947\u602a\u7684": 8185,
  "\u8fd0\u6c14": 8186,
  "ain": 8187,
  "\u2581Ihn": 8188,
  "\u2581\u4ed6\u4e5f": 8189,
  "\u2581\u53ef\u662f\u6211": 8190,
  "\u2581\u665a\u4e0a": 8191,
  "\u56fa": 8192,
  "\u2581\u4ed6\u53ea\u662f": 8193,
  "\u589e\u52a0": 8194,
  "\u627e\u4e86": 8195,
  "\u2581Jacke": 8196,
  "\u2581\u6211\u7231": 8197,
  "\u2581\u8db4\u4e0b": 8198,
  "\u4e0d\u6210": 8199,
  "\u4e89": 8200,
  "\u4f60\u5988": 8201,
  "\u4f8b": 8202,
  "\u61f7\u7591": 8203,
  "\u90ce": 8204,
  "\ue019\ue5ee": 8205,
  "\u2581Alte": 8206,
  "\u2581This": 8207,
  "\u2581fehlen": 8208,
  "\u2581\u585e": 8209,
  "\u5f88\u5b89\u5168": 8210,
  "\u63a5\u89e6": 8211,
  "\u7d08": 8212,
  "\u2581einigen": 8213,
  "\u2581\u4e0d\u5982": 8214,
  "\u2581\u7ad9\u4f4f": 8215,
  "\u2581\u8ddf\u6211\u6765": 8216,
[...]
